<s>
<pad>
</s>
<unk>
<mask>
!
"
#
$
%
&
'
(
)
*
+
,
-
.
/
0
1
2
3
4
5
6
7
8
9
:
;
<
=
>
?
@
A
B
C
D
E
F
G
H
I
J
K
L
M
N
O
P
Q
R
S
T
U
V
W
X
Y
Z
[
\
]
^
_
`
a
b
c
d
e
f
g
h
i
j
k
l
m
n
o
p
q
r
s
t
u
v
w
x
y
z
{
|
}
~
¡
¢
£
¤
¥
¦
§
¨
©
ª
«
¬
®
¯
°
±
²
³
´
µ
¶
·
¸
¹
º
»
¼
½
¾
¿
À
Á
Â
Ã
Ä
Å
Æ
Ç
È
É
Ê
Ë
Ì
Í
Î
Ï
Ð
Ñ
Ò
Ó
Ô
Õ
Ö
×
Ø
Ù
Ú
Û
Ü
Ý
Þ
ß
à
á
â
ã
ä
å
æ
ç
è
é
ê
ë
ì
í
î
ï
ð
ñ
ò
ó
ô
õ
ö
÷
ø
ù
ú
û
ü
ý
þ
ÿ
Ā
ā
Ă
ă
Ą
ą
Ć
ć
Ĉ
ĉ
Ċ
ċ
Č
č
Ď
ď
Đ
đ
Ē
ē
Ĕ
ĕ
Ė
ė
Ę
ę
Ě
ě
Ĝ
ĝ
Ğ
ğ
Ġ
ġ
Ģ
ģ
Ĥ
ĥ
Ħ
ħ
Ĩ
ĩ
Ī
ī
Ĭ
ĭ
Į
į
İ
ı
Ĳ
ĳ
Ĵ
ĵ
Ķ
ķ
ĸ
Ĺ
ĺ
Ļ
ļ
Ľ
ľ
Ŀ
ŀ
Ł
ł
Ń
er
en
ch
Ġd
ei
ie
un
st
in
an
es
ein
Ġs
on
Ġa
Ġw
ich
Ã¼
ĠS
te
ge
Ġder
und
Ã¤
sch
Ġdie
ar
ung
Ġv
or
it
Ġund
ll
ur
as
Ġb
at
Ġein
ĠA
Ġi
Ġm
hr
Ġz
ĠB
em
Ġn
al
us
Ġin
ten
ĠM
gen
de
ter
Ġh
ĠE
ĠK
Ġf
ĠG
der
uf
ĠF
Ġ1
den
ĠP
ĠD
Ã¶
el
et
ra
ber
is
Ġer
ir
um
ĠW
ĠR
ti
Ġk
ĠH
lich
ĠT
am
ach
Ã¼r
Ġden
isch
ĠV
om
eit
Ġge
ĠL
Ġvon
ier
Ġdas
Ġg
ÃŁ
ol
re
Ġ2
ro
Ġzu
ck
Ġan
Ġ(
ben
icht
ut
Ġmit
uch
ig
ĠN
ĠI
Ġist
Ġauf
and
ĠJ
eh
ion
il
Ġdes
Ġim
Ġver
ent
Ġl
rei
ĠfÃ¼r
sen
ls
ann
ĠZ
ĠSt
se
ĠU
ahr
af
ste
men
au
le
ag
00
Ġbe
Ġdem
ah
ĠVer
âĢ
Ġsich
ĠC
Ġ"
ĠSch
Ġnicht
Ġt
Ġo
Ġun
Ġaus
Ġ19
Ġeine
ischen
Ġso
ab
Ã¤n
och
ik
Die
Ġwir
ien
ff
ungen
kt
eu
sp
Ġals
ĠO
Ã¼ber
Ġwur
nen
ehr
ind
Ġbei
iel
Ġwar
wei
Ġes
ĠAn
ver
Ġsein
sten
Ġsch
01
ser
ger
ad
etz
schaf
Ġp
ation
eich
ĠIn
..
lle
he
ĠÃ¼ber
Ġst
esch
Ġ-
Ġsie
Ġhat
Ġwer
ern
ed
Ġauch
eg
ri
eil
os
hn
ts
ing
ul
aus
Ġj
op
ĠEr
Ġwurde
ungs
im
ot
Ã¼n
ĠJahr
est
llen
Ġnach
Ġvor
Ġwie
Ġum
urch
Ġwerden
Ġam
rie
ĠSie
Ġsind
ort
ru
mer
lie
ang
Ġihr
ĠâĢ
ist
gt
Ġzur
Ã¶n
enn
Ã¶r
ĠUn
la
be
ĠAr
all
ĠSp
end
ische
Ã¤r
Ġeiner
schaft
Ġwird
Ġe
Ã¤t
aben
Ġ201
ĠPro
rÃ¤
Ġ3
Ġdass
Ġbis
chen
anz
ne
Ġich
hal
Ġdurch
Ġzum
ht
Ġr
hl
Ġunter
wer
Ã¼ck
tig
ĠEin
ĠEn
tet
Ġoder
Ġeinen
ech
ĠGe
Das
ug
ft
Ġent
ĠDie
Ġeinem
lichen
igen
kti
Ġab
Ġda
ster
tel
pp
eiter
stell
ill
Ich
ĠAus
tern
Ã¼hr
ĠBe
eine
gel
omm
Der
art
ĠMit
ran
auf
iert
Ġsp
zen
ner
uss
Ġ200
iv
ige
ĠÃ
bt
ick
og
ahl
geb
che
Ã¤hr
ĠBer
ommen
ers
eut
Ġnoch
ehen
uÃŁ
ert
bl
Ġhaben
pf
rit
for
atz
liche
iz
ic
her
eiten
schen
In
elt
ges
eits
hen
Ġall
ass
Ġre
me
Ġnur
Ġwo
ord
zu
ĠAb
ĠkÃ¶n
Ġmehr
",
ken
schl
ĠVor
lin
aten
ĠMa
Ġander
ast
cht
fen
ap
Ġaber
ess
ĠRe
rÃ¼
ust
ĠEur
Ġ18
Ġ4
etzt
det
tra
Ġvom
ĠâĢŀ
âĢľ
Ġzwei
gr
Ġdies
abe
ĠAuf
Ġdu
bar
ud
eben
adt
dern
ÂŃ
Ġ0
arb
ho
ze
Ġ5
ler
ĠGr
keit
Ã¤ch
wie
mal
lei
Ġkann
pl
...
Ġneu
ohn
ke
ob
Un
ue
Ġber
alt
oll
roÃŁ
ia
id
acht
ok
nis
Ġzw
Ġman
eb
Ein
lt
ant
ieren
ktion
Ġdar
Ġwas
ĠKon
Ġgew
ss
19
Sie
iss
fahr
ĠOr
Ġc
imm
leich
).
kl
ild
Ġgegen
ĠHer
reich
Âł
Ġweiter
ehmen
ĠMar
ww
heit
ow
Ġet
ĠLand
assen
ĠGem
ĠZeit
),
ekt
Ġsoll
Ġ7
ak
fÃ¼hr
ial
Er
nah
Es
Ġlie
Ġbes
ay
fer
bur
ĠEnt
ell
ĠFra
Ġges
utz
fl
Ã¼t
ĠArb
Ġwurden
ammen
glich
fol
mit
ov
ĠkÃ¶nnen
ierung
age
du
Ġgen
ffen
Ġ6
Ġ199
Ġwieder
itz
ĠGemein
Ġhin
ande
att
Ġkon
ĠSe
ĠFl
Ġbest
bst
od
ĠCh
Ġhatte
ĠAl
fe
mm
".
eigen
unden
tp
vor
usammen
dem
Ġhier
per
schie
rin
Ġkl
ĠNach
teil
Ġbet
land
pt
eiÃŁ
//
agen
Wir
Ġdieser
ard
reis
ĠGes
glie
Ġher
ational
Ã¤nd
ierte
ĠStadt
ĠEurop
Ġetw
gan
lieÃŁ
eid
olit
nung
ma
Ġeines
Ġwenn
://
Ġsowie
rat
ez
Ġdiese
eld
ischer
lung
net
iger
ĠReg
we
Ġseine
ĠUm
ĠUnter
sam
ark
eim
Ã¼s
form
wick
nt
St
Ġhabe
ĠKl
mein
ĠKomm
ľber
io
Ã¶ff
Ġ8
ett
ĠPl
itÃ¤t
zeit
gesch
Ġzwischen
ĠgroÃŁ
ibt
iele
kte
hm
si
Ġje
Im
ahn
ce
eite
Ġuns
ĠDer
ĠDeut
sche
los
ate
Sch
Ġ9
201
rich
onder
An
ĠFor
kommen
Ġdann
zeu
Ġsei
Ġ10
Ġseiner
Ġ15
ĠJahre
ub
gend
ĠRo
Ġsag
burg
qu
oren
sel
ĠJahren
issen
Ġwaren
Ġins
fin
ĠHo
irt
aut
Ġ.
Ġgeh
eute
ren
Ġdeut
ĠGesch
ĠMen
10
ition
nte
tigen
ember
Ġihre
lau
Ġschon
Und
Ġmir
fÃ¼
eister
einen
ont
ater
kel
ÃŁe
haus
Ġ17
tem
zeich
Ã¤hl
lo
Ġ12
inder
stellt
ission
Ġ198
Ġdam
bau
our
Ġgibt
halten
Ġsel
Ã¶glich
ĠSte
rupp
Ġmich
ale
gra
Ġ20
orden
eht
hnen
achen
000
ĠBr
Ġfin
war
Ġjed
Ġalle
ph
amt
pr
tion
Ġviel
amen
Ġunser
Ġdrei
aat
fall
annt
vers
Ġseit
pro
zent
Ġger
ĠMitglie
min
Ġsehr
ĠQ
ĠÃľber
arl
Ġimmer
ĠIm
ieder
ĠdaÃŁ
ian
ĠSo
ĠâĢĵ
berg
av
Ġ16
Ã¤nder
spiel
ĠAm
Ġkeine
stand
ĠTeil
ĠSpiel
ationen
Ġgesch
12
geben
Ã¼d
satz
ĠIhr
weise
sk
ium
Ġthe
Ġgr
Ġange
ucht
if
ĠKo
Ã¶l
ĠWelt
ĠzurÃ¼ck
ĠDas
ald
iet
ĠHaus
bes
hne
cken
eter
yst
ĠUhr
ĠTh
ank
erson
Ġdiesem
Mit
mann
eist
Ġihn
ine
atur
richt
Ġausge
trag
kehr
Ġbeg
Ver
ĠGeb
olog
rank
Ġfol
eren
br
ĠBet
ĠmÃ¼s
Ġof
ĠLeben
ĠStra
Ġbeim
Ġde
Ã©
amm
Ã¤l
Ġeigen
Ġ14
Ġerst
ĠFrau
Ġen
Ġanderen
inn
stag
http
ystem
ĠRech
ÃŁen
tige
Ġganz
aupt
chte
ER
halb
ks
Ã¼nf
lÃ¤
Ġersten
undes
anden
amil
omp
ew
Ġdir
icher
ĠMin
Ġ197
ĠZu
Ã¤f
ĠBei
ichte
rieb
ac
ternehmen
Ġpro
Was
Ġ13
ade
Ã¶s
rum
hÃ¤
Ġ11
zt
esen
Ã¤hrend
ive
Ġwen
aum
ĠGrund
Ġgeb
ĠMus
egen
uÃŁer
ĠGer
ander
Ã¤ter
Ġwill
alen
ost
ĠWas
stellen
lage
ult
ĠMann
ĠBl
ĠMon
uten
ip
Ã¤d
Ġbek
Ġgut
Nach
18
abei
ĠKommission
20
ĠgehÃ¶r
fra
Ġbesch
Ġmein
ktiv
schafts
fahren
Ã¶ffent
zie
ĠTe
ais
www
schland
ĠPol
ker
11
off
igkeit
ĠFr
Ġar
Ġgleich
ĠUS
ielt
ĠRat
Ã¤ischen
oh
Ġihm
zial
bild
gung
200
stra
Ġverl
âĤ
Ġjedoch
ack
ek
ott
âĤ¬
ings
ĠfÃ¼hr
schaften
licher
ĠMenschen
ange
Ġdamit
uer
iff
ĠWer
tre
ĠAut
mittel
orf
ĠBau
ĠÂ
17
rech
ionen
30
fach
Ġbereits
unde
Ġselbst
Ġson
ute
16
zahl
ĠMitglied
ĠSchl
ĠArbeit
schieden
ende
Ġgef
com
als
Ġihrer
olitik
ĠBes
ober
ierten
ingen
ichtig
Ġgel
ĠPerson
ĠBo
Ġ/
Ġbin
stellung
Ġmuss
rad
ĠMÃ¤r
ister
Ġetwa
unkt
ohl
Ġfor
ere
50
Ġseinen
Ġ2016
folg
fs
Ġzusammen
EN
wend
Ã¤m
ha
setz
ĠwÃ¼r
zel
lagen
ĠJun
walt
enden
Ã¶ÃŁ
halt
ens
isten
gar
Ġgeht
Ã¼rger
ĠmÃ¼ssen
Ġneue
ans
auer
ym
ienst
weg
siden
ritt
Du
riff
az
ĠVerein
Ġverb
Ġkomm
ĠAug
irk
uchen
rÃ¤siden
bei
gl
ron
ĠEs
ule
ilm
Ġu
ĠEuro
aaten
uft
gang
ĠPart
ĠÃĸ
nahme
Ġon
mus
stÃ¤nd
ĠUnternehmen
dr
ĠDeutschland
klÃ¤r
ĠBundes
ogen
ĠProdu
Ġheute
ĠFamil
Ġseinem
ĠMo
Ġjetzt
Ġdoch
hin
ĠKinder
ĠFahr
ite
zw
na
ĠEnde
so
yp
15
ĠQu
Ġeinge
ĠLe
Wie
nahmen
schlieÃŁ
ĠTag
Ġ196
ruck
ĠGen
Ġdich
ta
....
ĠKir
zei
ĠY
hol
Ġeben
hil
innen
rach
ĠEx
Ġletz
asse
enz
essen
reu
ĠSchw
Ġnie
ib
ĠMÃ¤rz
mÃ¤
urop
ond
Ġal
Ġ30
ĠBesch
nisse
ĠVerb
ĠJul
Aber
ĠEl
keiten
ec
Ġdieses
ĠJan
Ã¤nger
CH
Ã¼nd
ivers
Am
urz
igung
ĠEU
ĠOrt
Ġohne
Wenn
ef
ĠZusammen
ĠspÃ¤ter
ĠMill
Ġihren
arbeit
unter
Bei
Ġetwas
ou
gemein
Ġliegt
eicht
nit
meister
Ġ194
Ġeh
oten
von
Ġand
Ġneuen
Ġkommen
rag
ĠÃĦ
cke
Auf
angen
blem
kon
ĠEntwick
Ġkein
Ġverw
Ġ,
Ġnun
gew
tikel
spr
Als
immer
rieg
Ġaller
Ġvier
Ġfest
haf
ĠweiÃŁ
Ġfr
fte
Ġdort
sicht
ĠSon
ubl
Ġworden
ys
Ã¤ng
mar
igt
ĠNeu
ternational
So
ĠPf
Ġandere
Ġgest
gleich
Ġnah
ĠSti
ame
gramm
hof
ĠOber
Ġwel
amp
man
22
gangen
zug
Ġ%
ĠNov
Ġmus
ĠHaupt
Ġob
ruppe
stadt
ikan
fÃ¤
Ġmachen
Ġgemein
Ġvers
rot
iell
esse
ĠRei
Ã¶nig
ament
Ġkonnte
ĠArbeits
ĠFin
org
uar
werk
ations
25
Ġ25
grund
osten
irtschaft
Ġfolgen
kauf
rechen
Ã¤u
falls
FÃ¼r
sa
legen
14
ĠBerlin
stÃ¼t
ĠTra
ĠSep
ĠgrÃ¶ÃŁ
âĢĵ
Ġviele
Ġbeiden
itzen
tember
hÃ¶
Ã¤re
ĠCo
ĠFre
Ã¤tig
ĠKar
Ġsagte
ĠJuni
ĠwÃ¤hrend
ktur
sb
Ġverschieden
Ġerste
gaben
old
chn
inter
ĠBereich
hund
eln
ment
ven
zer
Ġkam
Eine
zeug
Ġdenn
wohn
ganis
's
Ã¼nst
ktober
Ġallem
ĠMal
13
Ġteil
Ġdabei
ĠStaat
ĠEuropÃ¤ischen
ĠHand
Ġsteht
ĠJu
Ġis
Ġmal
ĠWoch
Sp
ĠMe
th
gie
ĠmÃ¶
ball
ĠMittel
aden
Ġsondern
ĠWei
Ġ22
rÃ¤sident
ehn
ultur
ĠGroÃŁ
ĠBild
fang
Ġex
alien
ĠChr
ĠGemeinde
ina
ingt
ĠHÃ¶
ĠWasser
fÃ¼hrt
tier
Ã¶rder
Ġalles
ĠAugust
ĠInd
scheid
Ġdiesen
ĠUr
alten
tr
ezember
Ġgab
ĠSchul
ĠApr
iere
ĠInform
tigt
alis
ller
reichen
andel
Ġsagt
tw
ĠFrank
eiden
forder
ĠFrei
Ġsollte
Ã¤tz
Ġstatt
ufen
euer
hÃ¤lt
scher
ĠLie
03
di
ĠUnivers
eig
ĠBeg
Da
ĠfrÃ¼
Auch
ĠSeptember
izei
ĠDe
Ġdenen
ĠOktober
kun
itÃ¤
Ġbesonder
ĠRÃ¼ck
Ġbra
ĠPar
07
ĠJuli
mÃ¤ÃŁ
ĠBÃ¼rger
ativ
ĠMai
ringen
Ġte
Ã¤nde
Ġ21
ĠRicht
neh
ĠKÃ¶nig
tete
Ã¶ffentlich
ĠNovember
htm
ock
tag
rieben
ĠWohn
ĠInter
ĠHerr
Ġbef
ĠhÃ¤t
08
ĠWar
immt
ore
deut
ĠGra
ĠJanuar
ats
ĠVers
The
Ġlang
Ġto
ordnung
Ġ+
Ġweil
Ġgem
Ġbel
Ġeinfach
fern
del
enk
heim
ĠThe
Ġ23
ĠDezember
ichts
04
ies
genommen
ĠMusik
orgen
ĠfÃ¼nf
Ġ24
Bl
Diese
ften
Ã¤chst
Ġspiel
Ġaufge
aar
ĠPlatz
Ġsehen
05
allen
ĠGl
jÃ¤hr
02
Ġverst
ĠApril
ĠDurch
co
ĠNord
Ġben
wert
Ã¤ndern
Ġbefin
ĠVol
ĠProzent
raft
punkt
ache
rom
jekt
ried
aison
Ġentsp
ĠArtikel
iner
Ja
ĠMan
Ġht
ĠLin
ĠProblem
ide
jahr
ĠÃ¤
ĠmÃ¶glich
Ġkommt
amer
raum
ĠSÃ¼d
ax
Ġfinden
prÃ¤
schri
ai
Ġdazu
legt
ĠMed
Ġbeh
ĠFilm
erv
up
bo
nten
Ġ&
stein
riv
emen
24
err
Ġnichts
Ġdarauf
arlament
Ġ195
fo
Ġhatten
sst
06
itu
Ġ193
Ġblei
Ġzun
Ġrund
199
ager
lossen
ahmen
Ġgemeinsam
sterreich
afÃ¼r
arten
Ġja
Pro
Aus
ĠwÃ¼rde
Ã¤hlt
Ġfrei
ĠJahrhund
ĠIhnen
unst
ĠEntwicklung
Ġbie
eitung
ustrie
wohl
obil
09
dings
Ġweitere
ĠâĢĶ
opp
echsel
Vor
ĠStud
gabe
ellschaft
inde
ennt
Ġ(*
yn
eile
ĠNamen
ĠPersonen
Ġ2015
fr
Ġhttp
cher
mals
Ġho
ĠHoch
bach
ĠArt
Ġersch
Ġlassen
schutz
bung
umen
unktion
erk
ĠInst
ehl
fÃ¼hrung
ĠNr
Ar
Ġ:
Ġsol
ĠRahmen
ebru
feld
utter
ĠIch
itel
ruktur
bet
welt
itte
anst
affen
achsen
tro
ebruar
Ġch
ieg
Von
Ġderen
verb
schnit
tiert
kten
ĠGemeinschaft
lex
iga
Ġwoll
orn
ĠhÃ¶
bahn
sted
ĠLandes
Ġem
bildung
Ġalso
reg
Ġmeine
ruppen
racht
Ġerfolg
ĠBest
Ġvoll
schied
ĠPolizei
ity
leist
ĠLi
arr
Ġarb
rist
ey
Ġwegen
heits
els
.)
isk
ice
ĠFuÃŁ
ĠGew
ÃŁnahmen
asst
ĠSeite
Ġeinz
ĠBed
annte
23
grÃ¼n
Ġschw
ublik
inen
je
ĠMÃ¼n
echn
straÃŁe
Ġletzten
Ġnot
echs
Ġsicher
ex
ĠFest
ĠParlament
ĠauÃŁer
ĠDaten
Ġstehen
ĠForm
ĠÃ¼
Ġwerde
aur
Ã¤chte
zeichnet
Ġwissen
ĠFrauen
Ġ28
ommer
Ab
platz
ĠStand
Ġth
Ġwollen
ĠGott
treten
gesamt
ĠFebruar
gegen
ĠerklÃ¤r
ĠNieder
ose
werb
arm
ĠgroÃŁen
ep
Ġ2018
ĠGegen
ĠLebens
bert
ct
schlag
ologie
ĠPr
Ġdavon
Ġeinige
Ġgehen
Ã¤tze
WG
gesetzt
ĠSicher
26
hand
ĠMillionen
Ġallen
Ġ27
ator
ĠZahl
Ã¡
ichten
zung
ĠFol
ons
ĠRegion
erst
ĠgroÃŁe
Ġerz
dete
ĠlÃ¤
ĠFall
wirtschaft
21
staaten
Ġ2010
aÃŁ
ĠWahl
Ġor
ckt
Ġtra
Ġdessen
Ġschne
ĠSaison
Ġeinmal
ĠWe
agt
alb
Ġhast
Ġel
uÃŁen
ĠKap
olf
ĠEntscheid
ennen
rauch
Ġsollen
lungen
ĠÂ»
ĠNÃ¤chte
ath
Ã¶st
schw
kunft
ĠFlug
ĠWeg
Ġ29
urs
Ġihrem
ogra
gestellt
wort
28
erin
Ġzahl
oc
ĠBeh
Ġ26
ĠRechts
sh
ĠBuch
ĠZwei
uhr
Ġerw
Ġoffen
zieh
annten
ĠAd
red
einander
tt
ĠdafÃ¼r
lauf
schluss
Dies
ES
ĠkÃ¶nnte
stoff
ĠKunst
ain
ĠHil
ĠJugend
ĠLu
bereich
")
atÃ¼r
ismus
mo
ĠAll
ĠwÃ¤re
ĠBar
Ġpolit
stens
Ġbesser
27
Ġkurz
ampf
ĠhÃ¤
one
Ã¼hl
que
ika
tlich
Ġtun
ĠMarkt
Ġ[
spro
ote
Ġentwick
minister
elle
Ġerh
ĠChrist
inger
Ġra
andelt
assung
recht
Ġverm
li
Ġihnen
ĠBel
schule
29
Ġ...
Ġinternational
EI
chten
rÃ¤n
AN
ĠEuropa
Ġinner
ester
reit
igten
Ġeurop
Ġschwer
ign
ĠGeld
Ã¼ss
ĠZug
ĠgehÃ¶rt
ĠJahres
Ġbekannt
schul
Ġ2008
ĠFamilie
anzÃ¶s
Ġerhalten
are
ĠEis
nehmen
eitet
irtschafts
Ġbede
ĠIhre
ondere
heiten
zogen
osition
isches
urt
ĠNational
alter
ure
ase
ichtet
uter
Ġebenfalls
Ġ100
ĠVerl
arbeiter
endet
ĠEm
wahl
ĠSk
Man
Ġ2011
Ġabge
Ber
ull
reffen
sol
ail
lichkeit
Ġsagen
Ġwichtig
Ġ2009
ĠheiÃŁ
ve
achte
Ġwirk
Ġlange
ĠFinanz
kreis
vo
Ġging
Nein
entr
Ġkm
ĠGener
ritten
Ġed
Ã¶lker
ĠLehr
Ġweit
ĠHin
Um
ied
son
lan
vest
ĠBahn
ĠDu
ĠMet
ĠDienst
ĠZiel
llt
ema
of
schung
Ġdah
cker
ĠSu
Ã¤nge
Ġ2014
ĠAu
Ġit
Ġle
ĠSystem
ĠErgeb
ĠNew
ĠPolitik
Ġ50
istor
uche
alitÃ¤t
ĠDon
weit
Wer
gehen
eum
âĢĻ
besondere
opf
eigt
emal
fel
ĠKirche
Ġir
Ġern
sl
ative
ffiz
tragen
Ġunsere
eisten
ĠII
Ġdeutschen
Ġjewei
Ġ2007
Ġ("
ĠschlieÃŁ
Ġgeben
ĠSohn
Ġbew
Ġglau
Ġinter
ppen
bel
ĠTechn
Ġheraus
Ġx
iew
ĠSport
ĠX
Ġ2013
Ã¤ude
ĠPrÃ¤sident
Hier
licht
Ġy
res
ĠzunÃ¤chst
schein
ranken
ielleicht
Ġ2012
rÃ¤ge
Ġbzw
einer
nehmer
gn
gte
ĠVerkehr
Ihr
ider
setzung
Ã¼l
Ġanderem
Ġmacht
reise
Ġne
Ġentst
ĠPh
wendung
ilt
stelle
Ġwohl
ĠEinsatz
EWG
oss
ĠSchwei
49
ĠnÃ¤ch
akt
ette
Ġhinter
ĠBay
Ġ31
Ġhoch
utt
ĠAt
ĠGel
ĠTeam
anten
ĠMÃ¤n
iels
markt
ĠBur
Ġallerdings
ĠNatur
ĠFern
Ã¤mpf
ĠGeschÃ¤f
45
UN
Ġbefindet
ĠRegel
ĠHol
Ġwollte
die
linie
Ġgemacht
nete
Ã¤ische
ĠSan
kr
ĠSozial
ĠOl
Ġzweiten
fung
sitzen
Ġ#
bed
sy
gebiet
ca
ĠBeispiel
Ġbist
ĠRegierung
schuss
altung
ĠSal
tim
rotz
Ġreg
__
ĠWochen
onnen
Ġneben
ierungs
uelle
ly
ĠVerwalt
Ġsozial
teilung
Ġfast
ĠSer
ĠFrage
Ġehemal
ergie
ĠKrieg
reiche
ĠSam
hÃ¤ng
ĠPartei
eint
War
stÃ¼ck
ix
ka
inner
verkehr
ĠRep
ĠKultur
Ġeigenen
Ġur
ĠMÃ¶glich
wehr
ĠTod
ĠFamilien
bend
ohann
alle
Ã¤ren
ĠMitgliedstaaten
ĠProf
andels
ise
achten
ĠJa
ĠLuft
Ġhab
ĠUnion
ork
besser
reicht
ĠFÃ¼r
Ġgerade
aler
ĠgegenÃ¼ber
Ġbil
Ġ2006
ĠhÃ¤tte
ĠverfÃ¼
Ã¤ftig
ĠPat
ĠWirtschafts
ĠInformationen
Zu
Ġper
ilder
ĠDan
34
ĠTur
eder
ĠâĤ¬
ĠUSA
itÃ¤ten
tieren
ettbe
Ġwelche
ĠGeschichte
ĠKreis
etzen
aw
zess
druck
rik
ĠAls
wohner
Ġleben
ĠAnt
ĠIt
ĠProgramm
Ã¤che
ĠFir
ĠRates
lang
ĠMil
Ġbesteht
Ġsollten
ntag
**
ĠmÃ¶chte
pa
Ġzwar
Ã¶rper
ĠTel
ĠTran
Ġakt
ĠGrÃ¼n
ĠHotel
dorf
ĠBetrieb
reiben
ĠRad
ĠWest
ĠdÃ¼r
Ã¶rt
uchs
Ġweniger
Ġsechs
ĠPM
ĠVater
Ġerhielt
Ġeinzel
ĠHam
Ġwahr
staat
ĠBas
etten
uren
35
&#
ĠsÃ¼d
ĠEntscheidung
Ġbestimm
indung
iker
ipp
tels
ari
40
rache
Ġgilt
Ġoft
pen
beh
hel
Ġgar
ĠTor
hle
ĠLeist
ĠBerg
Ġdan
ĠKn
teilt
ektor
ĠSommer
ets
Ġstell
ĠTitel
ĠRom
glichen
ĠHeim
etter
hang
cl
weis
IS
ev
gef
sport
Ġverschiedenen
uen
ĠMutter
schnitt
ĠKat
scht
iges
ĠReich
ĠBeruf
Ġbegann
ĠPreis
Ġgenau
ĠFeuer
antwort
ire
Ġ2017
Doch
ĠBand
ĠTex
33
ins
ĠDem
ĠunterstÃ¼t
Ġumf
atÃ¼rlich
ellen
Ġinsbesondere
ĠWerk
Ġvielen
ĠNacht
ĠUniversitÃ¤t
Ġstar
ĠProjekt
line
ĠDi
ĠAng
eitete
dre
Ġwenig
ĠStraÃŁe
loss
ĠStaats
was
Ġjeder
mÃ¶glich
ĠBÃ¼
Seit
nder
Ġzehn
ĠAnfang
geh
hein
lungs
Ġ'
ĠCl
ĠÃ¶ffent
dienst
frei
ĠBen
ĠBesuch
unkte
ktionen
Ġsogar
Ġmehrere
iter
ee
ĠPlan
Ġschnell
ĠEigen
Ġkeinen
Ġseien
Ġbesonders
Ġinsgesamt
ilom
part
ienen
oder
ĠVon
Ġklar
Th
ĠMaÃŁnahmen
leben
liegen
Ġget
IN
Ġbisher
zÃ¼
ĠHÃ¶he
ossen
ĠKom
rÃ¼ck
ĠfranzÃ¶s
ĠFried
Ġwich
ko
Ġmusste
vÃ¶lker
Ã¶ren
ĠFach
iti
ool
ĠMont
Ġ2005
ĠWien
ĠWissen
ĠRes
aul
blick
Ġnational
Ġgewesen
oph
des
oto
EL
Ġzie
Ġkom
ĠTour
Ġrecht
ĠAlter
ĠTÃ¼r
stat
etzte
ĠFuÃŁball
rigen
ĠSitz
wÃ¤r
ief
PD
Ġinnerhalb
ĠGeh
ĠStre
âĢŀ
ums
tler
kir
ĠverÃ¶ffentlich
ĠFer
richten
All
fort
."
Ġbietet
tiger
zeitig
uchte
ĠRu
usÃ¤tz
Ġwirklich
ĠHe
Ġdi
36
utzt
richtung
itter
ĠWie
ĠGeschÃ¤fts
Ġro
Ġend
zimmer
ĠSel
Al
sie
verein
eier
ĠRaum
rt
rieden
nach
ĠKÃ¼
ĠIs
use
Ġstark
Komm
unt
ĠGesamt
da
ĠMich
Ġspez
Ġnahm
Ġerg
48
39
ance
ĠDar
ĠGruppe
ĠFÃ¤
Ġgesam
ĠRolle
Unter
erne
ĠLa
hei
Ġbed
ĠDiese
ĠfrÃ¼her
ĠFreund
sehen
frage
JÃ¤hr
Ãľber
ĠFrÃ¼
ĠPark
schriften
gangenen
ĠOb
ĠNe
Ġbr
ĠUmwelt
ingungen
ĠKomp
Ã¤ndert
arbeiten
Ġ40
anken
âĢľ.
Po
orten
ettbewerb
ĠschÃ¶n
ula
ĠFrankreich
ragen
wand
ĠCar
ĠGast
atten
ĠDeutschen
uell
ĠRecht
Ġqu
tschaft
ĠProduktion
ĠEnergie
Ġseines
Ġeuch
system
Ġdeutlich
ichter
ĠÃĸsterreich
Ġempf
ufe
198
ĠJahrhundert
ĠTr
Ġschl
ĠArch
gesehen
ĠOst
ĠPer
Kl
âĢľ,
Ġtechn
orte
Â«
Ġweiteren
ĠÃ¶
wagen
ĠJohann
utzen
voll
reifen
31
Ġfindet
ĠZw
laub
liches
steller
Ġzeigt
ĠAuto
ĠIntern
Ġliegen
Mar
uellen
Ġmeisten
ĠVertrag
achst
krieg
ĠDa
ritte
ĠMinuten
piel
ĠAnge
nerstag
.,
ja
scheiden
Ġsieht
anzen
anc
US
ĠWeiter
38
ĠEinzel
Ġstand
Ġ2000
Ã¼nstler
spl
neten
ymp
wiesen
Ġunterschied
stre
37
mb
sn
Dann
ital
ael
ĠGebiet
ON
ĠheiÃŁt
ĠZusammenarbeit
such
ĠPhil
ĠThema
Ã¤um
enzen
oti
Ġind
ĠNor
ĠprÃ¤
ry
eitag
ĠWert
radition
ĠMitarbeiter
Ġgl
ĠPort
ĠRest
ĠâĢł
zip
ĠMehr
ong
Ġhinaus
AT
ĠVerfÃ¼
ode
Ġblie
Ġkonnten
Ent
ersÃ¶n
ĠStraÃŁen
otor
Ã¤chlich
ummer
ĠAlt
Ġ2004
aterial
Ã¤hlen
ĠgegrÃ¼n
ĠSeiten
ochter
Ġunserer
mel
own
Ġweg
fÃ¤h
Ġlos
ĠLauf
ĠÃ¼b
ĠBru
ĠHerz
ĠRichtung
auen
vin
ĠfÃ¼hrt
aup
ĠTage
ĠItalien
ĠStell
ĠKin
Ġaufgrund
EG
istischen
wirk
ĠSen
geber
ĠOrganis
igte
ĠSchutz
ĠSh
Ãĸ
Dan
ĠVerfahren
Ã¼ler
AR
halts
ĠÃĦnder
omit
Ġnehmen
ĠVolks
ĠMÃ¼nchen
Be
ehm
Ġbevor
geord
32
ĠStat
gten
under
weiter
ĠMeter
ĠdarÃ¼ber
anien
Denn
ĠBedeut
rift
ĠLage
Ġgewann
igkeiten
ĠRa
isse
len
Ġgegeben
nahm
ĠHilfe
ĠVert
ÃĦ
Ġjeden
UNG
ĠPap
ĠWeb
ÃŃ
ana
wig
ĠAbend
ĠKommun
rÃ¤gt
Ġkleinen
Ġdirekt
ĠDorf
ieten
Ġei
ĠFÃ¶rder
ĠIndustrie
ĠWoche
ĠBevÃ¶lker
uk
ĠMeister
gruppe
Ġfand
yr
It
ĠZimmer
hard
ĠStaaten
wegen
Ġbleiben
Ġ189
ĠAlb
ilometer
km
krÃ¤
ĠSchiff
Ġangeb
ĠDien
Ġform
ĠName
ĠBeit
55
ĠwÃ¼rden
rug
jp
Ġfinanz
ĠUnterstÃ¼t
burger
uÃŁerdem
onen
duz
oe
eiger
ĠStr
ĠFC
ĠWald
stieg
mÃ¶
ĠBad
agement
46
gem
ĠMag
str
Ġerwar
ĠKan
Ġkleine
ĠBra
ome
ĠKosten
80
Ġvergangenen
ĠKind
uh
ĠMark
Ġklein
ĠBedeutung
alif
ĠlÃ¤sst
TC
ĠNÃ¤
Ġrel
ufig
fahrt
ĠPeter
rid
ĠKraft
ĠGebÃ¤ude
omin
Wo
ammer
wesen
hren
ĠIde
weisen
atte
geln
immung
Ġerstmals
onn
ĠInsel
47
Ġdaher
okrat
itÃ¤r
ĠMitte
schlÃ¤
schinen
ĠGesetz
arf
Ġgesagt
hausen
deten
ST
unk
ĠschlieÃŁlich
haupt
urr
reuz
Ġwirtschaft
uth
En
par
amit
aly
ĠWieder
zuf
ĠLei
Ġhervor
ehe
ĠBi
wÃ¼r
aufen
Ã¶sung
bene
ci
Ġsowohl
Ġfolgenden
ĠFÃ¼hr
RL
baren
liga
ĠFolge
sprÃ¼n
Ã¼ndung
ĠEle
Ġstellt
fest
ĠHel
ĠMinister
ĠLÃ¤ndern
Ġat
ĠAust
pfer
geschlossen
utet
Ġlin
prÃ¼
59
Ã¶t
gor
Ġpass
ĠKunden
ĠMitglieder
ĠInvest
Ġheu
esent
ikanischen
Â°
itt
oppel
60
Ġ01
ĠÃ¤l
ement
ĠSonntag
ĠMÃ¤nner
ativen
Ġspielte
Ġbitte
Alle
2015
ĠLÃ¤nder
ĠStein
ahren
ĠStunden
Ġdeutsche
wissen
folge
ĠEng
ĠTochter
ĠnÃ¤chsten
ĠVeranst
44
Ġbestehen
Ġentfern
spiels
twoch
ĠAmt
Â²
ĠNutz
kn
mme
Ġfort
ĠfÃ¼hrte
plan
Ġgute
ĠEine
urf
furt
ĠBeschÃ¤ftig
ĠVerfÃ¼gung
ish
ĠMer
ĠÂŃ
ĠWil
ĠPo
Nicht
Ġverwendet
Ġentsprechen
tegr
ziehen
Ġ09
ĠHaf
Ġaktiv
wo
Den
ĠzusÃ¤tz
apan
Ġgefunden
jekte
ĠGesellschaft
politik
43
Ġbezeichnet
Ist
Ġdein
Ġbringen
Ġwobei
schlieÃŁend
Ġstellen
Ġjem
ĠAugen
56
met
Ã¼cke
ĠSÃ¼
Ġjeweils
76
ĠSicherheit
ĠTem
best
fÃ¼hrer
ware
itze
ĠFreitag
schrift
bare
ĠErfolg
ĠAuch
komm
ĠSol
Zum
41
Ġthis
ps
vol
Ġ08
rÃ¤ger
Ġkosten
seite
ĠFragen
ĠInnen
abel
Ġleg
ae
âĢĶ
Ġ1990
Ġhel
Oh
Ġstud
ĠMart
ions
abil
Ch
Ġacht
iken
Ġrech
ument
Ã¤nden
erts
arch
Ġ000
ĠEltern
ĠGesund
Gr
Ġzuf
buch
fuhr
ĠWinter
ĠMode
ages
ĠWir
Ġpl
port
statt
tens
ĠKr
abhÃ¤ng
ĠDes
Ã¤tzen
zte
neut
ĠFunktion
inge
produ
ĠSchule
omat
ias
Posted
ikation
aren
van
ĠPrÃ¤
Ġfl
Ġerreich
ith
ĠFlÃ¼
urm
ĠDr
Ġverkauf
izin
Ġalten
ĠDir
Ã¤hn
samm
adem
-/
ĠeuropÃ¤ischen
Ġwelt
ĠEUR
ars
Bis
zeichnung
napp
ĠPla
Durch
Ġsieben
Ġgenannt
ĠGÃ¤
ĠAk
........
Ġschle
ĠNetz
Ġser
ĠABl
Ġeinigen
gien
zentrum
57
Ġdamals
ĠBoden
ĠhÃ¤tten
folgt
ĠmuÃŁ
leistungen
Ġvert
zeuge
rop
llig
Ã¶hn
2016
wasser
onds
ĠErd
Re
eien
treter
ĠhÃ¶ch
ĠMannschaft
ĠUnterstÃ¼tzung
Ġabsol
ĠTer
itÃ¤ts
ĠGo
ĠHei
Dar
ĠGef
ĠLeute
ĠÃ¤hn
ĠhÃ¶her
Ġ07
ĠfÃ¼hren
ĠNÃ¤he
schlieÃŁlich
bin
wir
ĠBericht
seh
ĠSamstag
ĠWind
Ġverd
Ġ60
Ġzweite
Ġ2003
lassen
Ġwechsel
ĠBank
ĠKirchen
orge
ĠNot
reiten
Ġlaut
ĠInternet
ĠWort
ielle
unge
Ã¤te
ĠZukunft
user
ierungen
ĠCon
go
struktur
Ġhalten
rakti
):
ĠVerordnung
ĠTa
ĠSeit
Ġgesehen
Gen
verfahren
ram
IT
stÃ¤ndig
Ġbleibt
Ġnieder
ĠWirk
vent
ĠHeil
ĠHandels
ĠOn
omas
ĠUN
ĠHolz
isierung
ĠMÃ¼
ĠParis
etzung
Ġpriv
ĠComp
For
itut
lag
58
ferenz
teten
ĠSc
ĠMay
spielsweise
auspiel
ĠEG
gesetz
ĠInternational
":
isiert
how
jpg
alk
ĠZust
Ġdarf
gefÃ¼hrt
ĠFran
Ġalt
ĠFort
Ġbeide
ors
gelegt
laden
ĠKrit
ius
ĠKopf
mÃ¤ÃŁig
AL
II
ĠKÃ¶l
Ã¼sse
Ġnahe
immen
ĠAngeb
ĠPal
Ġspielen
hc
ĠKlein
ĠgehÃ¶ren
77
ĠVorsitzen
ĠChe
Ġvielleicht
zept
ĠDruck
ino
ĠSpieler
ĠSchÃ¼ler
see
ĠerklÃ¤rt
Nur
ĠBeginn
ĠAuÃŁen
reff
Ġhandelt
ĠKranken
Ã¶ffnet
Ġbeteil
uck
Ã¼tzen
Ġerneut
ieÃŁ
ĠGeneral
bs
Ġru
ĠFil
Ã¤dchen
bek
Ġverschiedene
ĠBayern
ĠPartner
ĠBus
ituation
oper
Ġdaran
ese
Ã¤ngen
ĠAM
ĠSil
tin
Ã¤ft
Ġbesten
Ġerforder
ĠWein
ĠWirtschaft
ĠkÃ¶nnten
hilfe
Ã³
test
zentr
Ġtrat
Ġerk
ĠAngaben
hung
ĠnatÃ¼rlich
Unser
zig
Ġdre
nungen
zep
ĠKilometer
Ġganze
ĠMÃ¶glichkeit
php
ĠlieÃŁ
ara
entrum
ĠRichtlinie
iver
no
dung
reisen
adurch
ĠHa
ppe
ĠgehÃ¶rte
ĠErfahr
sprech
ĠgrÃ¼n
sto
omen
ches
Ã¶m
ĠBÃ¼rgermeister
nissen
90
ight
merk
ĠPrin
ĠEuropÃ¤ische
ĠKontro
ille
ĠProbleme
ĠstÃ¤r
Ġ>
ĠChar
ĠRuss
ound
lÃ¤nd
ĠSteuer
ĠMein
Ã¤tigkeit
berger
Ġentfernt
Ġallein
ĠMeer
ica
Ġtrotz
ĠSchm
Ãĥ
ĠSelbst
Warum
kur
tischen
akter
nei
Ġeigene
ĠBlick
techn
Ġhistor
lÃ¤ss
osit
Ġblieb
ĠUnd
ĠUTC
SV
lad
Ġdeshalb
nu
fre
iellen
ĠVort
Â¨
88
Ġirgend
reibt
Ġdeutscher
ĠCD
rÃ¤um
ĠDies
Ġzudem
rau
-,
Ġbrit
tif
ĠKur
sych
tor
Ġbereit
ĠTages
ĠSa
oster
eichen
Ġinteress
ution
jÃ¤hrige
ABl
ĠGar
ĠVier
html
ĠEisen
42
ausch
Ġzuvor
ĠtÃ¤tig
ĠOp
stellungen
affe
ĠReihe
ĠErn
ĠWeise
Ġbl
ĠPriv
Ġsonst
ĠWill
ĠStÃ¤d
Ġzeit
Ġerrich
Ġpaar
Ã¼hren
Ġarbeiten
rachen
usst
folgen
ĠNeben
ĠEinwohner
ĠHinter
ĠMr
ĠWettbewerb
Ġ2002
beg
ĠErw
ĠGed
ua
flÃ¤che
ox
glieder
Ġni
get
richtungen
Ã¼cks
tierte
altet
zi
Ġzeigen
Ġide
fassung
Ġerreicht
haft
enze
chter
Ã¤chen
ĠYork
raten
Ġca
ĠParlaments
Ste
Ġleicht
52
AS
hafen
ĠFar
fÃ¼r
steuer
Ġ2001
edig
ash
54
ĠBern
ĠBevÃ¶lkerung
Ġerreichen
sichtlich
Ġgeworden
ĠFrÃ¼h
ondon
ling
Ġ04
kay
Ġung
ĠFriedrich
ision
ĠpersÃ¶n
por
gest
fluss
ĠHein
51
inst
Ġhelfen
ĠBrÃ¼
Tel
istische
Ġgek
verband
by
ĠAusbildung
Ã¶rd
icken
Ġbekommen
ĠJohn
ĠKolle
70
ĠAmer
schungs
Des
ĠBurg
eilen
Ġby
Ġwest
Ob
Ġletzte
mbH
ĠVide
Weiter
Ges
gebung
nn
ski
zus
takt
ĠEd
orben
Dieser
ole
ile
ĠursprÃ¼n
Ġmachte
89
Jetzt
Ġnor
Ġregel
fj
ĠVo
Ġkaum
Ġmeinen
ĠBro
ĠWaren
Mehr
ene
ĠDre
Ġ06
Ġfre
Ġgesp
ĠJahrhunderts
ĠStelle
stehen
ĠLandkreis
Nun
gebaut
Zur
othe
Ã¶ÃŁe
ĠAss
sc
ĠHalb
auern
mitt
ĠÃ¶ffentlichen
ĠDat
ĠHeimat
OM
ĠErst
Ġsogen
Dabei
ĠFranz
yl
Ãľ
ĠKÃ¶rper
zeugen
Ġkamen
arbeitet
ĠerhÃ¶
ĠHof
Ġmeist
Ġdeine
pe
ĠMichael
eils
urrent
Also
Ġbeispielsweise
Ġwei
Ã¼ter
ĠVereinigten
ali
Ġmittler
Ġeher
ĠBaum
itzt
ĠVerwaltungs
ĠMedien
Ġoben
inden
iar
echt
Ge
jf
setzen
helm
prochen
Ã¶rden
stru
heb
87
essor
BI
ktor
Kon
haltung
park
ĠBez
handlungen
Ġkompl
ĠAmts
jÃ¤hrigen
ĠGruppen
Ġfer
spieler
ĠBezieh
ĠGu
yd
ĠDort
Ġeinzelnen
ĠgegrÃ¼ndet
ategor
ĠUntersuch
ĠRen
ehler
ĠForschung
Ġeingesetzt
Ġ1999
Ġ)
EU
ĠDo
ĠDisk
iegel
asch
con
abend
Ġad
53
ĠKampf
ograf
Ġgelang
ualis
ĠGmbH
Ġinternationalen
Ġstellte
arte
ĠRepublik
ienten
serv
rifft
asen
ĠBesitz
zwischen
OR
Ġarbeitete
WÃ¤hrend
ĠMÃ¤dchen
ĠEhe
86
Ã¶sen
Ġgleichen
istik
tionen
andid
ĠKor
Ġweiterhin
ĠOrd
Ġversch
Ã¶pf
west
reten
ĠMuseum
Reg
mand
ĠDok
uden
press
ammt
lingen
rief
oment
ĠNein
ĠErgebnisse
iete
ĠRel
Ġdanach
Ġse
Ġsolche
eth
Ġallgemein
ĠApp
iven
ielen
ĠDonnerstag
rn
besch
ĠgrÃ¶ÃŁten
Ġgeboren
Ġlag
tic
amar
igh
ĠStruktur
inne
iten
79
Ġerfolgreich
ĠRed
bte
"-
iko
spe
ĠGut
iden
ĠPost
keits
ima
ĠTier
Ġentscheiden
aktion
ama
ĠBruder
med
ĠAbt
ĠMontag
ĠGi
ĠZusammenhang
spiele
zlich
Ġverbunden
Ġrein
ĠPosition
po
ona
innt
ĠPass
rÃ¤sidenten
ĠKais
sei
ĠgewÃ¤hlt
ĠjÃ¼n
bi
Ġop
klÃ¤rung
folger
ĠDav
.âĢľ
iegen
tur
ux
otos
tritt
eller
ĠSchauspiel
nungs
Ġformula
ĠTri
Ġnotwend
Ġ05
ĠIr
Her
DR
ĠListe
Ġentwickelt
Ġ03
ĠhÃ¤ufig
Ġ00
Ġunseren
roffen
ĠTrainer
ĠBre
ĠNorden
Ġ80
Ġbem
tigkeit
75
aust
kret
frist
.:
kraft
ĠAnwendung
Ġaut
ĠLondon
ĠKonz
anlage
allo
gu
peratur
ĠHause
iums
ĠRhein
Ġvorh
Ġbefinden
ĠWeltkrieg
Ġus
ĠStÃ¼ck
Ġrichtig
ĠWahr
Jahr
Ġebenso
ĠMio
ĠHotels
ĠBÃ¼r
over
Ġkennen
Ġgelegen
ĠEC
ĠReise
wertung
letzt
ĠImm
Ġmeiner
JÃ¤hrige
ĠRot
Ġwesent
Ġgelten
Ġzahlreiche
ĠSchweiz
ĠKu
time
Or
mut
warz
ante
Ġihres
Ã¤s
umm
esser
wind
Ġderzeit
ada
sitz
Ġ1998
ĠÃĸff
ĠPrÃ¼
ĠOrts
indestens
ĠInn
ĠKÃ¶nigreich
bruch
efon
ĠZentrum
ĠLux
ĠMax
78
Ġverloren
Ġhal
ĠProvin
Ġoffiz
Ġeng
ĠSPD
Ġeinger
Ġbedeutet
Ġ1980
Ġelekt
ĠGleich
Ġbald
ĠStart
ernen
okal
Ġober
andeln
Ġbieten
Ġmoder
ĠElekt
Ġsah
Ã¤ngt
Ġnachdem
ĠgewÃ¤hr
ĠURL
iziert
Ġdarunter
ĠAlex
99
ane
ĠGold
oy
ĠVergleich
spruch
deck
ĠMor
wicklung
Ġpolitischen
IE
ĠFeld
unsch
ĠOlymp
ĠArbeiten
erner
ĠPri
reibung
ĠKÃ¼nstler
stÃ¤t
Ġaufgenommen
ID
ĠTheater
ba
arbeitung
ated
ĠHÃ¤
ĠStellung
pel
ennung
setzt
Ġneuer
ĠSpanien
anischen
sent
TS
udem
gehend
Ġtim
ĠProdukte
ufer
ĠVerbindung
Ġstudierte
Ġcurrent
ĠBek
ĠLicht
ames
Ġgekommen
Ġunver
ĠDeb
Ġorganis
fan
Ġfound
ĠlÃ¤nger
Ġeigentlich
ĠLÃ¶
ĠWo
Ġkur
ĠHier
Br
ĠKarl
85
tik
Ġ1994
les
Ã¨
Ġverein
Ġ186
ĠVerkehrs
gesellschaft
Ġ1992
Ger
ĠAbsatz
Ġgebracht
Ġgepl
durch
ĠGesprÃ¤
ĠRegen
Ġknapp
cc
Ġland
Ġfolgende
Ġerster
ĠGerichts
Ġentstanden
Ġspielt
bringen
ĠHamburg
Ã¤lfte
ĠEing
Ġhohen
ime
itionen
ĠMartin
Ġcm
ĠGÃ¤ste
ĠFeuerwehr
vier
ĠHar
wald
ean
ĠAktiv
wa
ochen
elte
Ġ1996
losen
ograph
Ġbedeuten
ĠTyp
ourn
Ġ=
will
ĠErgebnis
ĠBrand
Ġcurrently
Ġehemaligen
Ġgestellt
ĠDen
ĠauÃŁerdem
kirche
spolitik
Ġ1995
AM
ekten
Ġverz
haben
ĠNicht
ĠMittwoch
ĠSpiele
Ġres
mitteln
ĠAnzahl
leiter
Ġ90
ĠThomas
Ġverbesser
Ġalte
legung
Ġneun
ĠGest
Ġnimmt
ĠJose
Ġsofort
krÃ¤fte
ĠSchrift
schuld
Ġhol
ĠDrei
gs
zeiten
uld
iam
lege
ĠAndre
Mein
ĠPfl
ĠAuftrag
ns
ollar
ĠZiff
cy
glied
Ġak
Ġjede
Ġmindestens
ĠGro
ĠDienstag
illa
preis
ĠverÃ¶ffentlicht
ĠNiederl
drÃ¼ck
ĠBerufs
Ġ1997
Ġserver
rimin
ĠSieg
ĠMonate
ĠGebur
ĠÃ¼bern
ĠnÃ¶rd
Ġ70
ĠjÃ¤hr
ĠSÃ¼den
eck
Dieses
ĠTagen
Ġraus
mehr
rael
Ġlei
ĠSituation
ĠArchite
ĠBesucher
ĠLiter
hÃ¤ltnis
Ġeinzige
Ġzuletzt
halte
sammlung
Ġdritten
ĠMotor
ĠVolk
âĢ¢
ĠPrivat
nern
Damit
ĠHans
ĠZwischen
organis
Ġerfolgte
tigung
Ġganzen
Ġtats
ĠLeiter
ĠVerbrauch
quested
Ġkrit
zeigt
ook
unn
Ġzeig
ĠErz
to
bil
Ġanders
ĠEmpf
gress
rang
Ġhei
ervice
Ġrequested
Ġ1993
ĠdÃ¼rfen
Ġsomit
ĠOsten
Ġ02
ĠSchwer
ĠDel
eten
ĠFirma
ĠRestaur
ld
ĠKa
aff
82
ĠhÃ¤lt
ĠPaul
Ã¼tz
zustellen
ĠPunkt
bank
wegung
ĠBeschl
low
itten
akte
ftware
gi
ĠGottes
ftung
ĠSchwe
ĠSee
Ġitalien
ĠGarten
Ġregion
Ã¤llt
Ġgerne
Ġvorhanden
Ġmehreren
ĠBall
riffe
schiff
FF
Ġzug
sburg
Vert
ĠAG
za
ĠAktion
vert
hoben
riffen
uchten
gemeinschaft
Ġ35
forderungen
ĠPublik
ĠTro
ĠDoppel
ley
kosten
ĠKreuz
gliche
nier
ĠSchloss
ply
icherung
ischof
mmen
Ġposit
orgt
Ġentstand
Ġheutigen
AuÃŁerdem
ĠKol
do
ĠSprache
Â»
last
fallen
ĠPfarr
Stand
gericht
ĠVorschlag
Ġglaube
Deut
Dat
ĠProdukt
roh
entral
Ġzog
Land
Ġnord
unternehmen
ĠFischer
fahrer
view
Le
Ġgenommen
Ġanzu
hre
Neu
ikt
Ġtut
fil
ediglich
wurf
udwig
reib
Ġforder
zahlen
werke
hlen
til
Ġfunktion
ĠZweiten
Fl
ĠMain
ĠBund
Ġas
Ġjemand
DE
Ġerf
Ġsprach
Ġindem
ĠForschungs
Ġjedem
lose
Ġerreichte
Ġtot
ĠKÃ¶ln
ĠTon
Ã¼b
gart
ehlen
acher
ĠAnteil
Ġengl
ĠTat
??
anger
ĠDis
Ġvorher
scheinlich
Ġgesamten
zeichen
Ġamer
Ġanges
Ġmed
Ġjedes
ĠHerrn
Ġ36
ĠNachbar
gruppen
Ġhohe
ki
pflich
ĠBef
tisch
Ġruss
CD
ichtete
95
ĠAir
linien
ga
ĠRussland
ĠAntw
ĠgefÃ¤hr
mee
rump
Ã¼m
Gem
Neben
ĠWor
ĠSein
yer
ĠGrie
ĠKloster
ĠPunkte
Ġkomp
ders
Ã¶lf
ĠerklÃ¤rte
ĠMonaten
ĠMaterial
ĠReply
Ġsprechen
schusses
ĠAf
Ex
ĠAussch
int
wor
ĠÃ¼bernahm
ĠThemen
Ġeinst
ĠWeiÃŁ
ĠWeihn
ĠSeine
Ã¼gen
ĠHann
Ġteilweise
inal
laufen
vel
Zwei
Ã¿
denk
ĠWesten
Ġla
96
ines
Ġfertig
Ġdun
ĠIhren
industrie
Ġdarin
ags
Son
ele
barkeit
ĠHÃ¤lfte
____
ĠTabe
nehm
ÃŁt
ET
Bitte
tliche
ĠWolf
ĠTal
ĠBran
male
mittag
wen
Ġguten
emat
Ho
tische
ĠSalz
ordin
ĠGemeinschafts
lass
Ġ1991
ĠtÃ¤
auber
Ġzerst
ĠMensch
Ġsozialen
ike
olle
Ġgebe
nd
renz
Ġmag
Ġgenutzt
Europ
ĠBildung
auch
asste
gebracht
ĠZeitpunkt
Ġvorgesehen
ĠBal
led
ĠStudien
ĠFrankfurt
ĠLang
ĠSamm
schlÃ¤ge
Ġ500
This
Ġ1970
day
ieÃŁen
kÃ¼nf
Ġwissenschaft
geschichte
Ġenthalten
Ġleb
ni
anne
ĠIniti
ikal
ĠHor
ĠSand
ĠWissenschaft
orgung
ago
ĠSek
ĠÃ¤lter
Ġdra
ĠInteresse
gemeinde
wechsel
nas
urg
vangel
ĠgemÃ¤ÃŁ
ĠerwÃ¤hn
ĠVerwaltung
Ġmen
ĠECU
site
ĠerfÃ¼
unkten
schau
bie
Ġdagegen
Ġmm
ĠSicherheits
angs
Ã¼rf
ĠWol
ĠEngl
dien
71
Ġschaffen
seiten
ĠZwe
ĠfranzÃ¶sischen
ĠEnd
ĠunterstÃ¼tzt
ĠTest
Ġsetzte
Ã¶stlich
uz
reite
ĠBis
rax
verwalt
Ġpassiert
air
Ġwechselte
leitung
Danke
ĠKauf
Ġgeschlossen
athol
Ġverlie
ĠKindern
Ġ1945
sprache
ĠkÃ¶nne
erweise
ournal
Ġverf
ĠgroÃŁer
ĠMacht
schei
Ġjunge
à¸
EM
jo
uc
ĠMaÃŁ
band
gut
ĠerhÃ¤lt
Ġtragen
ĠHeraus
ĠStutt
94
Ġwarum
ĠFrieden
ivid
Ġ1989
aupts
Ġvorbei
ĠSuper
Dass
Ġgrund
ĠChina
ĠBilder
ĠUnternehmens
ĠWÃ¤hrend
ĠSonder
linge
lig
fÃ¤lle
Ġgenug
ĠLes
ĠBasis
Ġbestimmt
Ġerinner
kennen
rochen
Ġinform
72
Ġstarb
ary
2009
rab
flug
Ã¤mlich
ĠChem
iens
ĠSache
osk
Ġverk
jet
Ġverlassen
ĠRegionen
spart
ĠFernseh
deckt
ĠGeorg
gegeben
Ġtradition
dacht
ielten
2012
gefÃ¤hr
Ġnationalen
2013
Pl
ĠBerliner
zul
jen
ĠgrÃ¶ÃŁte
ĠkÃ¼nf
zy
Ġerrichtet
rate
Ġbrauchen
ligen
fert
immungen
Don
name
wegs
ĠCor
ĠGet
sprach
cel
ham
ĠStahl
ĠRis
gessen
riebe
ĠAlbum
ĠDach
ros
ĠBot
ĠVertreter
sÃ¤tze
ĠZusch
Ġanderer
ĠDeutsche
ĠKarr
tent
ĠMad
Ġfolgender
indest
ĠHaushalts
ĠOper
ĠErk
ĠLinie
ĠQualitÃ¤t
Ġstaat
ĠSchne
Ġselten
ĠStar
ĠvÃ¶
ĠFÃ¶rderung
out
leisch
ĠTV
ĠBlut
ĠArten
ĠbenÃ¶
AP
ata
Ġhinzu
ĠBor
ĠProvinz
ĠprÃ¤sen
ĠBull
Ã¼ssel
Ġmeinem
ĠDro
Ġproduz
stellten
ikanische
schine
verl
2018
ĠenthÃ¤lt
ĠTerr
Ġ*
Ġverh
ague
Ġpar
lock
Ġeg
illen
Ġsetzt
sgesamt
ĠText
Ġdadurch
trem
ĠGericht
ric
ĠAufgabe
ĠWider
ĠAbst
ward
84
Ġrich
ologischen
ickt
Ġie
Ġfal
Ġpolitische
!!
ĠSchweizer
ĠVoll
kap
ĠÃ¼berhaupt
Ã½
ĠUniversity
ĠEbene
lauben
ĠJo
Ġpol
ĠLiebe
ĠViel
ĠZoll
92
ĠKer
Ġgleichzeitig
ĠWilhelm
halle
ĠVerantwort
fÃ¼hl
wirkungen
ierenden
va
maÃŁnahmen
81
lern
Ġfahren
ĠFen
bildungs
ĠTeilnehmer
âĢĿ
Ġlau
Ã¤ne
gramme
ĠKontakt
Ã¼ch
à¸Ģ
Ġschwier
Ġtimes
ĠKriegs
abl
Welt
andlung
Ġgesamte
Ġehr
dam
Vielleicht
altungen
ĠChristian
ierter
74
ĠVerÃ¤nder
ents
Ã¤hrung
Ġbelie
Na
Ġpm
pol
AG
pd
igungs
SU
ĠVerwendung
83
Ġversucht
achts
Ġste
ĠWohnung
2014
Ġwichtige
ĠSicht
ĠgÃ¼nst
ĠStrom
Ġbeein
alz
ĠKurz
ĠUnfall
llerdings
istr
igur
ĠIdee
ringer
Ġbestimmten
ĠnÃ¤mlich
Ġgemeinsamen
ĠGrundlage
ĠVerbesser
Ã¶rde
fragen
programm
Ġtreffen
Ġrechts
Hey
kommens
Ġerschien
ola
Ġneues
2011
ĠZeu
ih
illas
ĠRuhe
zwei
ĠOrdnung
Bes
ĠMetho
ĠbeschÃ¤f
Dem
ezial
Ġprakti
ohlen
ĠMilliar
ena
hÃ¶r
stellte
ĠVerkauf
ĠKern
Ġkannst
wissenschaft
ico
betrieb
ĠFel
Ã¼ge
ĠLeip
volution
Ġlediglich
ival
ĠPre
Ġumfassen
aun
Ġauszu
ĠGlÃ¼ck
zeugnisse
atoren
ita
schech
Ġschrieb
Ġph
immel
ĠGraf
rechte
Ġspricht
alyse
73
ĠgefÃ¼hrt
2010
ĠtÃ¶
assungs
ĠProzess
dest
nr
ĠAngst
ĠInstrum
Ġgeeig
Ġhoff
ĠTeile
stÃ¤ndigen
ĠMorgen
Ġjungen
alls
ĠBeteil
klus
lands
Mus
ĠVoraus
Ġred
Ġyou
ĠGemeinden
Ġ2019
ĠIhrer
ĠRein
ĠBegriff
Ġprof
ĠdurchgefÃ¼hrt
Ġunmittel
Ġ32
ĠLÃ¶sung
ĠKant
ĠMaria
tiv
Alles
Ġscheint
aub
Ġtran
cen
Ã¿Ã¿
ĠKaiser
ĠLudwig
ĠBedingungen
Ġwenige
ĠFlÃ¼cht
ĠJapan
iente
lÃ¤nder
wach
rechts
herap
93
ĠLager
ĠAngebot
ĠPil
66
ĠMel
fÃ¤l
uster
Ġberuf
pflicht
ĠAbschluss
anlagen
ington
ton
Ġweltweit
uel
Ġbestimmte
erseits
stands
iste
Vers
ktive
91
Ġdamal
ĠSchÃ¶n
ĠOpfer
ace
Ġwider
ĠMaschinen
ĠMilitÃ¤r
Ġabsolv
etzten
ĠVerÃ¶ffentlich
zehn
LL
ĠVersion
Ġsetzen
ĠSach
recher
ĠÃ¼brigen
ĠZeitung
Ġbeginnt
ĠFlughafen
vention
De
ĠÃ¶sterreich
Ġlok
Ġbeleg
mannschaft
ĠWÃ¼r
ĠExper
ĠProfessor
ows
ause
Ġmussten
ĠKarriere
ĠEhren
ĠDeutsch
Ġ1988
Ġ45
ĠWagen
ĠWachst
Ġreich
Ġzunehmen
ĠStandard
ĠGlas
ymnas
ĠBahnhof
Ġnutzen
ĠRund
haber
ĠInstitut
ĠBehÃ¶rden
ĠAufgaben
ĠAbgeord
rÃ¼nen
Ġbringt
Ġverantwort
ĠProt
ĠermÃ¶glich
Ġgener
ĠerzÃ¤hlt
ehrte
film
olz
ĠOrganisation
Ã¼gel
reiber
Ã¼cken
ĠAutor
zun
ĠÃ¤uÃŁer
ĠZur
mi
pfel
ĠEssen
ĠnÃ¤
ĠKre
hi
ĠHerren
gÃ¤nger
kampf
formen
ĠSerie
stoffe
Ġschaf
etr
Ã¥
Ġreden
ĠfÃ¼hl
werbe
ession
ĠFluss
ters
ĠBÃ¶
Je
raxis
Ġfolgte
ĠGesundheits
eilung
alog
ĠbestÃ¤
ymb
teilen
bli
Seine
sprung
rep
ĠUl
ĠTo
Ġwichtigsten
Ġexist
Ġrei
ĠhÃ¶ren
ĠDinge
bez
geschlagen
ĠWal
ĠLo
ĠCol
Ġ300
gangs
garten
ĠLandwirtschaft
olge
ĠGeist
han
ĠPrem
ĠStrecke
Ġgebaut
Beim
Ġerheb
Ġbrachte
ĠJur
Stra
ĠArbeitspl
ĠCDU
finden
xt
Ġunters
chmal
ICH
anwalt
ĠPresse
irm
ĠÃĦnderung
spielen
Tra
mon
weile
ĠRich
Ġberichtet
kont
Ġinst
ĠLeistung
ologische
ĠLiteratur
ĠBildungs
ĠLiga
Ġwelches
ĠHal
ĠDenk
ĠModell
ĠBestand
redit
geg
ĠZugang
bus
Ġausger
kei
ral
echnet
Ġverletzt
Ã¤ger
ect
ries
ĠzwÃ¶lf
rolle
sprÃ¼
ĠSim
ĠVertra
Ġnormal
ĠComm
echan
troffen
Ġfolgt
zeugt
mens
ĠBil
AF
ĠÃľ
ĠTrain
zur
ĠvÃ¶llig
Ġ1987
Ġ1960
ĠKontrolle
Sam
zut
pft
ĠHeinrich
Weitere
ĠFahrzeug
ĠÃĸffent
ĠLeit
Ġbilden
ĠfrÃ¼h
aint
ĠNachrichten
ini
hy
Ġentgegen
Ġverschw
ĠSinne
olo
ĠPortug
ads
ĠTÃ¤tigkeit
Te
ĠMilliarden
Ġ1985
Fr
ĠDet
ĠHoff
ĠanschlieÃŁend
Erst
ĠHandel
Chr
Ġdei
ĠHen
gelt
Ġinzwischen
Ġbetroffen
97
="
Ġsuchen
ĠAntrag
Ġerfahren
beitet
Ġâ
Ma
ĠFoto
fast
ĠVideo
merksam
way
ĠDabei
ĠAuss
Ã¤hlte
azz
leb
ĠKategor
cn
Ġherr
Ã¤hrt
ĠSonnen
ĠwÃ¼n
ĠMÃ¶glichkeiten
Ġklass
ĠSpielen
Meine
Ġgewinnen
Che
tags
ĠAp
kra
Ġkeiner
Ġdarum
ĠGrÃ¼ndung
rachten
elten
ĠSchluss
ĠunabhÃ¤ng
ĠBab
ehnt
Ġerd
ĠAc
Ġ1986
kan
fÃ¤higkeit
âĢ¦
Ġare
ĠMess
ĠPersonal
obilien
Ġarbeitet
64
Ã¼tzt
Ġmittel
ĠSchlaf
Gesch
ĠRoman
Ihre
ĠstÃ¤nd
ĠFerien
ratet
vis
Ã¼sseld
ĠVereins
ĠBezug
steh
ĠWetter
erien
stÃ¤nde
mt
ng
ĠtatsÃ¤chlich
wart
ĠArbeitnehmer
bra
ĠStellen
ical
ĠStuden
ĠFehler
regierung
ĠSir
Ġerfolgt
armon
ĠGerman
eiert
rennen
ĠverfÃ¼g
Se
ĠStamm
vorschriften
ĠlÃ¤uft
ffe
ĠFolgen
ĠEinfÃ¼hrung
Fra
ĠUmgebung
ms
ĠPreise
alisierung
ĠOnline
ju
ĠÃĦr
ĠSchaf
mat
dere
Ġunserem
Ã¤ume
ĠSchritt
ĠCity
ĠRegierungs
gemeine
ĠMiss
ĠtrÃ¤gt
Ġgetan
ĠunterstÃ¼tzen
ĠFÃ¼hrung
ces
bedingungen
Gut
Ġwillst
ĠClub
rick
abrik
Ġbeste
Dort
reitet
ĠTrump
asil
ĠMat
ĠFÃ¤llen
ĠSold
-/-/
ĠTre
wiegend
ĠSter
eis
Ã¤mpfen
Ġerwartet
ivil
hs
gÃ¼l
ĠLehrer
steil
Ġdeutsch
wÃ¤rts
Ġlebt
via
Ġjeweiligen
ruf
ehrt
win
Ã¤ten
osoph
ĠInformation
ĠAch
axim
ademie
its
ĠComputer
emin
iefer
Ġvertreten
gelassen
ĠbetrÃ¤gt
AC
TE
enne
ĠGrenze
ĠJes
ĠÎ
Ġvoraus
ĠRang
Ã¶rm
cr
Ã¤sser
Ġkommenden
mund
ahnen
laubt
El
ĠEigent
ĠWechsel
ssel
ĠWaffen
une
98
Ġzentr
achtet
ĠRobert
ĠVerteid
ĠDieser
upp
ĠTiere
ano
--
igit
dy
Preis
ĠBeitrag
rats
ĠWM
ĠStock
ĠHerbst
ĠGriechen
denken
koh
Ġbestand
UR
);
ĠDank
ĠGemeinschaften
ĠPflanzen
ĠCamp
ĠGre
ĠTop
Ġgewonnen
Ġdrin
werte
irks
itzer
Will
ĠDom
uern
Ġbas
Keine
oo
setzungen
ĠStuttgart
ĠCom
geld
Ġbeteiligt
Sein
Ã¶rdert
ĠWa
klasse
Ġleich
Ġeid
spar
Ġnein
wander
ĠMeinung
ĠFirmen
brit
Viele
blatt
ĠNutzung
lieben
ĠverfÃ¼gt
bu
Ã¼st
dpa
ĠStad
stud
tierten
ĠSchulen
ischem
Ġgenannten
hte
ĠSV
stÃ¤ndige
SCH
Ġgemeinsame
Ġabzu
rechend
ĠAnlage
Ġzahlreichen
ĠErde
ĠPolen
verwaltung
ĠKamer
ĠverstÃ¤r
ĠBereichen
denburg
ĠSoftware
ĠMoment
ĠDER
ink
ĠChef
rige
100
ĠFe
ayer
reuen
Ġgeschaffen
Ġuz
aher
ED
ĠWerke
ĠIS
mittelt
Ġehemalige
ĠSied
hÃ¤user
Ġbraucht
ĠViz
Hallo
Ġjen
Weil
hu
ĠSzen
ones
Ã¼cksich
ĠLeitung
ĠStreit
TI
sf
sein
Ġfe
Ġ1984
dass
Ġziehen
ĠDiskuss
schte
flÃ¤chen
Ġbeob
Ã¼hm
Ġbesondere
ĠNachfolger
kung
ĠSing
ĠChance
Herr
Ġmil
Ġdachte
wohnern
Ġkleiner
ĠMik
hebung
ĠDavid
maÃŁ
agn
Ġobwohl
ĠTradition
Ġmon
ĠJob
ĠGeburt
ĠMenge
ĠRie
ĠArmee
Ġerb
ĠBeziehungen
Ġrde
Noch
Ġverpflich
Mail
ĠTar
Ġwith
ancen
meisterschaft
indungen
ĠMonat
rieges
bericht
endete
Ġumfasst
ĠPa
ĠEntwicklungs
ĠLog
ministerium
itar
ĠZus
ĠnÃ¶
bad
OP
Ġzeigte
punkte
ildet
Ġdefin
Ġag
Bet
Ġentsprechend
bis
Schon
ĠAnschluss
WeiÃŁ
Qu
Ġfrom
ala
nam
ĠNummer
ĠAuswahl
ĠKritik
bew
index
ĠZeitraum
ĠKlasse
Ġintegr
ĠSat
wSt
ĠBeam
Ã¼rk
riech
Ġlangen
Bundes
ĠnÃ¤chste
ring
oth
Ġausgestat
Ġtyp
ĠPolitiker
ĠBew
ĠInformations
Sh
gebÃ¤ude
ĠQualif
Ġlinks
ios
ierende
dent
West
Ġhil
ĠAs
iat
ants
ĠLiefer
Ġfanden
ĠInteressen
ĠDollar
ds
ĠSchweden
bliothe
ĠFenster
ĠursprÃ¼nglich
zunehmen
Ġied
Ġunten
Bild
Ur
ular
Ġmorgen
ĠstÃ¤rker
Oder
Heute
Ġmel
bÃ¼
Ġinternationale
ĠMc
ave
2008
ente
68
ĠTermin
ĠPop
Unsere
herr
tegie
Nachdem
LAN
ics
Verordnung
ualisiert
ĠJournal
Ġvergleich
ĠerwÃ¤hnt
Ġedr
Ġangeboten
Ġruh
finale
edia
igungen
wÃ¼rd
ĠRechte
ĠKra
frau
Ġstammen
65
ally
Bo
ĠEp
ĠZiele
ĠAuswirkungen
Ġfallen
ĠmÃ¼sse
britann
Ġview
ĠZeiten
Ġ1983
ĠIst
ĠAufent
Ġmin
mÃ¶gen
ownlo
cm
ĠRichter
leistung
ĠPfer
Ġleid
ĠBach
Ġbetreffen
eisen
Ġbekannte
able
OS
ĠAkt
ĠVerbesserung
ĠIsrael
amin
Ġ1950
ĠÃ¼berra
Ġ?
Ã¼ten
Ġaufzu
ĠStil
ĠKrankenhaus
leg
Ã¼hle
istisch
ĠJust
fÃ¼hren
chester
Ġerweiter
Ġstammt
Ã¶tt
ĠjÃ¼ng
ĠLeistungen
meld
dn
ĠAntwort
ĠSÃ¤
ĠBud
Ã¶nen
Ġedi
ĠZahlen
osen
ĠBetriebs
verstÃ¤nd
ĠArbeiter
Ġhielt
ĠDokument
ĠGas
kretÃ¤r
ĠLab
row
ĠFlÃ¤che
ĠKab
ĠLeipzig
uhl
ĠSchlag
holt
ĠVerf
ĠDurchfÃ¼hrung
ĠKollegen
abt
Ġta
ĠJohannes
ĠFreunde
afr
ĠFraktion
ĠVerband
uff
Ġgezeigt
Ġeinzu
aters
67
ĠDienstleistungen
ĠSatz
Ġzer
Ġdisk
selben
ĠRunde
Ġentstehen
ĠTemperatur
val
ĠStunde
Ġ33
ĠAnti
eta
dessen
ĠLeague
Ã¶der
tive
ĠPe
Ġabgeschlossen
2007
strecke
Ġ1982
ĠerÃ¶ffnet
Ġlandwirtschaft
Ġgeplant
Ġzumindest
emann
ĠProjekte
oin
amb
Ġverhei
ĠWander
Ġna
ited
windigkeit
akfast
ij
Ġsorg
Ġrelativ
Ġans
umb
zÃ¼glich
macht
Ġbesuchte
Gemein
Geb
ĠRock
Ġverstehen
leitet
Ġbein
ĠDreh
vertrag
kÃ¤
ĠPrÃ¤sidenten
ĠZuge
ĠauÃŁerhalb
enntnis
ĠViertel
ĠGefahr
stattung
Å¡
ĠAusstellung
emburg
Ġgra
SG
Ġnew
ĠZeichen
ĠStudium
gewÃ¶hn
pu
ĠHafen
Deshalb
ĠKÃ¶nigs
ĠBerat
ĠStÃ¤dte
ĠberÃ¼cksich
Ġ1981
IP
ĠgrÃ¶ÃŁer
ĠDÃ¤n
ĠEinfluss
olden
ĠDDR
ĠHaft
fried
ĠKrank
ĠAutob
Ġerkennen
ĠmÃ¶chten
orie
Ġsolchen
ĠAbs
SP
Ġzweit
Ġwollten
amarillas
Ġdenke
bn
gelÃ¶st
gas
aille
lÃ¤ndern
Ġbritischen
kor
.-
ĠIII
mark
ĠKons
any
lichkeiten
ĠregelmÃ¤ÃŁig
ĠTelefon
ĠGrenz
EIN
ĠDial
ĠBu
kÃ¼nd
ĠergÃ¤n
Ġniemand
tell
Ġfiel
bauen
TV
ĠGewalt
Ġ1979
Ġnotwendig
Dazu
Ġwahrscheinlich
ĠausschlieÃŁlich
ĠGesprÃ¤ch
ĠExp
ĠHimmel
ĠBauern
alition
otte
ĠVerhalten
ĠHund
ĠKla
2006
ĠEngland
ĠService
westen
ĠRett
Ġ(âĢŀ
Ġbislang
das
Ġunmittelbar
ĠBrief
ĠfrÃ¼hen
ĠDÃ¼sseld
emark
Ġbekomm
Ġverab
ĠrÃ¼ck
Ġmi
ĠMobil
ĠSchwester
Ġwus
Ġgetroffen
ĠPan
ĠIhrem
Ġdpa
ĠGrÃ¼nden
69
Ġkultur
itution
ĠImmobilien
ness
ĠVorsitzender
ĠKlima
Ġerforderlich
weder
Ġausgew
ĠDemokrat
ĠMatt
Besch
plÃ¤tze
edes
ĠTu
rÃ¤ume
ĠfÃ¤llt
beck
affel
ollen
Ã¼ssen
ĠWebsite
Zudem
ĠermÃ¶glicht
ĠChor
Cl
erei
lebt
ĠTisch
ĠSachsen
ĠSÃ¤nger
zeichnete
He
Ġselben
fordert
Ġbildet
ĠPatienten
ĠGrÃ¶ÃŁe
Ġanderes
ĠSchÃ¤
adrat
gewiesen
Ġbeginnen
Ġweiterer
ĠKandid
ĠTransport
open
ĠStimm
Ġverantwortlich
arian
Ġverkauft
auftrag
Ġnow
frastruktur
Ġ{
252
gelbe
ĠGesicht
republik
igar
ĠTechnik
SE
ckey
Ġmensch
Ġwarten
ience
IC
alifor
ĠBeschÃ¤ftigung
ielte
splan
ient
Ġud
ĠAnton
ĠJung
Ġglauben
ĠbeschÃ¤ftigt
Ġangenommen
ĠLÃ¤nge
Arb
angeb
ĠIntegr
ĠdÃ¼rfte
ĠRand
ĠPublikum
irn
Ġwirtschaftlichen
ĠTÃ¼rkei
Ġwert
agd
Ġko
fÃ¶rm
Ġversuchen
auptsÃ¤chlich
ĠVen
union
................
ris
ĠAlexander
Bahn
Ġentspricht
aliforn
ĠMinute
ams
sÃ¤tz
gern
ĠfranzÃ¶sische
reig
Ġwenigen
ĠErfahrung
ĠFisch
ĠTim
Okay
anzler
Ġzufolge
Ġwiederum
Ġmusst
Ġallgemeinen
Ġbesitzt
spor
Ġsogenannten
Ã¼h
Ġwor
ĠKooper
ĠRum
iginal
onte
nes
Ġhe
ĠKrÃ¤
ĠReform
euten
iveau
linik
bÃ¼r
vorsitzen
Ã¤ss
ehmer
gg
musik
Ġentlang
ĠPoliz
ble
handel
Ġvergessen
Ġ1975
iets
Ġwelcher
Sel
ĠAuÃŁerdem
ĠMÃ¼ller
ĠSpezial
mu
Ġwww
ĠÃ¼bernommen
ĠRennen
isierte
ĠBezeichnung
ĠrÃ¶m
Ġ1978
Ġletzt
bereitung
ĠGeg
TER
Ġmaxim
emente
Ġ400
ĠWeihnachts
endes
hor
Ġentwickelte
ĠSpaÃŁ
schm
ĠVerbraucher
ĠCharakter
Ġlesen
Ġgern
ĠGesundheit
Ġheim
Ġuner
ĠJe
mÃ¤r
Ġsoziale
ymbol
ĠFot
britannien
losigkeit
pfen
ffer
temberg
ĠErnst
liegenden
Ġ34
ĠEt
fts
ĠgrÃ¶ÃŁere
sprogramm
ĠFlor
Ġweder
lay
Ġgehe
ĠTats
ĠBett
insel
back
ĠFortsch
cu
ĠWunsch
ĠWild
entwicklung
Ġkathol
ĠWiener
ĠGelegen
aller
hilfen
grar
Aut
runde
Ġ150
Ã¤nn
Ã¼ste
ĠFahrer
ĠAlten
ĠOtt
ĠSuche
far
ttemberg
ĠTrans
ĠVerhÃ¤ltnis
bÃ¼rger
OL
Ġlangsam
ĠZum
Spiel
Pr
ĠCount
Ġgeschrieben
Ġprom
allel
Ġkn
utzung
Ġgehalten
lack
orfer
stÃ¤d
ĠeuropÃ¤ische
Ã¶se
eind
cs
ĠGegensatz
fred
ĠWh
tierung
zern
ĠNahr
Ġaktuellen
ĠverÃ¶ffentlichte
ĠSilber
âĢľ)
ĠKron
tert
Ġ$
Laut
ĠHauptstadt
ĠVerbr
ĠÂ°
Ġwunder
Ã¶sungen
versammlung
ynam
GroÃŁ
Ġentschieden
ida
ĠNachdem
Ã¤nglich
ĠErsten
Ġ75
rÃ¤gen
ĠSchlacht
netz
ĠStimmen
ikanischer
gangenheit
ĠHannover
ĠFac
ĠCap
stÃ¤r
ĠMy
ĠâĢľ
mÃ¶glichen
mÃ¶glichkeiten
zÃ¤hl
legten
Ġgingen
okoll
strahl
ĠUND
Â¼
mlich
ĠAndreas
ĠAlle
iment
Par
Ġunterwegs
ĠJer
ĠJack
Ġ38
pack
Ġtr
Siehe
WÃ¼r
ĠBon
Ġkonzentr
leit
dient
Ã¤st
Ġstets
ĠAngel
ĠBem
ĠBewegung
ĠKonzert
Ġausgezeichnet
Trotz
Ġlauf
ĠSchaden
Ġ1972
63
volle
Artikel
Ġvertra
Ġdahin
here
ĠverlÃ¤
ĠPu
ĠEisenbahn
Ġentsprechenden
Wel
sprechen
Ġwirst
ĠStandort
ĠDist
ĠMehrheit
ĠKonzept
ĠZÃ¼r
ĠvollstÃ¤ndig
uni
Ġbegonnen
ĠGeschÃ¤ft
siehe
AU
schlieÃŁen
ĠPaar
ĠStraf
famil
ĠBÃ¼hne
ktiven
Ġbeschlossen
ĠPsych
Nr
ĠGrad
technik
ĠAutom
wal
ĠGemeinsam
ĠÃĸffentlichkeit
").
ĠwÃ¤ren
ĠFrem
mor
irol
Ġreag
jenigen
wischen
forschung
ĠEreig
Ġtechnischen
ĠNik
zufÃ¼hren
rÃ¼st
Ġautomat
Ġ"(
ĠWirkung
Insgesamt
geschoss
cks
ĠStoff
tes
ĠMach
titel
Ġliebe
vertreten
Schl
ĠMig
stechn
ĠTruppen
ĠDauer
ĠAusgaben
ĠUmsetzung
"),
ĠhauptsÃ¤chlich
stÃ¤tte
ĠgrÃ¼ndete
ĠnatÃ¼r
gewicht
ĠÃ¶ffentliche
Ġindivid
ĠendgÃ¼l
Samstag
ĠGrenzen
Ġerschienen
ĠSow
ĠRos
ĠspÃ¤t
ĠHerzen
spann
ĠzusÃ¤tzlich
antrag
ĠRob
ĠÃ¤ndern
ĠMÃ¶
Ġausgeb
ĠHistor
Ġschloss
kw
ĠBade
Allerdings
ĠChamp
ĠDesign
grÃ¶ÃŁ
ĠErweiter
ĠStudenten
ĠSchn
ĠWenn
Ġengag
ates
ugen
ĠPhilipp
Ġqualif
ĠKonfl
)"
ree
ĠDirektor
ĠErfahrungen
zeugung
ĠErmitt
ĠVergangenheit
Ġendlich
ĠSinn
Ġentwickeln
ĠKaffe
Ġerlaubt
utzer
Ġschlecht
lÃ¤ndischen
Ġkomplett
Ġdritte
ĠgeprÃ¤
AB
hindern
Ġgesetzt
bereit
ĠDiv
ction
Gegen
Ġgespielt
ots
ĠInnov
Ġgetr
ĠVis
ĠDres
fragt
Ġsorgen
Ġwachsen
ĠVorjahr
ĠPraxis
Ã¤hrungs
Ã¶rdern
schulen
ĠLeg
ellschaften
ĠSprach
Ġfuhr
the
wn
kord
ĠGriechenland
Ġerwarten
enter
Ġoffenbar
ĠLaufe
fÃ¼hrten
DF
sal
Ġlegte
Zeit
ĠRede
ĠUrs
ĠKlei
ney
Ġ1976
ĠBundest
orien
fn
ĠDrit
ĠParteien
Ġ65
ĠSoldaten
ĠHerstellung
ĠjÃ¼d
ĠkÃ¼r
Ġreicht
Ġkontro
ĠfrÃ¼heren
ikations
Frank
Ġmittlerweile
reude
sem
Ġsteigen
61
ove
Ġhingegen
ĠHalle
ĠAngriff
62
Ġ1977
Ġverheiratet
las
igi
ĠVeranstaltung
uper
ford
ĠKlassen
ĠHaushalt
Ġsec
aute
ĠZuf
organisation
ĠjÃ¤hrlich
Ġdank
Ġvermut
ehlt
ĠDrogen
Ġpage
ĠLeistungs
Ġ1974
ĠZul
ĠBrun
tlichen
stoÃŁ
rhein
ĠGeheim
gÃ¤nge
lager
reng
ĠEinrichtungen
ĠÃ¼berw
Ġunterschiedlichen
Ã¸
Berlin
Sti
tain
ĠGÃ¼ter
ĠAusdruck
ĠBischof
Ġstieg
Ġrest
ziehung
ret
Ġ1973
Ġusw
Univers
hauses
immobil
ĠAktivitÃ¤ten
ĠCharl
wendungen
ĠweiÃŁt
Ġ()
Ãĩ
ĠsÃ¼dlich
ĠBelgien
geschrieben
ĠMedizin
ĠOffen
ask
!"
ĠSchwier
Ã¤ndler
Ġersetzt
ĠBehandlung
ritts
TR
aÃŁt
reiter
Ã¶rderung
ĠColle
ĠSpitzen
Produ
zeichnen
Ġgriech
Ġvermutlich
ĠIN
uman
Ã¤h
Ġlaufen
ĠHan
ĠbegrÃ¼
ĠberÃ¼hm
Ã¼rn
syl
ĠÃ¤lte
Ġbeschrieben
ĠBill
liste
ĠMass
ya
ĠBier
ĠÃĸl
partment
Ġ1000
ĠSchwar
fu
ĠPunkten
Ġerinnert
Ġgesetz
ĠHaar
Ã§
kirchen
Ġvorge
Ġernannt
werks
ĠHintergrund
ĠZustand
ĠEinrichtung
ĠAusnahme
Ġren
ĠStÃ¤r
icherheit
bauten
Ġkonk
Ġtief
ĠOrgan
ĠTreff
ĠVerantwortung
ĠWachstum
cis
Ã¤ngnis
Ġreduz
Kann
Ġq
fekt
ĠBÃ¼ro
app
pfl
ĠGelÃ¤nde
ĠgetÃ¶
Ġster
ĠFahrzeuge
ĠUrlaub
ĠgroÃŁes
ĠWin
messen
ĠGatt
Ġdamaligen
icherungs
komp
ĠAgen
ĠHart
verkehrs
onom
ales
atein
zo
meter
ĠWege
Fin
ebook
ĠbestÃ¤tigt
ĠZer
Star
System
stock
Hast
fon
Ġhistorischen
Ġdenken
ĠEinfuhr
Ġdur
leger
228
ĠMex
ĠWohl
holen
orb
ĠWilliam
Ġniedr
ĠeinschlieÃŁlich
ĠPapier
ĠStrand
fa
Ġbefand
ilvia
blei
anze
Einen
dt
gyp
Haus
Ġbesonderen
ĠHu
deu
Ġvern
liefert
zin
Ġbekam
ĠBinnen
ĠtÃ¼rk
ĠRegional
Ġbegr
ĠBÃ¼cher
stellungs
Ġlernen
ĠAnspruch
vn
Ã¶ffnen
gerufen
Ġ37
ĠBrit
ĠEinsch
Donnerstag
Ġprivaten
Ġdo
ĠBaden
ĠAusland
ĠRestaurant
ĠAbkommen
sozial
Ġtime
Soll
ĠPet
Bez
ĠPflege
Ser
bern
ĠSchwarz
Ġverhindern
oche
Ã¶ffnung
het
Gleich
ĠKÃ¼che
ĠBreakfast
ĠDÃ¤nemark
ĠglÃ¼ck
Ġstanden
ĠBeschwer
ĠEind
rill
ĠTechnologie
ĠgrÃ¶ÃŁeren
ĠEuropas
Me
ĠSitzung
ladys
Vertrag
Ġ55
ĠZweck
Ġgez
ĠWochenende
ymnasium
andt
FR
ĠKirch
ĠAber
ĠTreffen
Ġdauer
ĠSaint
ĠBack
Ġverur
bten
ĠRÃ¶
ĠUntersuchung
ĠGroÃŁbritannien
Ġmo
hington
Ph
Åį
meer
Ġnud
ĠHom
Ãł
decken
ĠSchlÃ¼ssel
auert
maschinen
Ġausgestattet
ĠzÃ¤hlt
Ġ<
ISCH
Ġ85
anische
eige
ĠSyn
kohol
ĠGegner
lÃ¶sung
ĠzurÃ¼ckge
ladysilvia
mode
ĠGewerk
ĠPortugal
ĠStefan
rufe
Ġbisschen
ĠWall
Ġ39
ĠnÃ¶rdlich
garn
ĠOlympischen
NatÃ¼rlich
ĠBezirks
onders
ĠBestimmungen
ĠAgrar
Ġneg
Ġsen
irektor
afft
ĠHÃ¶r
regel
polit
Los
ĠSant
teilte
ĠGedanken
Ġdeinen
Ã¡Ã
Ġabsolvierte
Ġumfang
ĠKarte
Mo
ĠStudie
konom
Ã¶ch
Ġdennoch
ĠBron
Quelle
Ġschwar
ĠVereinbar
ĠLos
Ġweiteres
ĠSchu
Ġzufrieden
Ġtrifft
Ġverlor
ĠZuschauer
ĠAfr
ln
Ant
ĠBayer
bliothek
ĠKoalition
ĠGrÃ¼nen
ĠFÃ¤h
Ġernst
ĠDetail
tiges
ĠAg
ĠErklÃ¤rung
hoff
ĠWehr
ĠhieÃŁ
CO
ĠKurs
sph
nischen
Ġzuerst
riester
sm
baum
Anzahl
ĠLou
ĠPor
ĠFakt
ĠermÃ¶glichen
gels
ĠDaniel
ĠNa
Ad
Ġnennen
eicher
ĠForder
iol
Ġthat
ĠlÃ¤ng
unken
fonds
ĠMetall
fur
izieren
ĠKammer
ibel
ĠVerpflicht
Ġ1968
tu
una
weite
ĠMac
Ġmanchmal
Ġndu
Ġ&#
ratete
ĠungefÃ¤hr
Ġudn
nee
Ġverp
ĠTechnolog
ritz
Ġamerikanischen
ĠQual
ĠShow
nitt
Ġma
ĠStellungnahme
ĠArzt
Ach
ĠeingefÃ¼hrt
ĠMikro
,"
Ġdnu
ĠTschech
oben
kore
****
","
atter
zahlt
Ġelf
ĠTom
Ġeins
forderung
Ġnahmen
ĠMetern
eir
ĠKategorie
ĠKapit
eral
ĠGran
ĠGrab
Ġmar
ulen
aps
ternehmer
ĠTodes
ĠMosk
ĠgeÃ¤ndert
ĠJuden
ĠFinale
ĠprÃ¼
etzungen
2000
hoch
ĠWohnungen
Einige
sex
waren
Ġhr
Ġziemlich
ĠHinblick
ĠInitiative
ĠFrÃ¼hjahr
ĠSchmid
Ġkor
ĠhÃ¶r
emer
Ġdienen
ulation
ziehungs
Foto
ĠHaut
AD
plo
Part
Ġanerk
Mich
ĠVersuch
Ġdisku
ĠÃ¼bertragen
Ġme
Ġentdeckt
gende
ĠÃ¶ffentlich
DarÃ¼ber
ĠAnsicht
lieÃŁlich
ĠÃ¤hnlich
Ġentweder
ĠÃ¼bernehmen
Ġverurs
Fahr
holz
arn
Ġ48
weist
Ġwe
":"
Ġerscheint
kauft
dresse
ĠKapital
Ã¶rung
ĠCounty
Ã¤chs
ville
ĠDÃ¼sseldorf
rand
bezogen
klag
SC
ĠSl
Ġmiteinander
ĠTabellen
ĠWettbewerbs
ouver
rÃ¤f
ĠAufnahme
ĠspÃ¤teren
ĠBrÃ¼ssel
mitglied
ĠVeranstaltungen
ĠTurm
ĠHoll
ĠflieÃŁ
eiern
ĠSw
lehr
ĠKarten
ĠKenn
Ġeingerichtet
ĠFinanzierung
ĠErinner
steiger
uropa
Ġwichtigen
Ġ92
schn
ĠÂ«
Ġzugleich
ĠReichs
ĠKonferenz
ĠTurnier
ĠHersteller
ieur
ory
Ġtritt
ĠArbeitgeber
sequ
ĠEinheit
achtung
ĠEinwohnern
ĠFans
Ġbeit
ous
ameister
bef
rs
ĠAbschnitt
essour
messer
Ġspezif
ĠLied
Ġmusikal
Ġbehandelt
ĠÃĦnderungen
izierte
Ġangegeben
ĠgetÃ¶tet
Ã¼ndet
ĠAlters
ĠMitgliedstaat
iw
ernt
heimer
prÃ¤sent
liefer
ĠKlaus
Sc
Ġverg
jekten
ehnte
ĠBezirk
hop
legte
Ġabgel
Ġwusste
ĠSm
ĠSekunden
ĠKont
ĠCarl
ĠProp
Ġlieber
ader
hÃ¶ren
lÃ¤uter
schlossen
ĠAnfrage
Ġherum
IG
Mann
Ġsex
ĠTanz
ĠWindows
ĠRichard
Ġfehl
Ġerl
ĠAnn
hafte
vertreter
rd
ĠnÃ¤her
hofs
ĠEngagement
Ġstat
Bereits
ĠCal
bedingt
partner
kund
ĠWand
ĠCan
ĠEP
ĠRadio
ĠLÃ¼
Ġwichtiger
ĠSÃ¶
ses
ĠVorstand
HR
Ġoffiziell
versorgung
kammer
ĠBundesliga
ĠHochschule
ĠPrÃ¼fung
ĠmilitÃ¤r
Ġno
ĠEben
lowak
afen
Ġstarken
IR
bezirk
umme
hÃ¤re
Ġkehrte
Ġyour
DP
Ġkommun
Ġintens
ĠDor
ĠWolfgang
serie
Aug
Hol
ownload
Ġerzielte
richter
aser
ĠSonne
ross
dienste
ĠTeilen
ĠGemeinder
ĠSchuld
nov
ĠRud
Ġsehe
ye
Pf
ĠAnalyse
ĠHeiligen
ĠGrundstÃ¼ck
arischen
Ġ1971
Ġchines
ando
Ġkontroll
ziplin
funk
chem
ĠKoordin
Ġonline
ĠFotos
tement
Ġ42
imen
ext
Freit
athemat
Ġfreien
Deutschland
2004
ĠStern
ĠGewinn
ĠVerd
ĠAnlagen
Ġdient
herapie
ĠAutos
ĠAufbau
zieht
ĠzerstÃ¶rt
roht
ĠMÃ¼nster
ĠOrtsteil
ĠFund
ĠSign
abs
Ã¼mer
dens
eting
anen
ĠAbteilung
zeige
Ġdel
ĠInvestition
werten
ĠKombin
ifferen
astian
ĠÅ
ĠArm
ĠDra
zÃ¼ge
La
Ġjapan
Ġgeringer
rÃ¤nkt
Ġdenk
ĠLuxemburg
ĠVerÃ¶ffentlichung
schluÃŁ
arry
ĠInvestitionen
ĠErwachsen
ĠKredit
Ġdaraufhin
BER
ĠKro
ĠKÃ¤
ĠAbl
Ġkomme
Ġfra
ĠJazz
Ġsicht
Fol
Ġbeeinfl
ĠCont
Ã¶rter
ĠReserv
Ġitalienischen
itsch
ĠSar
iers
ĠRegeln
ĠHigh
ils
ĠStadtteil
Ġweist
gers
ĠRelig
ĠKonkur
ĠAst
Ġ1933
ĠWahrheit
Ġ44
Ġkaufen
Ġli
Ġzieht
ĠGeschle
nicht
ĠVerhandlungen
ĠAnforderungen
ĠDanach
Jul
ican
ĠverfÃ¼gbar
images
Ġzeich
ĠMilch
sekretÃ¤r
Ġdiente
unsten
ĠVal
Ġergeben
Ġter
artet
sper
bas
rink
Freitag
Ġiden
ĠJunge
freund
iller
ĠStiftung
enntnisse
rim
Ã¤tter
Pol
ĠMord
ĠGlauben
ĠUnterricht
Ġleisten
Ġverwenden
iede
Ġbi
region
din
Ġweitgehend
reck
ĠReal
Hotel
ĠAusbildungs
ĠMerkel
Haben
ĠSub
ĠVerm
ieh
annen
ĠFormen
Akt
su
National
ĠGal
ĠmÃ¶glichst
Ġmehrfach
ĠSchauspieler
ĠTeilnahme
ehmigung
ĠZÃ¼rich
ĠTeams
ĠBÃ¤
SS
ĠzustÃ¤ndig
wÃ¤
Ġbetrieben
Ġverbessern
ĠManagement
ĠstÃ¤d
klass
ĠAud
Ġpre
gin
itutionen
ĠFÃ¼
atik
Ġhergestellt
ĠDritt
stÃ¤nden
Grund
zenz
ssystem
ĠQuadrat
ĠInner
Ġbetont
ria
ĠStimme
Ġ1969
Ġsogenannte
Ġbeweg
ĠLebensmittel
ĠFinn
ĠChancen
Ã¤tigkeiten
ĠTonnen
ĠTore
orm
Gew
sphÃ¤re
steigen
iguren
ĠEntscheidungen
daten
Ġbekommt
ĠHÃ¼
ĠMusiker
dels
handlung
ii
ĠMod
ĠVf
Ġheil
Ġ1920
ĠGelegenheit
Ġunbek
ĠAllgemein
graben
Ġstarke
ĠhÃ¶chsten
usion
isseur
ted
ĠverlieÃŁ
kultur
ĠbegrÃ¼n
ĠVerlauf
innern
ĠBrÃ¼cke
ĠJoseph
ĠzusÃ¤tzliche
ĠOh
Inst
law
ktien
Ġfeier
ĠFahrt
ĠFa
ĠIrland
emit
zone
ĠÃľberein
ĠMond
ersonen
Ġnachhal
ĠRettungs
zum
ziger
At
ĠKomment
Ġefs
Gl
ior
ĠFleisch
vt
ĠBonn
Ġbenannt
Ġvan
ĠMand
ues
ube
Ġsub
ĠRathaus
Ġstellvertreten
amens
ĠVerÃ¤nderungen
Ġgesprochen
ausend
Ġvorber
isieren
unger
ĠzÃ¤hlen
PrÃ¤sident
tret
Dr
usern
wissenschaften
fangen
ĠWerte
Ġdurchaus
isst
Ġeingesch
hÃ¤nger
Ã¼nder
Hin
Mon
Ġ1930
versicherung
ĠSau
Ġ]
ĠSong
rÃ¤nk
Ġdaraus
ĠDek
dl
ĠMerk
ĠUrteil
Ġwid
Ã¼ren
Ġguter
ĠLok
ĠHy
ĠRenn
bauer
New
ĠAusgabe
ĠAma
artige
maschine
/?
grenze
ikaner
minist
Ġerstes
Ã¼rgen
aktiv
ausende
ĠIntegration
Ġ43
Ãī
Ġfordert
oman
ĠBremen
Ġbenutzt
ĠkÃ¼nftig
ĠSC
schafter
ĠFo
ĠMission
Ġgalt
Ġberichtete
Ġtrotzdem
Ġwirtschaftliche
ichert
ĠSun
ĠjÃ¼nger
Ġcon
ĠJungen
ĠHall
lÃ¤uf
alte
Ġmache
scheidung
Ġentsprechende
Ã¤dag
indet
Ġtechnische
Ġpassen
ĠGerichtshof
Lie
Ã¤hlten
ĠNo
Ã¶ÃŁen
HL
Stadt
reffend
Ã¼nden
ĠAngelegen
ĠVorschriften
ĠOrganisationen
Ã³n
Christ
hst
ĠsÃ¤m
ĠAusschusses
ĠIdeen
izierung
zog
ĠLen
rans
ĠâĢ¢
Ġtraf
ato
2005
Ġevangel
ĠTÃ¤ter
Ober
ucher
ĠAusschuÃŁ
Ġbreit
urn
Äį
ĠRing
ĠAuft
text
ĠAufstieg
Ġelektr
strÃ¤ger
Selbst
ĠBeob
ĠerhÃ¶ht
ĠInterview
vi
ĠPhilosoph
Ġletzter
2001
undert
chner
Ã¤hler
ump
raw
ĠSachen
ĠJosef
arlehen
ĠVorder
Em
ennis
orfen
ogle
Ġeingestellt
endung
ĠRÃ¼ckkehr
ĠPrinzip
Ġsamm
greifen
Ġverpflichtet
llung
ĠWorld
ĠOpen
ĠDenkmal
Jeder
rel
gebiete
Ġmedizin
eiÃŁe
ĠProduktions
dis
umente
ĠfÃ¼
ony
ussen
schaffen
Drei
anda
Ġelektron
Co
abeth
wuchs
ĠSpann
ĠerklÃ¤ren
Ġbemer
IV
Ġbetrug
top
ausschuss
Lin
tigte
iode
seits
Ġsodass
Ã¤rm
rib
prÃ¼ft
museum
ĠNÃ¼rn
alerie
falen
EC
ĠfÃ¶rdern
Ġunterschiedliche
Â·
ku
Ġfrag
Ġlief
ĠKommunikation
ĠVorhaben
ĠAnp
Ġhabt
een
Ġgefallen
ĠAusbau
Inter
.).
otto
ĠRÃ¤
Ġrussischen
Ã¤mpfung
Ġrechten
Ġgeeignet
Â¤
Ġblau
zugs
ĠSex
Ġzuge
haften
station
ĠZentral
500
onstr
vollen
ĠSpitze
')
sichts
Ġgering
Ġbetrifft
==
ĠQuellen
ĠJustiz
Ġ250
ĠBa
Ġausges
Ġschreibt
ĠProm
ĠZen
Ġejf
neter
Ġbehaup
indert
hÃ¶he
amerikanischen
Ġgleiche
ĠZivil
ĠDiskussion
kom
isen
ther
ĠtÃ¤glich
Ġkostenlos
Ã¤tzt
Ġheiratete
standen
ĠInfrastruktur
produktion
ĠOtto
Geh
umber
kurs
falt
amerika
Min
Ġunterschiedlich
meisterschaften
fÃ¤llen
Ġ1938
orts
bett
Ã¼tte
ĠBeamten
neider
Kein
istenz
ĠCas
TL
ĠBeteiligung
heben
Datei
ĠAnd
Ġglob
ĠErsatz
istin
Ġbrauche
ĠRevolution
Ġhinsichtlich
FA
ĠAre
ĠFischerei
ĠFreude
Ġmark
Ġstimmt
fter
ado
stete
ostat
aner
essourcen
We
ĠSchwierigkeiten
handels
ĠOct
ĠSeb
ĠErzeugnisse
auso
ĠSprachen
ani
Ã¶tzlich
tz
onie
ĠIV
Ġspeziell
grad
Ġmass
Ġteilte
ension
berech
erg
ĠÃ¼berall
alys
eins
Ġaktuell
Ġ41
ĠPapst
kÃ¼nfte
ĠBereiche
material
TEN
RO
ĠCSU
uÃŁball
Immer
.),
ĠFrÃ¼hstÃ¼ck
ĠDieses
stern
ĠSektor
Ġfreuen
orth
ĠVir
Ġ1939
Ġtro
ĠBaby
prÃ¤sident
ĠMul
ĠwÃ¤hlen
rig
On
Ġ1944
ĠHerrschaft
erkennung
Ġfragen
ĠTourismus
ĠKapitel
Chef
Ġsenden
Ġtreten
ĠBeziehung
rachte
yle
ĠSoc
fc
annter
ĠStÃ¤dten
agne
ora
ĠWashington
ĠÃ¼bersch
ĠDresden
ĠschlÃ¤
AA
Ġseid
schlieÃŁung
rachtet
ĠJugendlichen
ĠNachfrage
tigten
ĠAward
Ġverlang
hnung
zeigen
ĠUmsatz
ĠNah
Ġinvest
lings
Ġgezogen
issar
Telefon
ĠRegelung
sÃ¤tzlich
loÃŁ
ĠStaffel
nitz
DER
Ġfestgelegt
ĠRosen
fachen
ĠRitter
Vom
ĠDamit
ĠAltern
sid
otten
ubil
machen
rung
TA
ĠDec
stimmen
Ġnennt
UniversitÃ¤t
ĠGefÃ¤ngnis
Ġkauf
ralien
ĠIns
ulgar
Ġpositiv
ĠverÃ¤ndert
ĠKanton
ĠDipl
ĠJak
Ġschweren
Ġfolgten
Ġwesentlich
ĠPriester
Ġunterb
ĠWel
ĠInhalt
dat
ĠmÃ¶glicherweise
ĠEich
Ġhoffe
Kreis
ards
ĠBom
fristig
ommun
KS
ĠMesse
rak
Schw
Ġdigit
ĠKal
ieden
rÃ¤umen
ĠFreiheit
Ġ64
Ġ1967
Ġgeist
zusetzen
ental
ĠRÃ¼cken
Ġ1940
ual
Ġaktualisiert
ĠPrÃ¼f
chst
IM
Lass
cia
reut
ĠRoll
ĠGebiete
ĠWeil
1999
ĠReisen
igkeits
?"
ĠDialog
Ġfunktioniert
ĠTatsache
ĠBedÃ¼rf
ĠAutobahn
ĠJames
ĠVorsitzende
leute
felder
Ġstattfinden
Ġplan
Ã¤tzung
jÃ¤hriger
ĠLuxus
ĠnÃ¶tig
karte
Jan
ĠGeorge
ĠBrasil
ischt
werken
Ġerscheinen
ĠLad
Ã¼hlen
ĠSammlung
geht
itur
ĠGefÃ¼hl
Ġvierten
Sonntag
ĠFak
Ġverabschie
Ġkurze
ĠPC
ĠSP
ĠHessen
Ġmodernen
ĠKas
Zwischen
ION
ption
ĠAnna
ĠVorschlÃ¤ge
Di
Ben
ĠAkademie
abteilung
ĠElektro
ĠAsp
ĠDamen
ichtigung
Ġha
prÃ¼fung
westlich
ĠFarbe
ĠOrte
erte
Ġergibt
ĠFÃ¼nf
Ġbekannten
Ġbessere
Ġmy
ĠFarben
ĠÃ¼berwiegend
ffizien
ws
Ġeinzigen
Ġeiniger
leiten
Ġwohn
Ġbetreffend
Ã¶ger
hÃ¶rigen
Ġgedacht
HÃ¶r
Ġvorgeschlagen
dar
ĠGru
ĠAbgeordneten
ĠWalter
ĠLim
grenzen
Ġbestehenden
fÃ¼hrte
Ġakzep
zeichnungen
ĠHÃ¤user
kÃ¼r
ny
tseite
andelte
ungsmittel
kehrt
ĠDarstellung
krit
ĠgeprÃ¤gt
wenden
meldung
Ġgenerated
SA
Ġnutz
Ġdiver
ĠUngarn
ĠHir
ĠHÃ¤nde
jdi
ĠFestival
Ġsech
ĠZun
SD
brauch
Ġlebte
ĠFamilienname
Ġerhoben
rÃ¼cken
Ganz
kommt
struktion
Daher
ichteten
ĠHermann
wahlen
ĠGerÃ¤te
star
cup
ĠAfD
ĠMrd
ĠVertrags
ĠPlanung
usen
ĠArchitektur
Ġsterben
Ġpsych
ĠSchatz
liegt
Sind
scheidet
Ġ1964
Ġgesellschaft
ĠHit
Ġnationale
Ġprivate
ĠDann
Ġabgesch
Ġgestern
Ġ52
Ġhalb
Teil
lers
schiede
reuung
Hat
ĠTraum
ĠErweiterung
lÃ¶
2002
Ġew
ĠSy
oret
Ġrichtige
einrichtungen
figur
Ġlinken
Ġproduziert
lieder
DafÃ¼r
Obwohl
Ġaktuelle
emm
ĠFalle
Ġpost
ĠMitteilung
ĠBeschluss
ĠBrenn
ĠAkte
ĠDeutschlands
dex
Ġ49
Ġtoll
veranst
ĠAnwesen
leistungs
Ġschrift
Ġinstall
ĠBewohner
ĠInseln
zellen
Ġaufs
gÃ¤
ĠBord
Ġerinnern
Eigen
ĠProgramme
bul
Ġschreiben
Ġ600
Ġsage
ĠRoh
bieter
ĠerfÃ¼llt
ĠHerzog
ĠHoffnung
wege
ERR
Ġlegen
ĠGroÃŁen
ĠUmfang
ĠSowjet
wachung
Ġzahlen
ĠLinien
schef
atell
ĠEWG
ĠKoch
Ġangesehen
ĠNur
ĠAufenthalt
attform
ĠJean
Ġorganisiert
Ġschwierig
tien
iness
afrika
ĠKop
ĠOs
Ġkennt
ĠCollege
ĠverlÃ¤nger
ĠKanada
gebnisse
ĠDE
ĠExperten
Gruppe
VP
pret
ĠUnited
ĠhÃ¶chste
Ġkrie
einheit
Ġzweimal
ĠZentr
Mir
ĠTrÃ¤ger
Ã¢
Ã¶nnen
Ġfestge
ĠSieger
wood
dlich
Ġsucht
ĠErwerb
ĠstÃ¤ndig
ĠFacebook
Ġkg
arzt
ĠMund
bd
ĠGebieten
ĠkÃ¼nd
forum
Ġessen
urer
iefe
Ġseconds
Ġhinein
Ġsinn
Ġstabil
wohnung
ĠZudem
Ġstra
Ġchem
ĠNeubau
Ġbetonte
Techn
ĠMisch
blog
atin
Ġunge
hagen
wirtschafts
Ġaust
ĠFranzÃ¶s
erer
Ġ120
Ġfehlt
Ġnahezu
ĠVorteile
Ã¤nner
Zahl
Sol
sinn
ĠFernsehen
ky
ĪĴ
Ġvergeben
ĠWur
amerikanischer
ĠverfÃ¼gen
NA
azin
ĠMannschaften
ĠBehinder
Ã¤dagog
ĠWorte
ĠNationen
Ġeigenes
ĠFal
ĠKarls
klar
ÅĤ
ĠGewicht
neu
wp
Ġgegangen
ois
Beg
bieten
otion
deutsche
Ġverteid
Ġhand
ĠVermÃ¶gen
ĠJac
uro
Ġsitzen
Jahrhund
BA
pap
Ġsan
iana
ĠkÃ¼nstler
Ġheutige
ĠKonzer
leistet
Ã¼ÃŁ
ĠStaatsanwalt
Ind
ĠSyr
MwSt
ĠMassen
Ġunbedingt
cycl
deutschen
Ġ1965
Ro
athl
adel
Ġlokalen
alismus
ruhe
ĠUnterschied
nell
ĠSchaffung
zon
ĠMÃ¤nnern
ĠSprecher
Ġ46
ĠFahrrad
Men
ĠRoy
uba
ĠDÃ¶r
Ġeindeu
ĠHÃ¶hen
Programm
VD
kunde
ĠÂ©
ĠMitgliedern
lleg
karten
gerichts
icke
arische
werber
mail
ologe
ĠReihen
Ã¤nen
itute
pon
empl
ĠJugendliche
namen
ĠAR
ĠCast
Ġ1966
paar
ella
Liste
ĠIT
ĠAnerkennung
ield
Ġprofit
Ġeinzelne
Ir
Ġbesuchen
ĠschlieÃŁen
weiten
fi
ĠGang
ĠGewerbe
Ġzunehmend
ips
Ġtrug
ura
wr
ĠLive
ĠschÃ¼tzen
ĠTabelle
Ġschm
ranten
Ġgaran
dauer
ĠRuf
ĠDrittel
funktion
ĠRefer
systeme
Ġweib
ĠpersÃ¶nlichen
Ġgelegt
ĠAnst
ettet
Frei
ĠEhr
Ġextrem
ĠKlass
ĠZeich
Ġbetrachtet
ĠBundesrepublik
Ġversp
ĠGeburtstag
ĠKompon
Ġbisherigen
spekte
ĠDÃ©
ĠVogel
Ġ1946
swert
ĠZugriffe
fertigt
enkt
ĠEntwurf
ĠMethoden
ĠUntersuchungen
ĠmÃ¶glichen
Ġ1963
Med
ĠGeÃ¤ndert
ĠÃ¶stlich
ĠKÃ¼hl
ĠParty
ĠGrand
stÃ¤tten
ĠKonst
lÃ¤ndische
ĠAns
Ġwestlich
ĠGrÃ¼nde
IL
Ġmittels
Mittwoch
ĠPhase
ĠLohn
Ġschwed
ĠEnglisch
Ġsystem
Ġegal
ĠSchool
ĠGermany
Ġerweitert
Ġbritische
Ġpf
Ġvoller
Ġregionalen
ĠAlbert
Ġmu
ĠSpielzeit
spir
irche
Car
lla
ĠgehÃ¶rten
ĠHilfs
ĠPress
ĠMeeres
Ġ51
ĠNaturschutz
JÃ¤hrigen
gh
mack
Kap
ĠAustralien
ration
ĠlÃ¶
ĠZucker
Ġ1962
wÃ¤l
kep
SÃ¼d
hmen
ĠRechtsvorschriften
ĠSchwerpunkt
Ġerstellt
riebs
ĠBlumen
ĠAlkohol
ĠWay
ografie
Ok
ĠPlÃ¤ne
ĠFriedhof
Ġ1961
ĠProtokoll
Ġfalsch
rÃ¼stung
ĠWett
ĠStrategie
ĠÃ¶rt
ĠGeschÃ¤ftsfÃ¼hrer
ĠMoskau
Ġvorzu
ĠTeuf
ĠLÃ¶sungen
Ã¤ck
ĠVilla
isa
geschÃ¤ft
ĠberÃ¼cksichtigt
ĠRisiko
Ġmachst
Ġkurzen
Ġkost
ĠfÃ¼hrten
ausbildung
astrop
ĠLy
Ġ54
hÃ¶hung
ĠBir
ĠSchnitt
Ġeinheit
ugh
Ġeingeb
ĠEvangel
fÃ¼hrungen
ĠVarian
otoren
Ġlegt
ĠBuchst
ĠFla
Viel
perrt
etzter
Ġzugunsten
Ġfinanziellen
ĠAufmerksam
ĠFertig
Ã±
Ġaufgestellt
ĠJesus
furter
ĠVorgÃ¤nger
bewegung
ĠMindest
wertet
ĠVorbereitung
ĠDoch
ufo
ĠAnnahme
Ġuntersch
ĠArtikels
rÃ¼ckt
ĠRechnung
ĠStrecken
Ġbewusst
ĠPflicht
tn
ĠBedarf
weich
ĠKaffee
hat
ords
eiche
Ã¤fts
Ġbo
ĠOriginal
Ġversuchte
ĠÃ¶ffnen
Ġ53
ĠKlim
tragung
wel
Ã¼mmer
ĠVerlag
celona
ĠStation
essel
ĠEingang
ĠverlÃ¤uft
estern
App
ĠgeÃ¶ffnet
arakter
ĠPartie
gesp
ĠStudio
ĠAktien
rÃ¤ch
ĠLast
uliert
ĠTher
ĠFÃ¤lle
ohnt
ĠKohle
ĠGÃ¶tt
ĠZusatz
ĠRiver
maÃŁen
ĠGolf
2003
baus
udes
Ã¤ischer
kat
ĠNiederlande
Ġschwarz
Ġhilft
ĠIsland
Ġfinde
sg
ĠTrend
ĠprÃ¤sentiert
ĠFarb
Ġokay
Ġnamens
Ġsin
Ġverste
ĠWed
ĠAsyl
ĠHohen
ĠmaÃŁ
Ġbelegte
Ġverurteilt
kÃ¶rper
Ġverliehen
Ġherunter
ehme
Ġfestgestellt
wan
ĠOrgel
ĠPau
Ġleider
ingung
Ġverlieren
ĠausdrÃ¼ck
atischen
ĠThr
ĠAustausch
rinken
Nie
itor
ĠLeon
ideo
abilitÃ¤t
Ġbewegen
Ġged
Ġunbe
ays
ĠBanken
wirkung
Richt
ĠVaters
âĢĺ
Ġhoher
Â©
Ġ;
formationen
konferenz
Ġschneller
ender
teils
ĠFlÃ¤chen
telligen
ĠFreizeit
Ġholen
obby
mitglieder
reform
Ġdargestellt
werben
ffekt
Ġsport
aket
riz
Ġbean
spunkt
Ġsolcher
ĠUrsprung
Stud
eiteten
Eben
uplo
Ã¶stlichen
Sehr
Ġvorgelegt
Ġ1958
Team
ĠBeschwerde
ĠEst
ĠMeisterschaft
%)
Ġmeint
Ã¼te
ĠLandschaft
Ġindustrie
ĠReaktion
bilder
klusive
knÃ¼
ĠstÃ¼r
ĠKrimin
ĠIll
ĠForst
ĠKongress
andte
ĠauÃŁen
istan
ĠerfÃ¼llen
Kurz
onien
afel
kas
Ġkan
Ġregistr
Ã¼nde
Ko
quar
vereins
zwe
Ġdran
nehmern
sektor
ĠMauer
iki
kunfts
ĠMarkus
ĠNachricht
Ġinteressiert
ĠNav
ssen
ela
Ġfehlen
ĠmÃ¤nn
ausschusses
Ġwolle
management
teile
ĠVerstÃ¤nd
endorf
ĠGab
ĠunabhÃ¤ngig
Ohne
Ġangesichts
ĠInternationalen
PS
brÃ¼cke
1994
gentin
Ġblieben
Ġgere
cb
ĠVic
Sa
leun
ĠtÃ¶ten
ĠTraining
isierten
ĠArbeitsmarkt
ĠStich
________
uther
anzer
Ã¤cher
ĠAbstimmung
ĠlÃ¤nd
ĠbefÃ¼r
Ġprofession
Ġsiehe
rollen
ĠAuffassung
ĠQuer
ĠAufmerksamkeit
ĠbenÃ¶tigt
Ġdeiner
ĠGeneration
ĠOffiz
Ġ1948
griffen
ĠUnabhÃ¤ng
ĠUkra
ĠÃ¼berzeugt
ĠOpp
ĠInstitutionen
Lo
ĠKooperation
Bar
ĠKonzern
hias
sweise
Ġwuchs
reichend
Etw
tÃ¤u
ĠFri
Mitglied
ĠgenieÃŁen
ĠSystems
Ġgenauso
ems
cz
ĠZeitschrift
kar
Ġehemaliger
ĠErzb
ĠMail
Ġetc
ĠSemin
ĠEuch
Aufgrund
Ġbauen
wies
Ġmachten
ĠâĪĴ
kunst
Ġleitete
ĠBesonder
ĠPremier
zeitung
ĠKil
ĠKos
ĠErÃ¶ffnung
Ġwestlichen
ĠFlucht
Ġhttps
Ġpromov
ĠNic
GB
Ġ800
ĠSouth
Per
immobili
jor
rÃ¶
Ġdeinem
ĠJungs
reckt
ĠBeschÃ¤ftigungs
Ġoffenen
aufrufe
ĠKeller
ĠFlugzeug
ĠKart
fordern
ĠhÃ¤ngt
Ġ1956
ĠHard
ĠEN
gliedert
rh
EB
Ã´
ĠBewertung
SchlieÃŁlich
ĠBist
anner
Ġ1949
ĠIsl
ĠMas
zten
MÃ¤r
Ġbegeister
Ġwirkt
ĠVÃ¶lker
ody
Ġkleines
ĠGitar
ĠFreundin
Join
bro
ĠSab
ĠdrauÃŁen
witter
ĠgegenwÃ¤r
ĠIran
kehren
ĠTarif
stoffen
Ġentsteht
Musik
Ġteilnehmen
Ġ47
Ġgegensei
ĠRegie
ĠEinkauf
Ġrad
ĠTab
elbe
Ġgemeinschaft
ĠKlub
Ġstartete
ĠSturm
ĠSchiffe
Ne
ĠTerror
ĠDebatte
ĠAusgang
ĠWiderstand
mension
Ġwann
ĠschÃ¶ne
reif
ahrt
schuÃŁ
Ġscheiter
ĠSchles
owski
ĠHÃ¶chst
jt
UNGEN
ĠGlo
ĠPlay
Juni
ĠAutoren
ĠBerichter
nh
ĠsÃ¼dlichen
Ġgesund
nitten
Ġstill
ĠAuftritt
unnel
ĠpersÃ¶nlich
Ġoper
ĠÃ¤uÃŁ
Danach
Fax
endar
bran
etts
ĠAuge
Ġ1952
partement
Ġrichtigen
ĠplÃ¶tzlich
Ã¶sterreich
Ġwirkte
Ġchrist
ĠDeck
ĠBevÃ¶lkerungs
ĠSebastian
ĠFass
Ġehe
ĠMi
bahnhof
ugend
Ġlautet
Peter
sur
stige
Ġdor
Wohn
ĠZahn
rein
alisiert
Ġhc
Ġangemessen
Ġsorgt
iale
antin
Ġfinanzielle
Met
ĠlieÃŁen
zesse
quote
Ġreichen
ĠSeiteaufrufe
zell
ĠSei
Ġgehabt
OK
Ġtrain
qualitÃ¤t
sti
ĠAK
Ġhow
agner
Ġverschiedener
Ġverboten
Ġretten
ĠDun
ĠIndust
ĠWÃ¤r
ĠHamburger
Ġverringer
ĠFein
dach
Hel
ĠWerner
MS
Ġausgetragen
ĠBeschluÃŁ
ĠInnenstadt
barer
Ġjene
bacher
izierten
ĠUnternehmer
Web
Ġbesitzen
ĠverstÃ¤rkt
Ġwes
Ġallgemeine
ĠCa
ĠhÃ¶here
ĠPrior
Ġgleichnam
Ġ1943
Ġveranst
ĠMol
hod
ĠBlock
Ġaufgebaut
ĠVerz
Ġmodern
ĠQualitÃ¤ts
Ġant
nummer
hockey
ĠMarc
ĠVoraussetzungen
FC
ezif
ĠNotwend
ĠFle
Ġunseres
Joined
ĠAuseinander
pm
fir
Politik
ĠHauses
ĠÃ¶sterreichischen
ĠMexiko
ĠOff
ĠYou
Ġgebildet
Ġ!
AND
ĠLinks
Ġti
lim
ĠGegend
ĠFront
mÃ¤ch
ĠAktionen
asser
Kinder
sprecher
ioren
Ġgutes
Zusammen
ipe
Ã¡n
bungen
rinzip
zeichneten
Ġstruktur
alifornien
Ġsh
Ã¼mm
content
Ġbeendet
Ġuntersucht
ĠhÃ¶heren
Ġecht
ĠFunktionen
Wieso
ĠCent
Ġinkl
ĠzustÃ¤ndigen
Ġgearbeitet
auten
Ġgefragt
wirken
Ġ1942
ĠMÃ¼nchner
Johann
Ġverkaufen
Ġopti
ĠÃĦnderungs
aufnahme
Best
ronom
Ġalleine
ĠGÃ¼n
Ġlebten
Ġerleich
ĠNeuen
ĠBÃ¶r
ĠGattung
ĠSeeh
mosphÃ¤re
gischen
ĠlÃ¶sen
MU
Ġvorgestellt
lu
verteid
gerÃ¤te
Ġruhig
jahres
Ġ1941
ĠVielzahl
ĠTief
ĠKiel
ĠangekÃ¼nd
ĠArg
Verhandlungen
ominiert
hÃ¤ltnisse
Ġverbreitet
ĠZweit
ektar
ĠBeim
ĠGeschwindigkeit
ĠBlatt
ĠAfrika
ĠMut
III
spf
ĠEh
Mr
ĠDatei
fabrik
MT
Ġverstanden
ĠFlÃ¼chtlinge
Ã¼tter
ĠMinder
ĠSalzburg
ĠHeer
ĠHon
schlagen
ween
Ġenglischen
Tut
Ġ1959
schnitts
Ġgeblieben
oppelt
Ġanti
ĠMaster
Ġos
ĠBenutzer
Ġhart
Ġerfolgen
wirt
ĠkÃ¤mpfen
bogen
Ġ1957
Sag
umin
ĠPfarrer
ĠGebrauch
Ġermittelt
Ġbeendete
ÄĤ
ĠJagd
ĠKatalog
Seite
enten
ĠmÃ¼ssten
Post
service
Ġweite
weil
ĠRegisseur
Hil
Ġanhand
ĠÃĦgyp
Ġantw
ĠSorgen
tiere
Ġniemals
ĠMadrid
ĠDenn
reide
Dav
fÃ¤hig
fÃ¼hrungs
Ġvermeiden
ĠAnschlieÃŁend
endeten
ĠRekord
ĠNetzwerk
Ġerhielten
ĠdÃ¤n
euert
Ġehren
mag
tÃ¤
ĠDomin
ĠSpÃ¤ter
gestaltung
ĠBeitrÃ¤ge
ĠVan
hÃ¼
lÃ¤sslich
ĠLandtag
behÃ¶rde
inc
ĠDiesel
Ġgelungen
ĠSysteme
Con
ati
Äģ
spruchs
Kommission
sprozess
ĠAspekte
manns
ĠNÃ¼rnberg
ĠBoot
git
ĠEinkommen
Ġmach
stehenden
eise
ĠMur
ĠfÃ¤hrt
iano
Ġdiesmal
ĠKass
wÃ¼rfe
ĠFeder
Ġberu
formation
Ġempfohlen
Ġ56
ĠSorge
ĠLandtags
ĠMaler
ÃŁig
ĠQuart
ĠEck
Ġkomplex
ĠElemente
ĠQuelle
tist
Ġetabl
ĠKlinik
ĠBeweg
ologen
ĠerhÃ¤ltlich
ĠGerÃ¤t
mess
entlich
ĠGenehmigung
Ġsite
ĠMos
ĠArbeitsplatz
ĠNorwegen
ĠNiederlage
viel
ĠwÃ¤r
echselt
pool
Ziel
werden
Ġvoe
Genau
MW
San
ĠRec
ĠDemokratie
ĠKÃ¼ste
ĠABI
deln
dif
timeter
ocation
ĠFehl
istent
ĠJakob
instrum
ĠmÃ¶gliche
ĠBrÃ¼der
ĠNiederlanden
opul
nl
ĠLeiden
ammte
Ġreligi
Ã¿Ã¿Ã¿Ã¿
mes
schloss
phan
ĠEindruck
ĠheiÃŁen
Ġerheblich
tragt
erd
Ġstimm
ĠBart
ĠDeleg
ĠLieder
rÃ¤t
Ġries
artig
ĠFax
Ġvorgenommen
achim
ĠMarke
ĠWÃ¤hrungs
ĠSchick
Ġmeinte
1998
Ġendete
ĠbemÃ¼
rc
WÃ¼rttemberg
ĠbeschÃ¤d
brand
igital
ĠbezÃ¼glich
Ġforderte
ĠKombination
ĠzukÃ¼nf
ktions
Ġfalls
ĠAv
ĠSÃ¶hne
ĠBesatz
Ġrum
SchÃ¶n
ĠVereine
ĠFranken
ĠVertrauen
Ġangep
nische
ĠSchriftsteller
Ġcan
Ġerzielt
ĠBarcelona
ĠAutomobil
ĠAnhÃ¤nger
Rech
IB
FB
sky
flÃ¼gel
ĠMittelmeer
iction
enzt
Ġsolle
Ġeinzigar
azitÃ¤t
finanz
ĠglÃ¼cklich
Gott
antas
fÃ¼gt
Ġerbaut
ĠKamp
ji
abkommen
ĠLeid
ĠGrÃ¤
ufs
ĠRem
ĠSchmidt
Nieder
ouverne
ĠerlÃ¤uter
ehren
Kar
Ġcomp
ĠModer
ĠStrukturen
Ġwodurch
Ġgu
afÃ©
ĠPersÃ¶n
ordnet
ppt
Ġveran
klei
ray
ject
Sep
gendes
ĠPause
ĠObjekte
ĠPatent
ĠDol
Fest
mn
ĠRollen
RE
ĠNachwuchs
ĠChristoph
Ġvorstellen
ĠFilme
Ġsa
aka
Ġ1953
Res
ĠKrankheit
SPD
StraÃŁe
Ġbesucht
erung
entwick
IER
]]
hofen
Ġeingeladen
kern
ĠNie
Ġnn
bindung
bleiben
ĠEigenschaften
Ġbetreffenden
lam
ket
Ã£
ĠPoly
ĠWeitere
ĠTreffer
abelle
omoti
alender
ĠGemeinderat
rete
ging
Ã¼se
ĠSchmer
ĠLind
ĠBlÃ¼ten
verlÃ¤ss
stritten
ird
arbeits
malen
brÃ¼
Ġmer
Ġwirksam
ĠerhÃ¶hen
fle
ĠAtom
Ã¶rp
hÃ¤ngig
ĠBekannt
ĠDarm
beit
bereiche
Rund
bart
EIT
......
ĠKompeten
teln
ĠAusgleich
ĠBlack
ĠWorten
ELL
ĠToten
Ġbenach
BÃ¼rger
ĠKonkurrenz
ĠMarken
Ġrot
Sport
Ġschwere
ĠLaden
Verein
gert
Ġsitzt
worten
sÃ¤
ĠWillen
Meter
ĠMaxim
Ġberufen
ographie
ieter
aktionen
ĠArchitekten
ĠIndien
Ġvollen
ĠBeihilfen
Ġ1954
arkt
ĠÃ¤r
ĠMiet
Ġ1918
info
ĠPhilosophie
Ġ1955
zeichnis
ĠKandidaten
stuhl
Ġgelangen
iefen
ĠAussage
wur
Ġnannte
ĠEngel
Ġdanke
aro
schÃ¶n
ĠJÃ¼rgen
ĠMÃ¶n
ĠPhys
fernung
Ã¼ndungs
leisten
immern
Ã¶ffnete
attet
FL
Ġfeiern
ĠAnhang
Ġsteigt
ĠBetriebe
Ġ1947
Beide
Ġinnov
Besonders
Ġfreund
Ġdr
ĠIngen
etto
Ġversehen
uert
rol
Ġarch
ĠBeweis
schirm
Ġdis
ĠgewÃ¼n
ĠNamens
Ġselber
Ġbegleitet
projekt
Wegen
ĠLouis
400
ĠTeufel
aufhin
ĠlÃ¤ngst
atisch
iedlung
Ġ"âĢŀ
astung
ĠBereits
bers
BC
Ġaufmerksam
Ġhistorische
ĠMathemat
gÃ¤n
Ġoberen
ktiver
ĠZin
Ġhave
weisung
ĠZeugen
gesetzten
ĠVerÃ¤nderung
preise
Ġ2020
Ġwirken
CDU
Ġhoh
eser
hÃ¤ngen
ĠSteuern
zeption
âĸ
kopf
Ġlieben
ĠSchle
ektoren
Ġsoweit
ikationen
Ġgenehm
Bel
eland
Ġumgeben
Ġmany
Ã¶ss
ĠCup
aud
Ġ95
Ġschlug
verbrauch
anzig
ĠBestandteil
Ġfreiwill
rucken
ĠprÃ¼fen
Nov
Haupt
altete
ĠBox
licherweise
ĠThÃ¼r
pper
Ġrunter
Fi
ĠHub
ĠPlÃ¤tze
Ġabger
ĠâĢ¦
horn
Mach
Projekt
ĠTÃ¤tigkeiten
zehnten
ĠEss
aven
ĠKÃ¼nst
Ġgeplanten
ĠÃ¤uÃŁerst
ĠAusschuss
ĠÃĩ
Ġhef
atische
platten
Ġumge
Gra
krieges
stÃ¼cke
ĠStatus
ĠNiveau
Wor
ĠBisch
ĠÃ¤lteren
ĠTurn
team
Ġgetrennt
Ġbelegt
gesellschaften
ĠEntwicklungen
IA
Ġstarten
ĠBol
Lei
alem
ĠEhefrau
Ġ96
jh
/-/-/
Ġmiss
ĠgÃ¼nstige
familie
eme
ĠFrancis
ozi
ziehungsweise
sprÃ¼che
ĠschÃ¶nen
ĠBesitzer
Ġgerecht
ĠLaur
ĠVerlust
Ġtraditionellen
mittlung
ĠParkplatz
Ġabgeb
mÃ¤ÃŁige
Kn
EUR
ĠHinweise
ĠFinnland
Ġvieler
Ġjahr
strafe
Ġgekauft
verstÃ¤ndlich
ĠRam
TSCH
ĠâĢļ
sw
wendungs
ĠZustimmung
irge
ĠObst
zert
amts
ĠVerstÃ¤ndnis
Neue
ĠCharles
Ġupd
ĠServ
isabeth
ota
unterricht
ĠAmerika
Kont
ĠDefin
ĠRessourcen
Ġmoderne
Ġwesentlichen
raucht
Ġdemokrat
ĠManager
Ġdauern
ĠCre
ĠKÃ¼sten
oli
Ġ1936
aku
ĠCenter
weiht
ĠGestaltung
ligisten
gemeinden
ierend
ĠInstrument
Ġbestimmter
anstalt
August
club
zÃ¼g
ĠDivision
grammen
ĠVill
;&#
Ġ72
ĠDienste
Ġ1934
behalten
recken
ĠUnterschiede
ĠLiber
Ġandererseits
Ġvorne
Ġstaatlichen
ĠGlob
feuer
><
uploads
ĠKlavier
ridge
ĠVER
roll
sprÃ¤sident
Ġzweiter
Ġbildete
ĠKe
WeiÃŁt
ĠNotwendigkeit
ĠDortmund
ĠwÃ¼nschen
Ġkenne
elen
pend
Ġgestorben
Ġorien
ĠAussicht
verkauf
ĠMittelpunkt
uchst
Ġbeziehungsweise
Ġwissenschaftlichen
schend
Ġerleben
ĠSzene
ĠLaut
Ġtrocken
hÃ¶rige
GE
zn
Ġverfolgt
ĠSingle
uste
Ġilleg
Ġgetragen
ĠBeschÃ¤ftigten
ĠRichtlinien
ctu
ĠVorteil
istischer
ĠFreiburg
sprechend
icker
ĠNutzer
Ã¤rten
Ġgro
Ġbeschreibt
ĠFÃ¼hrer
passen
ĠMem
ĠAnsatz
Ġlo
ĠJos
post
Ġauftreten
kg
Ġnumber
ĠTSV
itness
Vier
ahe
erven
ĠKrieges
ĠUnterkunft
schten
ights
Ġbezahlen
tinu
Ġnied
Ġ1919
ĠWen
ĠPoten
ison
Ã¼tze
Ġverdient
Ġspanischen
Mill
ĠZerst
Ġunterscheiden
Ġtat
Ġverstehe
kul
etern
ĠBio
Ã¶ck
ĠZeug
Hoch
ban
Ġangelegt
ĠKÃ¶lner
ĠKamera
ĠnÃ¶rdlichen
ione
empf
mÃ¤ÃŁigen
okraten
Ed
onenten
Ġmeines
ĠAlpen
statter
ĠLink
Ġgeschehen
Ġinformiert
ĠHERR
fh
mach
ĠBinnenmarkt
ĠgenÃ¼
ĠAngeles
ĠWahlen
ĠPlatten
ĠgewÃ¶hn
ices
ĠjÃ¼ngsten
ĠTelek
ĠGefangen
Ã¤udes
ĠFormel
Stat
ĠWappen
ĠBundesregierung
ktivitÃ¤t
ido
Ã¶gel
ĠRiesen
IK
ĠAusfuhr
Ġverteilt
gebnis
Vol
Ġendet
Art
ĠSus
boden
Trainer
atch
rufen
Ġkap
Ġport
ĠGrafen
ĠKapelle
ohne
Ġgestaltet
uns
kreuz
direktor
ahme
ĠPrag
problem
Andere
ĠAmerican
ifferenz
ĠDonald
ĠBrandenburg
Ġerwarb
teuer
Ġteils
angebot
pekt
Hein
ĠUfer
Ġbesetzt
ĠBotschaft
????
ĠerzÃ¤hlen
Fran
zene
Wil
lassung
ault
Ġ57
ĠRumÃ¤n
Ġleist
mod
geblich
ĠUmfeld
ĠMaschine
har
geleitet
RW
Fre
Ġhinten
Forts
Mai
schu
Ġberech
ĠBereit
ĠPolizisten
Â®
ĠHaltung
Mont
Do
Ġbeziehen
ĠVorgehen
ĠWebseite
ĠPosten
lichem
quenz
ĠMethode
Ġ1951
ĠKÃ¼r
Ã¤mpft
Ġums
Gesamt
ĠInnovation
ĠaufgefÃ¼hrt
Ġbayer
bÃ¼rgermeister
Ġhundert
ĠergÃ¤nzt
Ġpraktisch
vater
ĠSeg
Ġbetween
ublic
Bed
Ġmei
ĠKriterien
ĠursprÃ¼nglichen
ĠschlieÃŁt
Ã¤ngerung
Ġattra
ĠSaal
ĠNieders
ique
ĠJubil
Ġabgest
Tag
anteil
spiegel
ĠUmgang
reift
1996
stedt
Ġauseinander
ĠAnder
Ġeigener
Ġstrate
Ġass
ova
zwungen
ĠObjekt
Äĩ
bund
aux
ĠfrÃ¼here
gemÃ¤ÃŁ
Ġperfekt
Ġalter
Frau
ĠSowjetunion
";
Ġentschied
reicher
ĠNet
Ġeinfache
Wissen
ĠpreuÃŁ
Ġbot
ĠVereinbarung
Bist
ĠNeue
Entschuld
ologisch
ĠKonzentr
ĠKenntnis
Ġgeg
Innen
zahlung
irektion
ĠFrance
aft
ĠGroup
ĠBrasilien
aker
ĠSchlafzimmer
ĠArchiv
ĠSubst
fahrzeuge
nommen
barten
leihen
deutschland
Ġautomatisch
brechen
ĠWell
ĠBÃ¼hnen
yt
ĠSpan
ĠDebÃ¼t
orgungs
ĠTime
riss
ĠKul
Ġoffiziellen
ffizienz
ĠNachmittag
hardt
Nord
Ġerworben
Ġsow
ehens
ĠBegr
Dollar
ĠWunder
ĠEinheiten
gebieten
ĠfÃ¼hlen
ĠAngebote
ieht
ĠStaatsanwaltschaft
ĠDam
Ġeinerseits
zeuger
ĠHey
Ġmobil
position
ABI
lÃ¤ub
san
irr
ĠSchÃ¼tzen
ĠHinweis
rock
organ
rest
ĠBri
Datum
artigen
Ġcal
,...
Ġumgesetzt
ĠDoktor
Ġwelchen
ĠQualifikation
ĠFÃ¼rst
igem
ĠDanke
Daten
modell
ierer
Ġfahr
ilometern
ekte
ĠSenioren
Welche
ĠGoogle
Ġdiejenigen
ĠDetails
tend
Ã¼hungen
ĠStimmung
beu
ĠArbeitslosigkeit
Ġgeschlagen
ĠEinstellung
kshop
ĠsÃ¤mtliche
Ġkleinere
phase
ĠLÃ¤
ĠAbstand
Ġgeschickt
ĠLiebl
MÃ¼n
ĠAben
ĠLeicht
ĠMÃ¼ll
ged
temperatur
ĠOster
indlich
altungs
ĠStatistik
ĠNar
usstsein
rates
Sieg
Ġunterrich
sbach
ĠEuropÃ¤
ĠErmittlungen
ĠDazu
oz
Ġseitdem
Dennoch
ĠHeute
kÃ¶
ship
Ġzugelassen
schwer
ĠgefÃ¶rdert
ĠMerc
ĠstÃ¤rk
ĠGipfel
ĠSn
ĠMatthias
Ã¤mpfe
Ġ1937
ites
ĠMachine
Ġ66
ĠGlei
Ġbedeutend
iffen
ĠAbitur
Ġsowjet
ĠUkraine
Ġpositive
bilden
ĠWohnungs
ĠhÃ¤uf
emp
usch
ĠmÃ¼sste
ques
reien
ĠIdent
Staaten
ĠKalifornien
Ġerled
Ġdurchschnitt
ĠPrakti
rÃ¤nkungen
anke
umenten
ĠExempl
lor
Wen
Ġ1935
ĠRev
ĠSki
ĠVerbreitung
ĠOk
BN
FrÃ¼
ĠLande
eignet
ĠFR
ĠDarlehen
ĠVersicherungs
ĠMun
ĠSchei
oker
Ende
vr
ĠSym
Ġglaubt
ĠKrise
ĠLabor
tretung
img
ĠSiedlung
ĠBrot
Ġvors
sbed
ĠschlÃ¤gt
ĠVerfassungs
ĠDLL
ĠBeratung
ila
Ġspezial
Ġpolitisch
sta
welle
ĠAngeklag
ĠPassag
ĠArn
Arbeits
ĠTÃ¶
ĠNorth
ĠÃľbernahme
mont
ĠVerbindungen
cyclop
straÃŁen
steten
ĠTexte
Mode
tran
mÃ¼
Ġ59
ĠFlÃ¼gel
erz
Ġgehol
ĠMesser
ĠVorstellung
Ã¤rt
ĠStreet
Ġpoten
Ġ58
ĠJon
vg
chef
ĠBeschreibung
ĠBestimmung
Ġ110
ĠZweifel
Mart
Ġstellten
ĠPerspe
ĠMusic
ĠNationalsozial
ieger
histor
ĠAN
Ġsorgte
Ã¤tigte
ĠTennis
egt
ĠAnstieg
onym
Ġleiden
ĠGebiets
Ġintensiv
atal
ĠHouse
1997
Ã¤nderte
ĠTechnologien
ĠGastgeber
Ġbezieht
ĠFestlegung
ĠSchon
John
Ġperfe
Westfalen
hlt
ĠWarum
icro
ĠAtmosphÃ¤re
beam
gerÃ¤t
Arch
Ġgaben
born
ĠSauer
Ġbetroffenen
ĠPen
einheiten
ĠvielfÃ¤l
Ġoffensichtlich
ĠSchau
Ġco
ĠSÃ¼dwesten
leh
sive
Ġidentif
mord
gab
lowakei
Ġned
Ġverlegt
Ġgleicher
korea
Ã¤lter
Name
Ġlaufenden
ĠGroÃŁteil
ĠSeele
becken
zenten
mittler
ĠOrten
Ġspezielle
ĠFabrik
Ġerforderlichen
ĠgrundsÃ¤tzlich
gro
Mark
Sicher
ĠHarmon
Band
ueller
Sk
ÅĻ
gekommen
Ġgesperrt
zentren
Ġderzei
ĠVorstands
ĠKÃ¶
prom
ĠState
ĠLau
Ġgeschafft
Is
Ġdrauf
ript
tial
Ġregionale
ĠFinger
ĠAnk
ernte
ĠIslam
Ġrie
ĠCO
Ġausreichend
Ġparallel
act
epar
EP
ĠRoten
ĠVerfahrens
Ġbezeichnete
ĠArbeitslosen
Ã¼re
ĠRegierungen
oma
Ġfreie
rip
ĠBam
ĠRod
ras
MEN
ĠProdukten
Ġwarst
ĠSS
Ġjener
ĠSchreiben
ĠÃ¤hnliche
wi
ĠSimon
ĠKrÃ¤fte
ĠErschein
ĠAltstadt
ĠÃľbergang
einsatz
Ġverbessert
keln
ĠNordosten
Ġrechte
nimmt
ĠErrichtung
Ġdarstellen
ĠStadion
ĠMotiv
ofs
irl
lied
ĠzurÃ¼ckzu
Sav
Ã¤testens
ilian
Ġ61
ĠDampf
ĠBos
beauftrag
scha
Hand
stad
ĠungewÃ¶hn
achter
brig
fleisch
ĠMittelalter
ĠFiguren
rÃ¤nken
ĠAnpassung
Ġperson
Zimmer
ĠspÃ¤ten
idar
Ġwichtigste
stimmung
ĠProgramms
ĠÃ¼bernimmt
gol
Ġregul
Ġjemanden
ĠVersorgung
ehlung
ĠpersÃ¶nliche
Typ
rÃ¤nke
Ġ1900
sver
iertes
ualisierung
Ġgeraten
bit
umor
Nor
Ġbeinhal
ĠNews
ĠausfÃ¼hr
agentur
Ġstolz
ofer
ĠHerkunft
Ġverbindet
fangs
geordnet
ĠSyrien
Ġbeitragen
setzte
landes
Einer
stab
ĠSchreib
worfen
Go
vs
Ġliefern
ĠSto
Ġgesucht
Ġorden
Ġniedriger
MÃ¤rz
asi
ĠSpur
Ġgelegenen
Ġklassischen
usÃ¤tzlich
ĠrÃ¤um
ĠKreu
1995
ĠGÃ¶t
Ġri
Ġevent
Gel
ĠkÃ¶rper
ierre
ĠSin
Mittel
etik
deutsch
ĠMotto
ĠBundesstaat
ĠSanierung
organisationen
ĠSmart
ĠmÃ¤ch
ĠGrÃ¼nder
ugos
Unternehmen
cyclopedia
=>
Ġentlassen
usse
ĠWegen
ĠFÃ¼hrungs
ĠBreite
ĠDad
Ġfrem
freiheit
Ġbenutzen
Ġreal
Ġ>>
ĠVerfassung
stunden
Ġzentralen
ĠInstall
Ġvorbereitet
ĠgewÃ¤hrt
rainer
ĠErwart
viertel
ĠVielfalt
Ġmittleren
Ġkatholischen
ĠBlau
Ġabges
Ġgewisse
ĠSerien
ĠKanzler
Ġjur
ĠFaktoren
kop
strom
phen
ppel
besitz
Ġdringend
Ġdefiniert
ĠEigentÃ¼mer
ĠMeg
ĠTax
blÃ¤tter
ĠTode
ĠArz
ids
ĠStraÃŁ
ĠLine
Ġweisen
ĠgefÃ¤llt
ĠrÃ¼
Ġwechseln
ĠKrie
klÃ¤rt
Ġausgeschlossen
ĠGeschÃ¤fte
Ġzentrale
ĠErfolge
::
Ġwelchem
Ġpri
gau
kin
Ġgemel
herren
ĠWasch
ĠChristus
ĠWeltkriegs
ĠWissenschaftler
ĠEier
Ã¤chsischen
ehend
Ġ76
Dir
ĠBetrag
fm
ĠTrag
ommern
Ġwissenschaftliche
deckung
Ġweshalb
schrank
VER
Ġhandeln
ĠAhnung
ĠSG
ĠRestaurants
ĠLehre
Ġ89
ĠFortschritte
systems
ĠTirol
bedarf
spartner
ĠForscher
ĠDurchmesser
dh
ĠErste
Ġumstritten
ĠFigur
Ġlock
ĠSur
ĠLandrat
grÃ¶ÃŁe
ĠvorÃ¼ber
Ġleitet
ĠBan
Ġkombin
schÃ¶pf
Ġbeant
Ġleichter
chron
ĠEishockey
krÃ¤ften
artikel
bm
Ä±
ĠStaates
afe
lebnis
ĠHektar
Ã¼hrt
Ã¤lde
Ġ1914
ĠabhÃ¤ngig
ĠKOM
Ġkritisiert
ĠKontroll
col
Ã¤mpfer
ĠHeidel
gst
ĠSchauspielerin
jew
ĠBehÃ¶rde
Ġohn
produkte
ĠZustÃ¤nd
bahnen
Ġdurfte
Ġgriechischen
ĠKonflik
platte
Ġbeobachtet
Ġrasch
Ġ88
ĠgewÃ¤hrleisten
ĠGymnasium
Ã¼ckt
ĠendgÃ¼ltig
Ġgefordert
kunden
Ġitalienische
ĠSchÃ¤den
Ã¤b
Ġeindeutig
Ġgros
Mag
ctually
ĠzugÃ¤nglich
ĠAmster
ĠHerausforderung
Ġjedenfalls
ĠMillion
mie
ĠkÃ¼mmer
ĠNeum
ĠProtest
urteilung
ĠAdresse
einhalb
Ġgestiegen
ĠHorst
sr
pla
ĠPferde
Folgende
Ġpassieren
urnier
stil
Ġdauert
asp
marsch
Ġspielten
kolle
ĠflieÃŁt
unschwei
ĠGeschichten
Ġbeobachten
ĠÃľberra
eihe
ĠPreisen
Ġgren
ĠVerÃ¶ffentlichungen
Ġletztlich
Ã¼rzt
Ġfreut
ario
Ġ1928
schicht
ska
ĠÃ¶k
ĠFÃ¼rsten
spartei
ĠDÃ©partement
ĠWiederauf
ĠFÃ¤higkeiten
esp
Nichts
Ġunteren
ĠSchneider
ĠLig
druckt
ĠTextil
ĠDonau
Ġinfolge
ĠHill
metho
encyclopedia
Mer
ĠbloÃŁ
Ġactually
Ġanalys
ĠausgefÃ¼hrt
ava
groÃŁ
ilber
Ġdirekten
Li
reen
Ġgo
ĠFreunden
ĠgÃ¼l
ĠGewÃ¤sser
ordnungen
izit
Ġupdated
ĠMaÃŁnahme
Ã¼mmern
Bew
ĠOrtschaft
Ġdirekte
ĠMitarbeitern
Ġ63
ĠSor
hÃ¤usern
Ġferner
Prof
beginn
Platz
ĠBrust
ĠOut
ĠKle
Ġempfehlen
ĠHochzeit
eintrÃ¤ch
tretern
ĠTerrasse
Ġdiskutiert
Ġ(+
ĠChemie
illon
Ġ93
Ġschlagen
ĠStatist
Ġdarstellt
ilien
Jahren
Ġberuflichen
utin
Ġeffe
Ġ1929
ieds
ĠLit
Ġhell
ĠAuflÃ¶sung
Ol
ĠEinnahmen
pre
ĠangekÃ¼ndigt
sieht
Ġsauber
Ġgrundlegen
ĠWLAN
Apr
2017
Ġol
ĠTrainings
ĠJud
ĠArmen
Ġnde
gehÃ¶r
Ġ81
./
lieger
bara
ĠOpposition
prof
ĠUniversitÃ¤ten
Rad
linder
schreiten
lenburg
Ġpasst
gegangen
ĠBibliothek
ĠFritz
Ã¼cksichtigung
ĠTouristen
lÃ¤ufer
Ġ68
lichung
Ġzit
Ã¶rungen
lÃ¤ufig
ĠGesell
cience
Gi
ieb
zeln
ĠJournalisten
weiler
ĠCH
ĠKing
ĠArbeitsplÃ¤tze
ĠInsgesamt
bell
utn
ĠWit
Ġstaatliche
ĠModern
ACH
ĠErinnerung
Ġteilen
ĠInf
ĠSchnell
verbandes
erto
Ġ1932
ĠSpenden
Ġmaps
ĠKonflikt
kommission
Ġgegebenen
Ã¼bt
Ġ700
gy
zelt
ĠCarol
IF
ĠDVD
rint
ĠSchwimm
ĠjÃ¼dischen
ĠRoyal
Ġee
ringe
obert
zeugnissen
ommerzie
ĠTrotz
ĠÂ¡
genÃ¶ss
ialen
igner
ĠBekÃ¤mpfung
aria
ĠSchuss
hause
Ġbeige
Ġerlebt
Ġbegeg
ĠWaffe
ĠNoch
Ġmaximal
ĠWeiÃŁen
okus
hers
ĠBilanz
Ġnei
Ġanger
sey
Ġamerikanische
ritor
schlÃ¤gen
sprachigen
ĠAufgrund
ĠLÃ¶wen
gelegen
ummern
ĠhÃ¶rt
testen
ĠFreien
ĠClau
KT
Jahre
schungen
ĠMuster
Ġnehme
Ã¶re
ĠBIP
ĠTheorie
akteur
anzeigen
Ġinklusive
ĠbeschÃ¤ftig
liver
ĠÃĦrzte
iedelt
Ġjo
lexib
link
assungen
grenz
ĠPots
ĠDienstleistungs
ĠJahrzehnten
ĠSchritte
stufe
ardin
Ġphys
antrÃ¤ge
ĠPfar
Ġgefeiert
Ġeure
EICH
ĠProblemen
ĠGesetzes
hÃ¤ndler
gal
ĠStates
menge
Ġkurzer
Dok
Ġnatur
fahrzeug
ĠKim
Ġcalendar
Ġhoffen
Ġangeschlossen
ĠSound
ĠAnbieter
bc
ize
ĠGesprÃ¤che
Ġedn
ĠForum
Famil
ĠErb
Ġrussische
,-
ĠBedien
let
Location
Ġok
Ã¤ÃŁ
ĠUni
ĠErhÃ¶hung
ĠEreignisse
ĠFassung
ĠBÃ¤ume
oppen
gelÃ¤nde
sens
ĠPolit
ĠWeltmeister
fÃ¼llt
Ã¤tigung
wahr
Ġ99
athar
amerikanische
edition
ĠLib
ĠHome
Meister
luss
ĠCr
ĠaufgelÃ¶st
sicherheit
ĠEvent
]]>
quellen
Ġbestehende
Ġlagen
ayern
Ġerstreckt
ĠBulgar
Ġcraw
ĠGri
ĠKlage
Ġ62
ĠMitteln
ĠAngelegenheiten
folgenden
Ġfordern
ĠNordwesten
sberg
Ġdne
Ġmet
Ġdemnach
Ġsu
def
ĠTank
ĠAllgemeinen
Ġgleichnamigen
ĠWayback
ĠAntworten
Ġangen
Tr
Ġfung
Bi
ĠÃ¤lteste
heil
Ã¼ndnis
September
Ġcrawled
ĠwÃ¤chst
Ġanerkannt
schrau
lefon
Michael
ĠSymbol
Ġ69
pflege
hab
sthe
esa
Dien
Ġbetrieb
Ġgeplan
ĠSongs
Ġhochwer
Ġachten
Film
ĠKommunal
Tour
Ġ77
ador
ehle
Ġmenschlichen
Ã¼tt
Zwar
ĠMainz
polizei
ĠÃĦgypten
ining
cas
Ġkrank
ĠRudolf
Ġmitge
thm
Ġpart
Gu
ĠMaÃŁe
ĠHorn
ĠBusiness
Ġkostet
ĠTsch
ĠDurchschnitt
motor
Ã©e
ĠMarch
ĠMengen
icago
ĠgeschÃ¼tzt
ĠnatÃ¼rlichen
ĠExistenz
Ġdeswegen
ĠEnsem
ungsver
ĠFriedens
Ã¤llig
Ġoptim
sÃ¤tzen
odor
Ġkonst
ĠAbwehr
reihe
ĠDirekt
ĠDef
hten
ĠGemeinsamen
Ġspann
oÃŁen
isl
Ã¼lern
ĠNordrhein
ĠkÃ¼mmern
ĠJahrz
ietung
bestand
bÃ¼ro
Ġpe
Amer
Bau
ĠSpuren
schreiben
enkorb
ainer
ĠHochschul
ĠCoun
ĠMaterialien
Ġbestimmen
ilitÃ¤t
Ã¼rmer
ror
auft
ĠBass
ĠLeuten
ĠElisabeth
ĠFrankfurter
sd
keptic
ĠVictor
zepte
Ġbehalten
mauer
Ġ78
ML
Ġanf
Falls
Ġmanche
orenz
ĠVerwand
ĠSchatten
Mal
undet
ĠkrÃ¤f
Ã¼chte
irch
Finanz
]=>
Ġgefl
lar
ĠKathol
rr
Ġkanad
ĠSuch
ĠSÃ¼dosten
Ġstartet
Ġehrenamt
lse
ĠRab
ĠAnwalt
ĠGegenstand
Ġinformieren
Ġ67
Ġentf
ĠZit
ituationen
spannung
ogan
version
gener
ĠMarketing
ĠWÃ¤rme
Ġye
Ġvari
Ġbill
Ġsofern
Ġschlimm
atri
ĠVerteidigung
bÃ¼cher
Ġfroh
ero
streit
ĠWart
heute
Ġunterst
ĠEM
Kan
ĠBalkon
ĠAllerdings
tax
var
isc
Ġbesseren
Ġits
hauer
isser
ĠArmut
bald
ĠBerÃ¼cksichtigung
ĠAndr
ĠZy
Ã¼tten
1993
ĠNationalmannschaft
krise
Ġenger
ĠzusÃ¤tzlichen
Ãº
Ġsichern
medaille
ĠgefÃ¤hrlich
iation
thur
ĠverrÃ¼ckt
Ġexistiert
-)
ĠAbstieg
geschwindigkeit
ĠQuartal
***
ĠMwSt
ĠWende
ĠÃ¼brigens
Zug
ĠweiÃŁen
atom
jan
schÃ¤d
demokrat
ĠBasel
Ġsk
Ġsign
ĠDiplom
ĠHas
1990
Ã£o
wann
Klasse
ĠErhebung
acker
ĠRÃ¤ume
schnittlich
Ġpo
ĠZentimeter
holung
MÃ¶
real
ĠBerichte
lowen
ĠGefÃ¼
lÃ¤nge
ĠHerausforderungen
ministerin
keten
ĠAachen
ĠEurostat
1992
Ac
ĠÃ¼berzeugen
ĠÃľbersetzung
ĠSem
ĠFu
ĠBetroffen
ĠVorbild
ĠElement
ĠKohlen
box
genossen
chtung
ĠWeiteren
ĠÃ¤ltere
ĠfÃ¼nften
Ġbegrenzt
PP
Ġdok
tal
ehlungen
ĠQue
ĠMechan
ĠTemperaturen
ĠKapitÃ¤n
ĠAusstattung
ĠRumÃ¤nien
Ġoffizielle
ktieren
Gemeinsam
Ġaktiven
ĠMir
lav
ĠVerpflichtung
ĠBemÃ¼hungen
ĠDing
ĠVereinigung
Ġbezahlt
skeptic
Zun
Ġac
zgl
Ġlebend
DA
osta
wanderung
Ġ86
sprachen
Wann
ĠTausende
Staat
Ġsichtbar
alit
verd
ĠGemÃ¼se
ĠSatell
ĠEdel
ĠBerech
Ġangewand
gefunden
ĠTwitter
iety
ettel
ĠVerletzungen
ĠMarine
ĠAuflage
uminium
dreht
Ġbeherr
Ġapp
sson
ĠGust
halter
ĠHalte
ĠÂ§
++
arif
Ġunterhalb
ammern
ĠMittag
ĠAssoc
Ġerfolgreichen
ĠUrsache
morgen
Ġ1925
klang
sphase
kette
mith
ĠgegrÃ¼ndeten
Ġten
Ġumben
ĠSchnee
International
ĠMuseums
Ġrechnen
ĠStrei
Ġfinanziell
TH
atien
ĠVerlÃ¤ngerung
Ġaltern
ĠKÃ¶nigin
Ġ->
iene
ĠForderungen
ĠApartment
ĠHab
antie
ardo
kete
ĠEcke
ĠFDP
yk
indungs
wachsen
Ġbitten
Kom
splatz
Wird
lech
ĠNaz
ĠBetracht
ĠSanta
ĠInstrumente
Ġverlangt
ĠStift
oter
ĠDES
Ins
rechnung
ianischen
Ġverabschiedet
Ġdurchs
oler
offiz
Ġschicken
samt
Ġeinfachen
ladung
Ġabsolut
ĠWesen
Ġeb
ĠModelle
Ġchinesischen
Ġdurchge
Ġ130
ĠTun
Institut
ĠGanz
put
ĠEinige
fal
BS
Ġwohnen
witz
Ã¶die
fels
acken
Ġmitten
kÃ¼ste
ĠHals
Pap
ĠGouverne
fahrten
Ġhinweg
Ġ79
Ġkleineren
ĠWeihnachten
ĠAsien
ĠfÃ¼rs
Ġproblem
Fried
Ġvorgesehenen
Ã¤umt
etaill
ĠBeispiele
Ġhalt
gische
ĠRohr
ĠOrchester
Ġà¸Ģ
ĠKonsequ
verk
ĠFakult
Ġgebeten
ĠErzÃ¤hl
ĠKMU
ziel
Ġgolden
kandid
Ta
ĠBeste
ĠÃľberwachung
Ġ(,
alscience
gast
0000
Hinter
skepticalscience
Ġberufliche
Ġwies
ĠTit
ĠSpiegel
Ġbeteiligten
ĠWÃ¤hler
ĠEntfernung
Ġbasiert
ĠAbkommens
eng
ĠLust
portal
weiÃŁ
ĠUlrich
ĠEntsteh
ypen
Ġfinanziert
KW
Ġsc
Ġreduziert
ĠHallen
beteil
ĠCompany
gesprÃ¤
Ġvoran
Ġschlechte
sonsten
Ġabgegeben
Hans
mond
behÃ¶rden
ĠOrtes
ativer
Ġlanger
ĠDisziplin
Ãļ
initi
Ġdavor
ops
ypages
HÃ¶
field
Ġeu
ding
Ġzeigten
GR
ĠAmsterdam
Ġ1924
ĠAblauf
Ele
Ġago
samkeit
ausstellung
ilde
ronen
URL
Ġgenannte
Ġjapanischen
ves
Dienst
ĠBR
Ġexpl
ĠGrundsatz
Ġzogen
Ġgewal
Ġliefer
ĠErl
Dank
mir
Ġmod
Rat
ĠÃ¼berprÃ¼
ĠAnaly
ĠGrÃ¼ndungs
ĠBraunschwei
ĠKrist
verbot
Prozent
ĠRÃ¼ckgang
ehin
Ġholte
ĠOberflÃ¤che
ĠFreiwill
tec
Jose
ĠPlast
gier
Ġrief
lieÃŁen
lieb
sdorf
Ã©s
Saved
Ġgeplante
ĠRal
irbt
ĠInhalte
ĠRenten
Januar
azif
ĠFilms
FuÃŁball
ĠEuropameister
Ġdro
bilanz
ĠInstitute
ĠHinsicht
ĠVik
schnitte
ĠAussagen
Ġberaten
aa
ĠWagner
ĠHaushalte
ĠGetreide
Ort
ĠAufsichts
ĠStaatsb
kriegs
ĠLandschafts
austausch
ĠDefinition
Ġkeines
ĠHÃ¤nden
liehen
aktor
ira
ĠSender
Ġlandwirtschaftlichen
Ġtrinken
terne
achs
Ġmul
Ġerlassen
Wieder
ĠBernhard
osa
ĠER
Ġbewegt
ĠAmtszeit
Ã«
ĠDarÃ¼ber
ĠSumme
ĠKontakte
onne
Gerade
ĠMÃ¤
pal
igin
mÃ¼hle
ĠAlli
spur
ĠPS
ĠErkrank
Jugend
ĠÃ¼bergeben
ĠKost
spitze
ĠChampions
Ġ%)
sbruck
ĠLeder
1991
ĠJoachim
Lesen
ĠPy
otter
Ġbreiten
Ġerlang
ĠtatsÃ¤ch
ĠBeton
wettbewerb
ĠTempel
Ġbundes
ĠÃ¶rtlichen
ĠWarenkorb
ource
ete
Ġ1927
ĠÃľberblick
ĠhÃ¶chst
einkommen
fahrts
Ġbegeistert
ĠNiedersachsen
ĠTob
ĠGriff
eo
Ãª
isation
As
lebte
Ġstation
ĠSchild
ĠHÃ¶hepunkt
ĠReligion
Ġschen
tinuier
ĠStÃ¤rke
ĠStephan
Ã¼stet
Serie
ĠEinfl
Ġdest
frÃ¼
Ġ84
wes
ĠSaudi
agra
arriere
vorsitzender
ĠNikol
entin
Ã¶rg
ĠFrist
Ġ1910
ĠMini
wein
Ġmehrerer
ternet
ĠBerater
ianer
ĠMedik
Ġnominiert
Ġgerufen
ĠAthen
Ġwartet
ĠUnabhÃ¤ngigkeit
ĠHenry
ious
ĠAbsicht
ĠBruch
ebel
ĠFeier
andal
ĠWerken
folgung
ĠHeinz
Ġnotwendigen
ĠSprech
riel
bein
Ġfeierte
ĠJerus
Ġjeg
ĠKohl
ĠLizenz
ĠGrem
ĠSchluÃŁ
ĠDownload
geworfen
wohnungen
ĠLatein
ĠfÃ¼hrenden
lichten
ĠProjekten
ĠVit
Kat
Ġ71
berat
ĠunmÃ¶glich
Ġdenkt
ĠEnglish
Ġ73
ĠZwecke
ĠWeib
fÃ¤llig
ragende
inkl
unfall
ĠBeide
ĠArab
ĠMarien
Port
Ġvorhandenen
ĠKino
bÃ¶
Ġstre
alth
Ġsuper
ĠSignal
fÃ¤llt
ĠMarie
ĠSig
Ġplatz
Italien
Ġermor
Ġmelden
ĠOperation
ĠGreen
Ġkontinuier
Ġpolnischen
ĠLaw
nacht
wid
onsult
ami
riften
Ġversteht
Willst
Ġschafft
Ġbegannen
ĠAlltag
ĠstÃ¤dtischen
BE
ĠCy
hythm
ĠAlfred
wortet
ĠSchleswig
ĠGesang
ĠEmil
ĠBig
Ġsepar
ĠSchach
ĠkÃ¼ndigte
ĠZÃ¼ge
ĠÃ¼bert
Ġgefahren
ĠÃ¶stlichen
bergen
Home
range
drÃ¼ckt
ĠUmstÃ¤nden
ĠBerge
Ġviews
ĠSÃ¼dafrika
Ġuntergebracht
ĠAKP
antast
Frauen
Ã¤uden
linger
ĠVorsitzenden
ĠMenschenrechte
ĠST
ĠDokumente
abet
ĠAufnahmen
ĠZurÃ¼ck
ourt
wendet
ĠKok
unen
ĠKabin
ĠWeber
ungsverfahren
Ġverwendeten
ĠChin
ĠverÃ¤ndern
Ġangebracht
Bad
Bra
Ġwiederholt
steine
Ġausgesch
junkt
ĠZe
ĠBogen
ĠbenÃ¶tigen
ĠTick
ĠSchulden
ĠRats
eichert
Ġschauen
ĠMinisterprÃ¤sident
ĠBein
Ġhierbei
ĠGeburts
fg
ĠLeser
Ġbeauf
Ã¨re
ĠEintritt
spolit
Ġkommerzie
ĠKlar
vern
ĠCamping
ĠInitiativen
Ġdunkel
ĠGerhard
iro
ĠRegensburg
engl
ĠSchlei
Ġbeinhaltet
ĠgeprÃ¼ft
Ġabgelehnt
ĠUmbau
246
ĠFab
Ġmut
fÃ¼llung
ĠAnwendungen
atorium
ĠanschlieÃŁ
ui
sum
ĠRechnungs
ussia
gei
ĠnÃ¤chst
)-
Ã¼bung
ektak
ĠHandy
KOM
ĠEmm
verlag
Ġstren
ĠerÃ¶ffnete
KÃ¶nig
Blei
td
Ġsteiger
Alex
ĠMedia
abrÃ¼ck
ĠJesu
ĠJÃ¤ger
Ġgewissen
EMEIN
Ġ1923
eed
ĠPrÃ¤sidentin
ĠÃĩÃ¡Ã
ĠRh
play
cer
ĠKomposition
alo
ĠRauch
laubnis
ĠFunk
ĠWachstums
Sow
ĠAussprache
sende
ĠhÃ¤ngen
ĠRepar
Ġbreite
Ġgestalten
ĠMannes
Ã¶te
Ġpr
ĠTexas
chtet
front
echtigkeit
ĠNutzen
Ġien
kamp
Vorschlag
Ġdat
teste
Ġbezogen
ĠFan
Ġaufnehmen
ĠtÃ¼rkischen
amente
ĠkÃ¼nst
Ġspeziellen
Ġ180
Ġlust
betrag
ĠausdrÃ¼cklich
Ġausgesetzt
achstum
Ġdomin
ĠVertrieb
imp
Region
strecken
ĠPositionen
Ġinteressant
Ġgesamm
ĠMary
eprÃ¤sident
ĠGÃ¤sten
ĠEll
oro
ĠArgentin
ufa
ĠGramm
NL
ĠVersch
Ġlog
Ã¤tte
gestellten
Ġbeur
Ġhandelte
ĠVerarbeitung
acke
Gehen
Ġanbieten
ĠBauer
Ġisrael
ĠdÃ¼n
Titel
xx
Ġ101
................................
Ġover
mil
OC
ĠSendung
ĠReh
ĠHallo
arma
ĠDrehbuch
ĠVerbrechen
ĠenttÃ¤u
fanter
ĠWeltkrieges
ĠPir
meier
arbeitete
stechnik
sender
apel
ĠStellvertreter
treffen
ausgaben
Ġ98
eman
ĠeuropÃ¤ischer
itation
ĠVorsitz
innung
aturen
ĠBronze
ĠHell
ĠInternationale
April
Ter
ĠBerichterstatter
ĠGolden
ĠLernen
Versand
Ġbeachten
Ġ1921
ĠverlÃ¤ngert
ulierung
Sen
ĠFremd
ĠBell
ĠAngela
Ġverhaf
ĠKabel
Ġzus
itzung
vorhaben
ĠErgÃ¤n
Ġlangfrist
ĠDFB
Ġgewinnt
ĠVerpflichtungen
dinand
Ġerfolgreiche
Pass
Ġverfolgen
rÃ¤der
Ġ1931
asc
Ġroten
ronik
EF
Ã¶z
Sei
AUS
ĠIl
ĠAnlass
ĠWÃ¼n
ĠKoll
andern
loser
Ġsteuer
ĠFonds
ulpt
ople
ĠPra
ĠAlternative
ĠMinisterium
ĠUmweltschutz
abgeord
Jahrhundert
ĠVertrÃ¤ge
geboren
zentrums
Ġeen
ĠStÃ¼cke
ĠLag
ĠKommand
ĠKerl
ĠbeschrÃ¤nkt
Jo
Ġnutzt
Ġvorwiegend
ĠfranzÃ¶sischer
Person
ĠBasket
ĠWÃ¼rz
ĠlÃ¤ndlichen
Ã¤nomen
zusehen
ĠWare
Ġ91
ĠChicago
start
sert
medizin
Ġ1926
ĠRub
ĠMagde
Ġhas
sches
Ġzugeordnet
Ġvorliegenden
Ġnationaler
klassen
ĠPrinz
ĠGroÃŁe
Tor
ili
schlÃ¼sse
Ġdortigen
ĠBrutt
Super
board
hes
Leben
Ġkre
ĠKader
Ġnunmehr
ĠhierfÃ¼r
ĠFrucht
ĠMotorrad
Ha
ason
Ġausgebaut
spezif
Ġerzielen
ĠWellen
issionen
Ġ74
ĠForts
Ġmittelalter
igtes
ĠKG
Ã¶pfe
werfen
ĠBaut
ÃĩÃ¡Ã
Rechts
freie
ĠEUROP
Frankreich
Ġexistieren
ĠDiet
Ã¶nt
Ġbestritt
Ġfliegen
ĠOx
Verd
ĠGefahren
richen
Ġvielmehr
snabrÃ¼ck
Ġklingt
stÃ¤
Ġgefangen
ĠAltar
uchtung
athon
ĠauÃŁergewÃ¶hn
ĠMid
BR
ĠOctober
Ġverursacht
Ġverhindert
block
Gleichzeitig
arda
Ġinternationaler
ĠEW
Ġleiten
Ġlive
Ġderselben
ugies
oni
Ġhalte
Â³
odes
henden
Plan
EST
schauen
ĠStadtrat
Ġfa
ĠElf
nie
Ġost
ĠBesetzung
ĠZauber
Ã¼g
Ġvorliegen
ĠISBN
Ġunglaub
ĠKontra
umer
ĠVerteidigungs
ĠWÃ¤l
Ġfamil
Ġmanchen
Ġ94
strahlung
Ġoffene
Ġserv
ĠKÃ¼n
ĠbesaÃŁ
ĠOnkel
You
ĠOberst
edoch
ĠberÃ¼cksichtigen
zeÃŁ
300
ĠSchicksal
ĠGrÃ¶ÃŁen
waffen
ĠEast
ĠAppar
Lassen
Ġtour
Ġentwickelten
ĠTau
Ġunklar
Wind
Ġkeinem
laut
ĠKel
ĠselbstÃ¤nd
ĠMonats
zustand
ĠForderung
Ġnett
krank
Ġkulturellen
boot
Ġprodu
ĠbestÃ¤tigte
Ġschwarzen
Ġtotal
fenster
Ġbeider
Ġhn
ĠViele
ĠTen
rÃ¤glich
Ġ1912
kathol
ĠkÃ¼rzlich
ĠdÃ¼rften
ĠBetreiber
ĠWerbung
ĠrÃ¶mischen
Ġbaute
Ð°
Ġgezwungen
ĠEdu
renten
owa
llte
Dezember
nor
Ġaufeinander
ĠErwachsenen
ĠAktualisierung
Ġ82
kam
Bericht
Ġ1922
scar
reibungen
cH
ĠBob
mas
Ġdetaill
rugen
izont
kontrolle
Ġirgendwie
ĵÃĩ
Ġmitteilte
ĠkÃ¶nig
ĠansÃ¤ss
pat
ĠausgewÃ¤hlt
't
ĠFell
Ã·
hielt
nachmittag
Ã¶h
Ġdokumen
lÃ¼ck
Ġbewir
ĠIndivid
Ġteilt
ĠSchÃ¼lern
Ġgefolgt
ĠBrÃ¼cken
archiv
ĠprÃ¤sentieren
ÃļÃī
Ġ87
ĠFremden
ĠMalt
ĠRisiken
Ġgeschieht
hersteller
bg
Ġbestanden
ĠSeehofer
ĠSpeicher
ĤÃ¤
ĠFro
ĵÃĩÃļÃī
ĠÃĩÃ¡ÃĤÃ¤
Jedes
ÃĩÃ¡ÃĵÃĩÃļÃī
ĠPast
vorstand
pass
ĠVereinten
ĠWerkzeug
ĠNachfolge
Gute
bour
agte
ZunÃ¤chst
ingst
ĠRundfunk
Ġcharakter
ariat
album
Ġschul
ĠBayerischen
ĠFlag
teilungen
urcht
osse
mung
Ġklicken
Ġwenden
ivals
ĠDaneben
ĠThu
rahmen
Ġsicherlich
ĠRealitÃ¤t
Ġbefind
Ġwillkommen
ĠNation
Ġgelassen
ĠbeschÃ¤digt
Ġausgesprochen
ĠBeihilfe
ackt
nachrichten
Park
Ġgehei
Ġeingetragen
ĠWÃ¤hrung
ektrum
ickte
ĠBahnstrecke
Ġvollkommen
ides
Ġerzeugt
Ġsteckt
Ġrelev
Ġkenn
regen
ĠHalbfinale
ĠKrebs
Startseite
obel
ĠlÃ¤ÃŁt
ĠFokus
fÃ¤ll
rÃ¤cht
Ġgemeldet
Ġschuld
rond
ĠRheinland
Ġbelieb
Ġbrachten
Offen
ĠfÃ¼hlt
Fil
files
ĠZell
ĠBeck
ĠWesent
Ġtraten
steuerung
Ġerkannt
Ġeingest
Ġverbringen
ĠÃ¤ltesten
Tabelle
Ġumbenannt
Statt
jahren
Ġgeriet
voh
Ġerreichten
weichen
macher
imeter
quelle
1989
bh
bereichen
FFFF
Ġintegriert
ĠDemonstr
ĠJens
Ġnd
fÃ¶rderung
bauung
ĠLaufbahn
Ġ350
Ã¼ben
ĠAusfÃ¼hrung
tirol
ehrer
dorfer
Paul
ĠEuropean
Ġsammeln
General
ĠKard
Ġdritt
ĠLern
Ġausgewiesen
Ġerlauben
ĠLoch
Ġschlafen
ĠIdentitÃ¤t
ĠLokal
Ġklare
ĠBremer
Ġangezeigt
Ġkonstru
ĠLiv
Ġniedrig
Ġpopul
ĠSchal
ĠVerletzung
Ġvertrat
Ġnochmals
ĠBrie
ĠAff
tracht
Ġbesei
ĠVersammlung
nur
ĠKalk
ĠStandpunkt
ĠHyp
fot
Ġkonserv
Geht
zÃ¤hlung
flÃ¼ge
bÃ¤
beln
Ã¼ne
ĠOt
Dam
ence
ĠDusche
ĠKonstruktion
ĠOrtst
ĠRy
ĠNick
ĠYo
ĠGÃ¶ttingen
ĠTok
Ġ%.
person
tegien
oland
can
ziehungen
wertungen
Ġdamalige
ĠBasketball
Dein
Ġgeringen
ĠgegrÃ¼ndete
stehende
ĠStan
Ġohnehin
ĠRi
Ġstehe
Ġmor
ĠCafÃ©
Ġbrach
ĠPers
ĠOption
legungen
ĠKommentare
ĠEhemann
November
Ġinnen
seln
ĠIC
Ġverstorben
ĠMÃ¼hl
familien
regeln
ĠTypen
Ġeiniges
Dadurch
eiler
PG
Ġzweier
Ġverbinden
ĠPool
Eigentlich
hochschule
aszin
ĠRon
ĠKindergarten
ĠÃĥ
ĠBildern
ĠArznei
bal
ea
MA
Ġord
ĠSchicht
ĠMeck
einigt
assten
Ġempfangen
Ġaktive
institut
uens
kischen
ĠUniversitÃ¤ts
ĠKunststoff
ĠAluminium
ĠnatÃ¼rliche
Ġlass
Ġvierte
Wei
Zul
rg
Ġverkaufte
ĠGegenteil
ĠTagung
Schule
Wirk
Ġechte
Ġentdeck
tex
ĠBenz
verletzung
Schlag
Ġlieb
ĠStoffe
ĠWorkshop
ĠTieren
Ġvorange
uben
ĠAuftakt
ĠBeteiligten
Ġreserv
Ġtschech
ĠMeyer
Ã¤nderung
ĠQuar
ĠVW
verteidiger
ĠVerst
gegnung
Bek
findet
Ġgelingt
ĠWeltmeisterschaft
Holstein
Ġ~
Ġgemessen
mechan
ĠKommunen
Anzeige
ĠHandball
Ġtheoret
ĠDatum
stes
ethe
PR
Ġjunger
Ġurkund
ĠVari
steuropa
ĠGesetze
ugoslaw
Ġfu
tere
Ġteuer
eidung
ĠLew
skon
ĠTunnel
ĠDieter
abschluss
nchen
Ah
kapelle
auschen
ikatoren
konzept
ĠÃľb
ĠHunde
formance
Fraktion
ĠGeschenk
ĠFranzÃ¶sisch
ministrat
enny
ĠArme
ĠGeschmack
ĠRap
Pa
Hi
gibt
eher
ĠKlang
ners
freien
Ġgenaue
BB
Com
Ġkonf
ebene
ĠKÃ¶n
set
Komp
aillen
Ġberichten
ĠKri
Ġnormalen
ĠVerteilung
Ġpubl
nst
ĠEg
ĠEinigung
wechs
Ġschwei
gasse
ĠChristen
Col
ĠsaÃŁ
ĠHammer
Kommt
ĠBrig
Ġvis
ĠOrch
ĠSchall
Ġlatein
sprÃ¼nglich
ĠKompl
ĠErzbischof
ĠVideos
Ã¤tzungen
aue
gesichts
Ġstehenden
Ġschaffte
lehrer
Ġbit
Ġheiligen
ĠSchwein
Richtlinie
ministeriums
ikas
arts
ĠVom
ĠMichel
Karl
ckte
ĠAnzeige
zl
ĠPrÃ¤sent
ĠRostock
ĠDateien
Ġversetzt
Ġerrichten
umpf
Ġrichtet
Ġmittlere
gÃ¤ste
tl
ĠFÃ¤higkeit
Kr
Ġverhaftet
ĠSens
prÃ¤sentanten
ĠSieben
ĠHex
kos
ĠSprung
onomy
Mil
Ġerkenn
ĠNachbarn
ĠAuszeichnung
ĠZeitungen
Wasser
Ġsolltest
Ġ1500
ferenzen
eichern
anna
Ġsparen
Ġgekenn
Ġlokale
pi
feier
weisungen
ĠÃ¼blich
Ã¼rt
ĠInfl
schieÃŁen
Kommen
Ġangeblich
Alt
Ġsahen
sich
Ã¤lt
ĠHass
ĠSteiger
aiser
ĠPin
ĠWeiterbildung
ĠTrocken
Ġlasse
ĠSchieds
ĠEnter
ĠKroatien
ĠKatastrop
ope
sig
ĠBitte
Ġgewid
Ġsolange
ĠOpern
ĠKilometern
fÃ¶rmig
ĠOsnabrÃ¼ck
kinder
maler
ausschuÃŁ
ĠKnochen
ĠAdolf
ĠPreuÃŁen
ĠBadezimmer
ĠAmate
Ġjederzeit
ĠPel
Ġseiten
ĠHeidelberg
sehr
Ġfern
lesen
oul
Ġarbeits
eiÃŁen
ĠGei
Ġgelernt
regelung
vÃ¶lkerung
Ġunterscheidet
ĠRecords
ĠSech
ĠAnne
Ġliefert
ĠspÃ¤tere
Oktober
ĠCam
planung
anie
ĠWahlkreis
ĠWirklichkeit
ĠVariante
reche
ĠEi
word
Ġbetreibt
Ġanhalten
aya
ume
gleichung
ĠLor
ĠRuhestand
ĠHelfer
schaden
epage
Ġout
wissenschaftler
\/
ĠFranzisk
utton
Ġnachgewiesen
Ġwh
ĠSachver
ĠAugenblick
ĠExport
UT
Ġphil
wellen
750
ĠBened
ĠAnf
Ġerfasst
teilten
LÃ¤nder
ather
ĠEmp
kal
Niemand
ĠJerusalem
Juli
Ġbar
baute
schaffung
Ġkonzentrieren
ĠSpark
Ġzust
omer
etze
anta
ĠAbschied
ampe
ĠSpitz
sprungs
ĠOliver
ito
oms
ĠHut
ĠEmpfehlung
ĠGrundlagen
USA
Sehen
âĢł
kanzler
ĠIhres
ictionary
agert
JÃ¤hriger
Ġverliert
ĠNormal
ichtung
werbst
Ġ["
holm
Ġhuman
ĠDur
Stunden
plant
Ġ83
Ġnen
Ġtranspor
Ġ1913
ĠvergrÃ¶ÃŁ
Klar
ities
turm
Ġvergangen
ĠTipp
Ġleer
ĠNun
ĠLiebes
pflanz
ĠWolfs
Ġverbrachte
ĠÃ¼brig
ulieren
ĠKurt
echte
ĠverÃ¶ffentlichten
Ġleichte
ĠPod
eimar
chor
Ġerstellen
Ġanfangs
ĠJunioren
eton
Ġtrafen
ĠTrieb
ĠKategorien
ĠTenden
Ġpositiven
Ost
ĠSul
Ġtiefer
Ġzeitweise
ĠServer
ĠÐ
ĠBrunnen
rÃ¤nkung
Ġprofitieren
Ġnachzu
Ġbeenden
Ġbesonderer
Buch
beziehungen
anbul
ĠApost
ĠNormen
ĠMathematik
Ġtrag
haushalt
Ġenglische
ĠWandel
Ġfunktionieren
Ġarab
Ġgesichert
farben
schiedene
vereinigung
PA
saal
Ã¤g
ĠSeen
ĠbÃ¼rger
olen
Ġverschl
anter
Gib
UF
Å¾
ĠHarry
beruf
gewal
ĠbestÃ¤tigen
ĠVenedig
ĠPilot
akten
Ġergab
ĠBÃ¼rgern
lichkeits
ĠJacob
Ġengagiert
ĠAdels
winkel
ĠSpiels
elles
ĠVereinigte
ÃŃn
Ġfestgenommen
ĠReiter
partei
gott
gewerbe
ĠDynam
Ġ::
ĠKanal
heber
kÃ¶nig
ĠFakultÃ¤t
ĠzÃ¤hlte
ĠBranche
ĠBefrei
ĠSche
ĠGrundschule
Ġdroht
ĠJune
ĠBauch
ĠkÃ¤mpf
ĠLieb
sern
ĠSchr
Alb
Ġverzichten
.;
ĠGebÃ¤udes
ĠLar
ĠTheologie
ccess
ĠGMT
ĠAtem
Ġ1917
ikon
ĠScience
ĠPartnerschaft
kens
PC
ĠShe
VB
amtes
Su
ĠWeltcup
fernen
Ġ900
cho
ĠSpieltag
emand
"]=>
akademie
Ġsad
ĠVerbot
Ġbenachbarten
ĠAbteil
topic
Guten
IEN
mutter
ĠTempo
ĠJÃ¼n
Ġexper
WM
Ġaussehen
"?
Irgend
ĠEta
Ġsobald
ĠfrÃ¼he
Ġbeschleun
ĠGegenwart
fÃ¼g
Ġvorn
ĠRegelungen
issement
ÄĽ
Ã¤chter
Ġkeinerlei
ĠRegister
otiv
Andre
ĠHockey
ĠEner
verbÃ¤nde
ĠPension
Trotzdem
Ġausgerichtet
ablen
Anfang
ments
Ġumfassende
Ġjung
prozess
Ġberuh
ĠVorlage
ĠÃ¼berrascht
ĠQuadratmeter
Thomas
ĠIngenieur
ĠVertretern
ĠspÃ¤testens
otball
Ġschlechter
vorsitzende
Dienstag
Ġgelegentlich
ĠPower
onia
Ġdicht
Ġnormalerweise
ĠgemÃ¼t
ĠBundestag
ĠzurÃ¼ckzufÃ¼hren
Ġgestartet
Ġrt
rikt
prÃ¤sen
Ġausreichen
ĠbefÃ¶rdert
Ġgerettet
ĠSchlÃ¤
ĠStationen
ĠPferd
ml
Ġportugies
ĠKell
ĠDatenschutz
ĠTransfer
hotel
ĠSak
ĠDichter
ĠPremiere
hÃ¶rt
DS
ĠzeitgenÃ¶ss
RF
Ġrn
Ġsiehst
imente
ĠNS
ÃŁer
ĠBedÃ¼rfnisse
ĠKommissar
pÃ¤ck
Ġentdecken
work
ĠSterne
UM
ĠLeop
ĠSociety
hauptstadt
##
Ġgeringe
ĠMoun
ĠFrancisco
ĠExpl
findung
Lu
ĠSec
angel
ĠBefehl
Ġ160
ĠEigentum
ĠÃī
dungs
ventionen
ĠauÃŁerorden
sendung
ĠBetreuung
Gener
ĠBraun
Schwei
ĠTown
ĠDJ
Ġextra
ĠInse
webe
ĠÃ¼berprÃ¼fen
Ġerrichtete
Ġmonat
ĠPanzer
evin
ĠHerbert
ĠBele
Ġeinfacher
berge
ĠEntschlieÃŁung
ĠWirt
ĠUntersuchungs
Ġschuf
ogramm
ĠAdam
ynt
taxonomy
ĠBernd
ĠBlei
ĠEber
Ġreagieren
Ġherrscht
ĠMicro
streifen
Pat
Ġads
ĠSenat
utsch
ĠHelmut
banken
autor
Ġliter
ĠbegrÃ¼ÃŁt
ĠEv
Â¶
ĠMittelfeld
ĠZahlung
Ġ97
analyse
oden
Ġerteilt
ĠHaust
ĠDIE
ĠNRW
ĠBotschafter
ĠanlÃ¤sslich
Ġwon
Â´
ĠgeschÃ¤tzt
Ġsinnvoll
ĠVerpack
ury
Ra
kamer
ĠKub
ĠPatrick
ĠÃ¼berraschend
Martin
pn
Adresse
Ġrichten
Ġgelegene
enkung
Ġsn
ĠCommun
bares
Sn
Fast
ĠLob
Phil
ĠNap
bevÃ¶lkerung
erry
Inhalt
Ġaufgehoben
ffekte
ĠRedaktion
ĠVern
ĠAcker
Gar
atharina
ello
ĠGenerald
bestimmungen
VerÃ¶ffentlich
Ġschwarze
Ã°
cil
Ġeur
ĠMah
ector
tum
hai
Ã¼hrung
lein
ĠTagesordnung
uver
ĠÄ
ĠWirtschaftsgemeinschaft
Lang
ĠBefra
ĠMischung
hÃ¼ter
stÃ¤dter
Ġstimmen
plÃ¤tzen
car
uropÃ¤ischen
erten
Ġscheinen
ĠAbbau
Ġ140
ĠScheiÃŁe
itas
Ener
Ġgebunden
Ġresul
behandlung
ĠJury
alteten
Ġdeb
ĠRespekt
ĠniederlÃ¤ndischen
Ġlernte
ĠCann
Ġmore
Ġ1905
Ġmehrmals
ĠLas
Ġ1911
esn
ovic
ĠHandlung
Fern
Ġrestaur
Ġschied
RÃ¼ck
ĠFutter
ĠFuÃŁgÃ¤nger
ĠTÃ¼ren
pression
Ġkostenlose
ĠTrink
ĠObwohl
sache
glÃ¼ck
spreis
ologien
ĠbetrÃ¤cht
Ġfjo
soft
Ã¤fte
ĠHandwerk
ĠPlattform
Ġverschwunden
gÃ¼ter
graf
kla
drucken
Warte
SCHAF
ĠgroÃŁem
ywood
sprodu
ĠGemÃ¤lde
Ġgrenz
ĠRio
glei
ĠInnsbruck
icc
Ġhierher
ĠAugsburg
ĠKoordinierung
Ġgeleitet
OT
ĠBranchen
ict
Ġpolitischer
Comp
ĠGalerie
ĠAutofahrer
ĠFrÃ¼hl
Ġverwei
ĠKalender
urfÃ¼r
Ġbeliebt
ĠAbschluÃŁ
ĠzulÃ¤ss
sorge
klen
ĠAcadem
Ġabend
Ġwomit
ĠKeine
ĠKindes
ista
Weltmeisterschaft
dia
ĠRegionall
Ġschnelle
azier
Kultur
ĠSankt
GL
ĠhÃ¤ufiger
ĠVorfeld
dehn
Ġ3000
ĠKriminal
ĠgewÃ¤hrleistet
Ġkorre
ĠGau
Tats
ĠGall
ransfer
ĠBeitritt
ĠErwartungen
Ġ1860
ĠDM
Ġverbrei
Ġgeregelt
Ġentschuld
ĠVoraussetzung
ĠverstÃ¤nd
reichung
Ġbedeutende
ĠNahrungsmittel
ĠSektoren
ĠAssociation
very
ĠGetrÃ¤nke
Ġbehandeln
amik
deb
ĠZehn
igan
ZurÃ¼ck
ĠKie
ĠThÃ¼ringen
ĠÃľberleben
1988
EuropÃ¤ische
ameter
ĠMerkmale
grÃ¼nden
ĠFranzosen
ĠAkten
Ġberechnet
ĠLandwir
Wh
leihung
ĠSolar
iche
ĠNeuer
Ġersetzen
No
Ġsamt
Bas
gru
ĠstÃ¤rken
atze
kurse
ĠStufe
Sollte
ania
ÃľR
ĠArchitekt
ĠDatenbank
ĠFlorian
Ã¤le
ĠTrennung
ĠRÃ¼cktritt
js
ĠAgentur
ĠFrie
ĠJuly
Ġfeiert
Ġfalsche
ĠGesellschaften
iÄĩ
ĠKupfer
ĠDarmstadt
To
ĠBMW
Ġgelesen
ĠVerkaufs
ĠFuÃŁballspieler
ĠAnmeldung
Ġerzeugen
Amts
sbaden
Ã©n
Ġsagten
ĠLiss
Ġaustral
ĠBergen
Ġabout
ĠVin
ĠMaur
dictionary
ĠVortrag
Å«
ĠFebruary
wÃ¼n
junktur
ĠCoach
ĠFerdinand
Ġkonkrete
Flug
Ġtn
vereinbar
ĠInvestoren
utete
ĠFeb
ĠEinkaufs
Ġgarantiert
ĠOrden
well
ĠProfil
horst
Ġbezug
ĠBuchung
ĠBegrÃ¼ndung
Sal
punkten
aby
tschafts
Ġjetz
ĠHindern
ĠGustav
ĠLokomoti
ĠFitness
haltungs
Jede
Red
ush
Ġschwedischen
ichen
ĠKonzerte
Ġebt
Ġdram
rian
abschnitt
NE
klagt
Sieh
Ġdn
elor
ĠMannschafts
ĠHem
gehende
Ġeffiz
Ġerhebliche
Ġfried
ĠVerhandlung
abon
ĠZahlungs
Ġverstarb
ĠFortschritt
aturday
ĠFilmen
wall
opol
imir
ĠEhre
ĠErwachsene
Ġliegenden
verbindung
Ġstellvertretender
ĠKult
ĠHuman
national
ĠInhaber
ĠSzenen
ĠMargar
ikat
lecht
ĠzuverlÃ¤ss
euerung
ahnsinn
ĠPlaneten
Ġscheiterte
Gef
ismen
ĠVe
Ġgrat
staats
ĠMineral
ighl
Id
ĠAbfall
Ð¾
Wilhelm
Fir
BL
Ġmeinst
abor
ĠPfarrkirche
perten
Ġ1907
ĠVfB
Ġvieles
ĠAnwendungs
ĠKarlsruhe
ĠKond
tischer
ĠBeine
ĠEIB
Ġnov
ĠEntstehung
ĠerlÃ¤utert
krÃ¤f
sprochen
Ġbevorzu
stellers
meldungen
Ġtraditionelle
ĠBundeswehr
ĠManuel
uri
ĠEnkel
Lauf
Ġgeboten
Ġbetra
ĠZut
ĠSÃ¼ddeutsche
pert
Ġfach
verhÃ¤ltnis
SF
obald
ĠFelix
ĠAusrichtung
ĠselbstverstÃ¤ndlich
Ġreagiert
ĠSmartph
Ġdoppel
Ġine
Etwa
KÃ¶nnen
ĠEmpfehlungen
ĠRoute
ĠAuseinandersetzung
Ferien
ĠMike
usk
ĠSchmuck
ĠGn
ĠAusstellungen
ĠBegegnung
uras
ĠErhaltung
ĠPed
ĠÃ¶sterreichische
AK
herstellung
ĠKugel
Ak
pos
ĠVfL
ĠResiden
Ġfeststellen
ghan
achteil
Ã¼cher
opfer
ĠPotsdam
ĠberÃ¼hmten
ĠTiefe
gebiets
ĠKomponenten
ĠOze
ĠMonte
ĠÃ¼blichen
ĠKrei
ĠHÃ¼gel
ĠDiskrimin
Ġdreimal
ĠDigit
herrschaft
Beschreibung
rue
ĠEreignis
studium
Schau
ĠmÃ¶gen
athan
Ġkoordin
Ġbegleiten
ĠEint
ĠGreg
ĠOberbÃ¼rgermeister
ĠHaare
Ġfrisch
stÃ¤tigkeit
Ġruft
Ġpreis
Ġeinstimm
mÃ¤ler
Ġumzu
ĠRuhr
ĠmÃ¼
other
Ġzzgl
Ġmeistens
grunde
FÃ¼nf
xit
esh
Ġrufen
ĠTherapie
Ġ-,
Georg
ĠSmith
Pal
Ġstattdessen
parks
Ġeinsetzen
Ġeinges
ĠBarbara
ieber
Ġsonstigen
ĠbegrÃ¼ndet
enner
lÃ¶sen
Ġhierzu
Ġflex
Ã¤nderungen
zem
ĠInstallation
zoll
ĠSchwarzw
ĠProjekts
ĠStreifen
Ã¤cht
Ġeleg
ritter
folgerungen
atsch
Ul
ammten
ĠMetrop
ĠKÃ¼nstlern
ĠBestellung
Ġfielen
Ġunternehmen
Ã¤mmer
ĠAdvent
ĠBeach
Ġbequ
ĠSpar
ĠAbsch
Ãĸsterreich
zessin
ĠursprÃ¼ngliche
ĠVorstellungen
Halt
alia
samen
jahre
mmt
ĠOhr
Pri
ĠAufenthalts
ĠFavor
ĠSav
Ġsymbol
Ġantwor
Ġlas
ĠKassel
Ġlux
ĠSchriften
ĠHalbzeit
ĠhÃ¼b
Ġverbr
obte
ahls
zeitraum
aufnahmen
ĠDeutscher
ĠVersicher
ĠVeranstaltungs
laus
Sozial
uay
Ġbetrachten
zeugnis
ĠBraunschweig
Ġverfasste
ĠBeratungs
bereitungen
rem
ĠMercedes
ĠSolidar
wÃ¶rter
Ġbeeinflusst
Ġschwerer
rengungen
ING
agoge
arbeitungs
fst
Markt
ĠOd
ĠUnterlagen
Ġsda
ĠWach
ampen
Ġasd
ĠParad
Ġgewidmet
stellern
Fe
kind
Ġzusammengef
lernen
Ġumwelt
ĠLake
ulver
Ġ1908
verhalten
adbach
Ã¶konom
mete
besitzer
Ġgeltenden
ĠInfanter
ĠOlympia
Derzeit
asa
Ġfesten
Au
Ġwipe
ĠÃ¼berein
Ġkriegen
ementen
kre
ĠSekund
ĠTay
Ġlande
ĠLinz
ĠLkw
rÃ¤te
Ġbefanden
Ġinspir
ĠKanz
Ġzugrunde
ĠlÃ¶ste
Ġschlechten
ologischer
sbest
âĸł
Ġdsa
Ġkalt
Ass
ASS
Ġseitens
Ġhalben
ĠVerfÃ¼g
Ġbegrenz
ĠHÃ¶lle
ĠWC
Ġwerfen
Ġinstitution
ĠÃ¶konom
ĠCorpor
Vielen
TP
Ġdynam
ĠKy
ĠKlÃ¤ger
Ġbedroht
Februar
ĠKonrad
Ġverbundenen
ĠSoph
ĠkÃ¼nftigen
Ġverwirk
Ġmont
ĠHandlungs
Ã¶lle
periode
Agen
ĠAustral
Ġzentral
ĠColl
EK
ĠSkulpt
iu
Ġkatholische
Bern
Manchmal
rechtlichen
Ã¤den
echten
ĠTabak
rondissement
ĠPho
jamin
schenden
ĠArbeitskrÃ¤fte
ĠhÃ¶rte
ĠTelef
ĠDurchschnitts
ĠFeind
ĠÂ·
ĠBundestags
pause
ĠAlp
ĠHaw
Ġkulturelle
Ġklin
ĠCob
ĠMehrwert
ĠGewinner
ĠWerbe
begr
ĠGute
ĠRent
ĠBewusstsein
ĠVereinbarungen
jon
schild
ivery
ausgabe
ĠbeschÃ¤ftigen
werbung
gebirge
Ġvermitteln
ĠPhysik
ĠVel
ĠKum
Ġaufgegeben
Ġangepasst
egung
rl
Ġvolle
Hab
ĠÃľbersicht
zens
Ġtraur
Ġwenigstens
alisieren
Kur
orp
ukle
ĠWohnzimmer
strategie
zungen
urlaub
ĠMasse
lastung
verarbeitung
ĠBibel
gf
ĠYor
ecial
Ġav
ĠKrone
ĠLange
rien
ĠBesuchern
ĠKolon
ĠJanuary
Ġsolches
Ġebenda
Ġumfangreiche
Ġprotest
betriebe
ĠZugriff
ĠKen
comm
ĠgenÃ¼gend
ĠTÃ¼b
mÃ¤rkte
Ġinne
eto
ĠSher
Ġmaximale
ichtigen
gÃ¤ngen
ĠLieferung
berater
prÃ¤sidenten
ĠKund
Ġest
nieder
ĠAtt
ĠKomprom
Ġfein
ĠgelÃ¶st
yo
ĠVertrages
Ġverkehr
bayer
Ġvorerst
gehalt
ieÃŁt
sparenz
ĠPokal
schiffe
Ġzumeist
ĠGeschw
ĠEntschlieÃŁ
papier
ĠStaub
Ġgegebenenfalls
Bevor
Ġkomplette
Ġinstalliert
rup
Beh
Ġermordet
ĠSaar
rÃ¼ger
ĠJord
ĠBerechnung
Friedrich
cle
Landes
ĠGewerkschaften
ĠÃ¶ffnet
Sonst
Ġfragt
ĠBrow
otels
ĠAndrea
Vorsitzen
woche
gewinn
ĠEffizienz
ĠSozi
aldo
ĠInteress
osh
ĠLein
ĠCha
kes
ĠMÃ¤rkte
ĠKommando
ĠÃĦrger
bler
MÃ¼nchen
luft
Ġgeliefert
Ġdiverse
ĠKleidung
Ġvoneinander
ÄĤÅ
ĠMÃ¶bel
))
ĠTelekommun
ĠAtlan
hb
ĠGrupp
ple
Ġmenschliche
seud
âĢľ).
ECH
zige
vort
ypern
ĠBatter
sprechung
ĠVar
Ġcool
Ġverdammt
Ġoberhalb
Ġmti
brech
ĠAlles
ĠHÃ¤ndler
Ġbetreut
ĠZulassung
ĠAbenteuer
Bisher
ĠVerstÃ¤r
Europa
arta
staatlichen
dert
zieher
ĠKontext
ĠSchÃ¶nheit
Ġbefest
Ġcl
ĠAnkunft
Ġveranstaltet
tlicher
kow
etti
ĠFahrzeugen
ĠerhÃ¶hte
ĠMecklenburg
Ġbez
ĠOrien
Ġeis
bezeichnung
aufgaben
Ġfassen
ĠAC
ĠResult
Kunst
Ġsetzten
Ġwa
ĠbeeintrÃ¤ch
ĠZDF
Ġitm
Ġhofft
ĠTÃ¶chter
Ġbestellt
Ġbeher
ĠlÃ¤ngere
Ġimt
otischen
ĠÃĦhn
imme
ĠWettbe
Netz
ĠFÃ¤hr
sproblem
ĠHitler
ĠMangel
ĠMannheim
Ġerfordert
ĠProfess
gliedern
ĠRay
ĠCosta
Abkommen
Werk
Ġtmi
Denk
ĠSCH
ĠHaupts
ĠMarco
beziehung
Ã¤dt
ĠSkla
ĠFree
ĠMagdeburg
ĠvollstÃ¤ndige
Ham
russ
Arbeit
Ã¼ttel
tements
Ġleistungs
ĠIstanbul
ĠKommunikations
Ġletztes
ĠergÃ¤nzen
AV
ĠLÃ¤rm
Free
ĠKam
Ġnt
ĠÃĹ
Ġberuht
Ã¼tzten
apest
mÃ¤ss
Ġwonach
ĠprÃ¤z
ĠAbb
gehenden
ĠKomponist
Wirklich
ĠAllgemeine
Ġherausgegeben
ĠErstellung
ĠVieh
Ġ1906
Ġgn
earch
ĠStandards
ĠmutmaÃŁ
ĠUrsprungs
Ġ(âĢł
ĠMaus
vard
âĢĶâĢĶ
ĠGuten
log
Ġrenov
ĠEintracht
ĠTÃ¤n
ĠFerr
vertra
ĠBuchstabe
My
itiv
waffe
onischen
ĠSÃ¼ÃŁ
erb
ĠManfred
okol
ĠToil
wachstum
Ġsagst
ĠrÃ¶misch
wende
Ġumfasste
Ġgeborene
Ġschreck
ÃĦISCH
hold
fache
Ġseither
ĠProben
ĠAudi
ĠPalÃ¤st
ĠBÃ¼ch
ĠPlus
ichtigt
ĠvorlÃ¤uf
Ġbat
ĠLam
ĠRunden
Ġislam
ĠErnÃ¤hrung
Ġtrans
ĠEpis
Ġverwendete
ĠÃĦuÃŁer
Ġspezifischen
etrie
Ġinfo
ĠWinkel
Ġ..
hart
Ġrechtzeitig
ĠOscar
Gesellschaft
Ġimmerhin
Date
ĠStraÃŁenbahn
jak
ĠmilitÃ¤rischen
ĠRose
ĠArrondissement
ĠWissenschaften
Ġll
ded
ĠFlach
ĠZub
rey
Ġ5000
aal
Ġgestohlen
Ġfertiggestellt
ĠVI
Ġwesentliche
ĠDame
gegn
Ġnachge
Ġabgerissen
ĠVersand
reat
betten
ĠGeschlecht
ĠNoten
phy
ĠAspekt
Ġyears
enke
siv
ĠFahrbahn
Ġfragte
Ġverschwinden
Hotels
angaben
gleichen
Ġentworfen
Ġzusammenge
ĠErdbe
ĠRoad
ĠÃĦm
ĠAbweich
ĠMahl
Ġtolle
Ġeinzus
ĠDiskussionen
ĠHalt
gemacht
ĠHeb
dio
Ġgekennzeichnet
ĠHelm
ĠFinal
rÃ¼cke
1987
dner
Ġerkennt
ĠGeheimnis
Ġjemals
Werte
tan
ĠGenerationen
',
OG
ogt
url
ĠImmun
Ġbeauftragt
ĠMall
lehre
gerechnet
mÃ¤h
ĠTue
ĠGraz
hedr
ĠNahrung
klÃ¤rungen
ĠBetten
Ġbeschloss
Ġup
Ġann
ĠErzeugung
Gibt
iehlt
ĠHandeln
ydro
anni
krie
Ġemotion
ehrten
Ġfreue
ĠHav
Deine
veranstaltungen
Aust
Ġtue
ĠKonserv
ĠCop
PÃĸ
wetter
AnschlieÃŁend
Ġbreiter
Ġschien
ĠFinanzen
ĠAndere
Ġgrenzt
Ġgebraucht
irchen
KL
akes
ĠSchweine
Ġzeichnet
ronomie
Diesen
ĠFlÃ¼ss
harmon
Ġstattf
verlust
ĠIntelligen
ĠWahlkampf
ĠDimension
arg
Ġdurchschnittlich
ĠZÃ¤
valu
Ġgeschah
bv
ĠIP
ĠSÃ¤ngerin
ĠFinanzierungs
ĠPav
ĠGames
Ġamtieren
denkmal
ĠNeues
ĠZiels
lohn
werker
Ġharmon
ĠKaisers
ĠGlocken
lieferung
iser
Ġgelb
Ġuntersuchen
sse
ĠBlog
Ġstirbt
ĠStrahl
ĠKindheit
elli
Ġbewaff
ĠVi
glas
ĠNerven
ĠjÃ¤hrlichen
verkusen
Ġplant
Ġafr
ekul
ĠJoe
ĠLangen
Pe
Max
ĠFusion
ĠErwerbs
ĠDigital
offen
Stiftung
fahrung
ĠBulgarien
Ġhielten
ĠPartien
Ġbeweisen
technologie
Ġefo
kÃ¼
Ġtu
ĠMama
zungs
isemit
ĠDR
nehmung
hofer
Ġkonzentriert
Ġenge
ĠDritten
adi
ĠCru
vermÃ¶gen
Ġsonstige
Ġbeliebte
ĠBeitritts
ĠDecember
ĠBaur
ĠDÃ¶rfer
ĠBerufung
itee
ĠAnbau
ertal
Ġeigentlichen
Angesichts
Version
ĠSky
ĠStatt
ĠAlexand
Ġbeteiligen
Ġ1915
ĠVeranstalter
ĠGepÃ¤ck
ĠSpielern
ĠMailand
Ġfalschen
Ġzuzu
ĠStill
Ġtelefon
branche
ĠEinen
Ġeinsch
ĠBour
ĠSchlieÃŁ
ĠÃľbergangs
imal
Ġgeleistet
schÃ¼tzen
ĠSchott
ĠRiv
rede
firma
Ġregistriert
ĠMist
Wert
ĠWeimar
ĠArchÃ¤
ĠInterpret
ĠÃľberprÃ¼fung
Ġeinver
ĠgÃ¼nstig
ĠSportler
ĠViol
ĠVersorgungs
otal
Ġflo
Ġsingen
Phone
ĠIM
ĠGlÃ¤ub
Ã¼ndete
Ġerneuert
ĠGrill
ĠJahrzehnte
ĠAuÃŁenminister
entum
Ġkontrolliert
ĠSeminar
Ġthemat
ĠÃŁ
Einzel
verstÃ¤ndnis
hau
jÃ¤ger
ĠGenossen
leih
mate
stoÃŁen
Ġstet
ĠIndex
Ġdesto
Ãĸff
ĠWhite
Ġgedreht
Ġret
atorin
fektion
ĠNull
istet
Ġzweites
Ġliebt
ades
ĠZentralb
ĠSchwarzen
zÃ¼gen
bildungen
Ã¤nderten
ĠweiÃŁe
ĠStabilitÃ¤t
ĠAmb
Ã¤ftigung
Air
ĠFlÃ¼chtlings
schÃ¼ler
Ferner
cfs
vgl
Ġverteidigen
wl
einrichtung
ĠTrum
ĠEro
onst
Internet
ĠTee
ĠEnsemble
ĠFrÃ¼chte
ĠUmfrage
ĠBft
ĠEurope
genden
ĠHerausgeber
ĠMom
ĠLissabon
gefÃ¼hl
Verkehr
UND
sea
sburger
Ġroman
ziele
ĠHaup
aiss
ĠfÃ¼hle
ĠWesentlichen
nÃ¶
ĠHalbinsel
ĠBritish
Ġliber
Ġwirft
hÃ¶fe
ĠVizeprÃ¤sident
ĠProbe
ĠEGKS
invest
ĠEinladung
ĠMobilitÃ¤t
Leider
ĠwÃ¼rd
ĠAbgeordneter
ĠKÃ¼chen
antes
ĠAssistent
Ġumgebaut
ĠGrunde
Ġkonzip
Ġ1909
sprachige
sieg
erl
ĠSlowen
Inner
ĠMajor
ĠVordergrund
Ġaufgew
Ġaufgeteilt
Ġangesprochen
asien
Deutsche
edy
Har
messe
ĠKÃ¼hlschrank
format
ĠInstituts
ĠSpr
ilen
----
fv
ĠBerichts
600
ĠPkw
ĠÃľbertragung
Standard
ĠPariser
Ġirgendwo
Next
ĠVerg
Ġirgendwann
Ġhohem
ĠjÃ¤hrliche
ĠVersuche
ĠGouverneur
Ġbester
lines
Video
ĠVerkÃ¤
Ġ1904
ĠÃ¤ndert
esien
ĠSchiffs
Mel
ĠAnliegen
ĠCode
Ġenor
Ġkirch
ĠPhÃ¤nomen
ofen
finder
wirklichung
ĠAx
sucht
ĠBorussia
Ġheiraten
ĠÃ¼berprÃ¼ft
Ġschwach
ori
ĠLeitlinien
ĠJournalist
ĠPR
lauch
ĠAcademy
ausen
Ġbetreiben
andet
AuÃŁer
ĠâĢŁ
ĠMoh
ĠEth
leitungen
Aktualisiert
ĠLee
ĠArgentinien
ĠErster
Ġgenehmigt
Ġbestehend
âĢľ"
Politiker
ugo
Ġverbindlich
ĠJugoslaw
barg
Ġorgan
Ġwarte
banner
ĠzerstÃ¶r
estra
Christian
basis
mengen
Ġbayerischen
ĠDadurch
projekte
GeschÃ¤fts
wd
stags
rust
zucht
ĠgrenzÃ¼ber
ĠRÃ¶mer
Ġglobalen
ĠWÃ¼rzburg
ĠSchwestern
agerung
AZ
ĠPek
wachs
ĠBÃ¼ndnis
ĠÃ¼fr
Bal
ĠlÃ¤dt
Ġkurzem
ĠGR
LAND
ĠSund
ĠBenedikt
vas
Kirche
ĠRass
leten
GH
ĠCorn
Ġgesellschaftlichen
try
ĠRande
Ġerleichtern
Rock
Ġpromoviert
ĠPred
ÃŃa
Ġerfuhr
Ġreisen
UNGS
ĠUnterhaltung
porte
ĠÃ¤hnlichen
Ġhingewiesen
Ġgesammelt
franken
oi
eilt
Ġnr
Ġarg
steig
ĠAth
politischen
utnant
wider
ĠEinhaltung
oda
Menschen
ĠStrafe
jm
ĠStÃ¤rkung
sbet
Wahl
itle
ĠJena
ĠKlin
schrauber
Wichtig
ĠÃľberraschung
niveau
Industrie
Ġausgebildet
ĠBast
Ġverdienen
Ġhalbe
ĠEbenen
ĠWiesbaden
Ġanspruchs
ĠrfÃ¼
wordpress
Heim
ĠKÃ¼nste
isierungs
hende
ALL
Ġsprachen
ĠZusammensetzung
ĠWurzeln
pflanzen
ĠMeilen
ĠEnergien
bec
ĠÃ¼berlegen
ĠpreuÃŁischen
ores
ĠMes
ĠVul
ĠÃ¼rf
ĠSpir
ĠBecken
ĠAntonio
ĠverfÃ¼gbaren
schÃ¶pfung
Rest
altar
rohung
ĠKnie
Ġinvestiert
eyer
rund
ĠArts
fÃ¼hrerin
ĠEinfuhren
ĠApple
ĠSamen
ĠMigration
mine
TO
ovo
Kosten
ĠdÃ¤nischen
ĠwunderschÃ¶n
ubs
ĠDsch
Ġentscheidet
Ġangegriffen
ĠVerdacht
ĠAfghan
ĠunterstÃ¼tzte
ĠFord
101
ĠPlastik
ĠResearch
vid
Ġunterrichtet
ĠLabel
ĠFels
Ġbisherige
tau
ĠrÃ¼f
ichtige
ĠVorsprung
zusammen
etsch
Ġgerichtet
ĠBoch
ĠZigar
onduras
uv
Ġversorgt
openhagen
bundes
oston
Ġinneren
Ġaufzunehmen
KE
not
Ġbau
ĠMeld
ĠSchulz
ĠDokumentation
ĠmÃ¼ndet
Ġdigitalen
ivision
ĠGerechtigkeit
Modell
Ġsit
Wolf
Euro
Show
ruh
Ġnorweg
ĠKontin
Ġaufgeb
ĠkÃ¶nnt
zahlungen
Ġwohnt
ĠGlaubens
Ġzuges
Ġausgestellt
150
ĠDÃ¼r
Bus
ĠStraft
Ã¤ure
Ġ1899
ĠMak
verbindungen
Ġentscheidend
ĠGedenk
omb
Klein
ĠAusstellungs
ĠKomplex
Ġschein
stellerin
personen
ĠSiegen
ĠOrtschaften
Ġlebenden
stÃ¤rke
trieben
ĠKonf
era
aktoren
ĠAngelegenheit
deren
gebot
ĠSympt
anders
oÃŁ
Ġwerdet
ĠEmpfang
ĠjÃ¼ngeren
weilen
ĠHeck
ĠKlimaanlage
ĠGymnas
ï¿
ĠWeibchen
ĠReu
ĠKonsequenzen
oir
Eines
fell
Ġvertrieben
ology
KÃ¶n
ĠÃ¼bersetzt
ĠHi
ĠMittler
essischen
ĠPaket
Ġ1890
lechter
Ġkommst
zz
ĠAufwand
stunde
verteilung
jn
pst
ĠDurchfÃ¼hrungs
Ġauss
Anhalt
ï¿½
Ġhl
ĠLandgericht
ĠWettbewerbsfÃ¤higkeit
ĠLeib
ĠNeuse
Ġwohin
Ã®
comp
ĠAllein
ĠVerschw
ĠEIN
ĠBildhauer
ĠAusrÃ¼stung
beratung
cd
azitÃ¤ten
ĠToren
ĠBuchstaben
ZB
HO
ĠAqu
bieren
verlauf
Ġverlangen
Ġhere
ĠNahrungs
bab
ĠAmar
Ġehrlich
rektur
Ġgep
ĠHitze
ĠKonsum
ĠWerkstatt
Franz
Ġakzeptieren
umpen
ĠGebÃ¤uden
Ġschn
ĠIrak
griff
onto
ĠÏ
trainer
ĠHau
plomat
Ġerreichbar
side
ĠBestÃ¤tigung
Ġwarm
etscher
CSU
Ġpfl
dir
delivery
ĠWichtig
Ġversuchten
ĠschÃ¶nsten
strahlt
Ġnutzte
UL
ĠArsch
hÃ¼tte
Ġdurchschnittliche
ĠJulia
kÃ¼hl
rasse
Ġsollst
Ġbeabs
ĠDistanz
rohr
ators
ĠHamm
otograf
web
TatsÃ¤chlich
ĠStadtgebiet
ĠNeur
Ġgesorgt
Ġvermutet
ĠCham
ĠGefÃ¤hr
ĠZwangs
Ġ1916
ulin
Ġft
otische
Ġechten
Ġvo
ĠIntens
ĠDiagn
ĠWÃ¶rter
ĠValle
garter
ĠMario
my
Wien
ĠNichtrauch
odie
ktischen
Ġeigentliche
Ġgepf
ĠScheiÃŁ
ĠZuschauern
ĠThron
Ġunterschiedlicher
dra
ĠPrei
ĠAbhÃ¤ng
ĠProzesse
unnen
ĠNase
ĠDenkmalschutz
cast
ĠStab
Ã¤tten
EX
Ġgenauer
fassungs
ĠKomponisten
Ġgesetzlichen
ĠKun
Ġneuesten
ĠMÃ¶rder
freunde
etta
ĠLegen
Ġarbeite
Mod
ĠÃł
Ġbewertet
ringerung
ĠChristi
Cup
ĠAngehÃ¶rigen
ahne
ragenden
Pfalz
ĠInsekten
utzte
Allein
mitten
ĠgefÃ¤hrdet
ehls
ohle
ingu
Eur
Ġfreier
Ġmedizinische
ĠAbgeordnete
illy
stem
pdate
ICHT
Ġgemeinschaftlichen
Bundesliga
ĠSÃ¼dtirol
dienstes
ĠSchwanz
Ġev
ĠEdward
ĠScott
ĠJÃ¶rg
Main
ĠMari
bergs
ĠErgebnissen
ĠLeopold
ĠWeis
gth
Ġbekanntesten
gnor
Ġkonkreten
Ġgewachsen
ISS
aph
ĠPatri
ĠZo
ĠVerh
Ġrestlichen
Ġderzeitigen
Ġbeinahe
ĠMarktes
ahrung
ĠKrankheiten
ĠAuÃŁ
ĠFun
ĠgezÃ¤hlt
velop
arfs
ĠMigranten
Ġeinander
entwurf
dies
schel
Ġkar
Ġlandes
ĠZertif
ĠSatelliten
stÃ¼tzung
sebene
Ġgewannen
Ġerneuer
ĠBelastung
ĠjÃ¼dische
ĠVÃ¶gel
BÃ¼rgermeister
Ġwirtschaftlich
rif
Ru
ATION
Ġnvo
kanal
ĠHollywood
eifen
ĠTeilnehmern
Ġschriftlich
ady
ĠGEMEIN
geist
bles
ĠInneren
!!!!
ĠÃĦl
breite
saison
ĠHert
ĠVerteidiger
Motor
ruder
ĠViet
ĠSteine
Ġbeeinflussen
Montag
Ġovn
Ġfj
studien
aster
ĠOrdens
ulf
Ott
Ebenso
ĠBudapest
Ġil
ĠDaher
beteiligung
Ġeingeleitet
ĠNeun
Ġdoppelt
cus
ruption
ĠkÃ¤
Ã¤rtner
Ġbildeten
chts
asten
cial
Ġmusikalische
ĠSituationen
Ġumfassenden
ĠExtra
venz
mietung
ĠSocial
ĠBrem
ĠErbe
ĠFortsetzung
ĠKurfÃ¼r
emals
ĠBla
ĠGrafschaft
Ġvno
Ġkaufte
ĠGemeindegebiet
Damals
ĠNeustadt
Ġethn
Ġwahren
riday
ektakul
Ġreduzieren
regung
Ġevangelischen
Sl
count
Ġtraditionell
Ġnh
ĠUnbek
ĠTauf
bronn
ĠMalerei
meldet
tigkeiten
ĠArbeitszeit
Ġonv
Ġblock
Ġpromovierte
ĠKenntnisse
Mitarbeiter
Ġinterpret
gm
Ġschnellen
Ġdurften
isburg
Ġvermittelt
grÃ¤
eitigung
reh
Ġone
ĠMagazin
Ġsechsten
ĠPierre
Ġinteressante
ĠKore
ĠFestung
iteratur
Ġvia
ĠRoth
olas
liederung
ĠKlosters
ĠLeichtathl
ĠTafel
ĠFaktor
Ã©r
Waren
ĠErdgeschoss
Ġklassische
otyp
kÃ¶mm
ettern
ingham
angebote
ĠParallel
Ġangrenzen
Ġfortgesetzt
Ġrote
Ġakadem
ĠzustÃ¤ndige
Manche
Zuletzt
Ġspanische
ĠLeiche
ĠSchwert
ĠVorwÃ¼rfe
Ġaufgefordert
ĠgrÃ¼nen
ĠBewerber
reste
ĠDorfes
ĠÃĸsterreichs
Ġss
Ð¸
SpÃ¤ter
ĠSperr
ĠZypern
Ġ1870
ittle
omentan
Si
ĠLord
Ġlandwirtschaftliche
Ġreichte
Ġrd
ĠWiesen
Ġniedrigen
ĠWeiterentwicklung
bringung
ĠKassen
ĠOberflÃ¤chen
ĠAttra
ĠKonzentration
Ġrh
Ġbehauptet
dom
ĠGestalt
ĠZunahme
ĠPlanungs
cf
rÃ¼ben
konstru
Ġprivat
ĠBischofs
lige
====
Ġ1903
Ġ1848
ĠVolumen
ĠFlexib
Ġorganisieren
ĠBeurteilung
ĠMu
Tu
ĨĴ
ĠChampion
ĠKÃ¶nigreichs
Ġnochmal
elekt
jfs
Ġeingereicht
aki
ĠgrÃ¶s
openx
Ġsicherzustellen
uffet
seg
sarda
ĠArti
Ã¼tzte
schmutzung
gitverlag
ĠEinschÃ¤tzung
Ġunbekannt
ĠausgeprÃ¤
[/
HC
Morgen
Ġ(')
Ġgeladen
ĠHochschulen
ehenswÃ¼rd
fÃ¤higen
ĠJetzt
ĠAlph
ĠSlowakei
ĠAufhebung
ĠErfolgs
ĠSpannung
ĠBrauer
xid
ĠGenau
kÃ¼rzung
ĠRail
Ġbedient
ĠAnsprÃ¼che
listen
hÃ¤nge
Ġgefasst
ĠMang
etail
ĠWupp
Ġmotiv
ĠBit
astet
immobilsarda
etin
ĠFormat
Ġzweck
gÃ¤ng
Ġvirt
Ġakzeptiert
ĠTÃ¤
ĠSpÃ¤t
grundlage
ĠVermÃ¶gens
DI
VI
andten
Ã¤uÃŁ
Ġbesonderes
Pla
ĠInstitution
ĠKompetenz
Ġentfernen
Ġintern
ĠDrittlÃ¤ndern
ĠSA
Ã¤her
Ġkomfort
ĠGerichte
feind
ĠDunkel
wesens
Ġtis
fz
kol
ĠDich
ĠKonto
ĠEinblick
schlÃ¼ssel
Ġdauerte
ĠHong
ĠAmerikaner
monat
ĠPerspektive
ĠEntscheidungs
Ġvol
Ġansehen
verantwort
Ġheran
ĠFreundschaft
ĠImpu
agg
ĠBecker
Ġue
Fer
ĠMarx
Ġgeograph
ĠGebir
ĠVerwirklichung
ĠMuseen
NT
Ġvorrang
iron
fas
underte
ĠWolken
223
ĠBÃ¶rsen
ĠBrexit
ZusÃ¤tzlich
ĠRÃ¤um
Ġdaneben
ĠCro
Meer
Feuer
Ġweh
ĠIntervention
zeitlich
Hei
ĠNu
ĠZellen
ĠTechnischen
Letzte
Ġgeste
ĠKurse
tour
ĠStartseite
Ġrealisiert
max
ĠHeizung
Ġladen
Arab
anti
hebt
ĠKleine
ĠStadtverwaltung
Ġumgew
Ġverweist
Ġorganisierte
ĠmilitÃ¤rische
ĠReferenz
kÃ¶pf
ĠMarcel
alin
runden
programme
ĠKabinett
leidet
ĠMarok
hÃ¤ngt
ĠbeschÃ¤ftigte
Ġ1902
Ġnachhaltige
iem
Ġcont
ĠStatistiken
aco
Ġvorsichtig
ckel
schÃ¼sse
Ġantreten
Ġoff
ĠFelsen
Schnell
ĠLinden
Ġjahrel
ĠApothe
Ġunterhalten
ĠHauptbahnhof
ĠBetroffenen
Ġut
ĠsÃ¼dÃ¶stlich
bb
ĠEls
Ġwichtiges
ahm
ĠverlÃ¤sst
landschaft
ĠKau
flex
ĠHay
achse
eitungs
ĠFootball
uan
Ä«
Ġkompon
ĠTrauer
methoden
Ġangekommen
ĠSeil
Ġtier
Op
Cap
ĠBahnhofs
Ã¶ll
Ġgeschm
ĠAnklage
Ġgesundheit
ransport
Ġbuchen
ĠFang
Ġfaszin
Ġkritisierte
ĠSpons
ĠKuchen
klein
Ġverzeichnet
add
ĠSegel
Mitte
Ðµ
ĠTransparenz
Chin
Ġgehandelt
ehÃ¶r
arburg
politische
wickelt
ĠEu
ĠSchull
Text
ĠNow
Ġvoraussichtlich
ĠBeobacht
ĠSupp
Ġ112
ategorie
eigung
Ã¶ÃŁt
wÃ¤nde
Ġideal
eira
Ġangesch
Ġ""
uÃŁt
Ġgehst
Umwelt
ĠTÃ¼bingen
ĠRisik
ĠKolleg
Ġengagierte
pan
ĠHosp
ĠsÃ¼dwestlich
ileg
Ġdigitale
igo
ĠCur
ĠBomben
Ġbut
ĠBundesstraÃŁe
ĠWilliams
pommern
ĠLot
arat
Ġdesselben
ĠGebÃ¼hren
usa
ĠOrgane
ĠLesung
Ġgewerb
Ġannehmen
Hilfe
Mi
1985
ĠBÃ¼ros
denkt
ĠMÃ¼hle
Ġaufger
ĠÃľberlegungen
ĠCel
ĠAnstrengungen
ĠHistoriker
ĠkÃ¼nftige
ĠSchuhe
Problem
Ġ125
ĠErlebnis
fd
Ġvery
ĠStadtzentrum
ely
Museum
Ġhref
ific
fisch
ĠXX
AuÃŁen
Ġerwachsen
Ag
Ġchristlichen
uma
ĠSardin
1986
Form
AMT
ĠTool
Ġausgedehn
ĠSchulter
Ġbeschreiben
ĠgÃ¼nstigen
ĠBang
ĠSchienen
Ġvereinbart
HS
Ġerschossen
Beit
Ġerkennbar
ĠJones
dichte
ĠVerw
Bereich
Ġindividuell
Spieler
orter
ĠHang
ordnen
ĠSekretÃ¤r
fÃ¶rmigen
ĠVerantwortlichen
Ġfestzustellen
ĠNikolaus
Ġbewohn
yen
ĠSpazier
ĠAusflug
ĠAlben
ESS
aber
Ġmedizinischen
pot
Code
ĠMenschheit
ĠOK
ĠZerstÃ¶rung
ĠÃ¶sterreichischer
Ġeinstimmig
ĠKorn
reifer
ĠbemÃ¼ht
Ġbefreit
âĢ¦]
ĠLandtagswahl
ĠKunde
Ġdurchsetzen
stahl
ĠHimm
ways
ĠmaÃŁgeblich
ĠPaten
ĠDub
Ġoftmals
Ġstecken
ĠWestern
Etwas
ĠdurchzufÃ¼hren
Ġqualit
Robert
Funktion
ĠWÃ¤
Ã¼nstige
ysi
dungen
ĠsorgfÃ¤l
ollt
EO
ĠSauerstoff
gezogen
stel
Ġbezeichnen
ĠLieblings
ĠschÃ¤tzen
ĠLong
ĠEnerg
volumen
ĠReparatur
gelung
itels
Krit
ĠPlÃ¤nen
Ã¤mme
ĠAdel
lÃ¤ndischer
ĠStÃ¼rmer
ĠPanor
aÃŁen
ĠÃ¤uÃŁerte
Comm
ĠMaximilian
amarill
Ġkostenfrei
ĠMrs
zufÃ¼gen
veranstaltung
German
ĠFett
ĠLeverkusen
ĠSteigerung
Ġgebrochen
ĠKatzen
verhÃ¤ltnisse
ĠBands
ĠPres
Ġchemische
{\
ungsantrag
Ġunterzeichnet
inhaber
Ġ//
ĠAufklÃ¤rung
ĠSicherung
PDF
Top
typ
fass
cor
Ġhor
ĠCle
sparen
ippe
Test
gehÃ¶rigkeit
tage
Ã¶ne
Rep
rungen
ĠPi
ĠReit
Minister
ĠBundeskanzler
ĠOhren
hoven
Ġwidmete
ĠHunger
Ġgast
schiebung
Ġies
ĠPfund
ĠKardinal
Ġversuche
lebens
ĠâĢŀ"
Elekt
ĠFrankreichs
Ġinhalt
Ġsti
hodox
fungen
ĠBreit
Ġfau
ĠDay
ktoren
schneiden
ĠLandkreises
Luft
konzern
ochten
Ġabsch
Inzwischen
drÃ¤ngt
ĠAufstellung
prÃ¤sentantenhaus
nennung
Allgemein
ĠTschechien
zulegen
archie
ĠSuite
Ġshow
ĠErnte
Ġchron
(')
Ġdunk
ĠRÃ¼st
Ġsowjetischen
Ġelektrische
ives
ĠAngleichung
ĠFerienwohnung
ĠFotograf
ĠLeipziger
Ġindustriellen
ĠRoss
ĠEinsÃ¤tze
Ġgerechnet
seitig
Ġkonsequ
ĠMetz
Mio
Ġentscheidende
Ġwem
ĠAlte
ĠTasche
sleiter
ĠSÃ¼dkorea
ering
ĠGarantie
gleichheit
ĠLeidenschaft
ĠThail
Partner
Ġgescheiter
enken
Ġunterlag
ĠPotenzial
ĠThor
ĠVerhÃ¤ltnisse
ĠAuslÃ¤nder
ĠNomin
konzert
Ġerober
ĠStaatsange
Ã¼tern
gefahr
ĠDÃ¼n
bereiten
Ġbelgischen
Ġhom
Polizei
Ġsyr
itis
Ġnordwestlich
ĠMP
ĠVarianten
Ġbre
alifornia
ĠauslÃ¤ndischen
irke
Ġeingebaut
vey
ĠAntrieb
ĠKomfort
ĠSekunde
Ġelektronische
ĠPfarrei
Ġselts
Ġvertraut
gefangen
machung
ĠSi
Ġ1901
ĠerwÃ¤
ĠBlÃ¤tter
ĠErkenntnisse
Ġgefertigt
Ġdorthin
Mitglieder
Service
versuch
Ġangewiesen
bibliothek
ĠBergbau
Ġplus
Ġurkundlich
Ġversteckt
ĠjÃ¼ngste
ĠErfÃ¼llung
inischen
ĠtÃ¼rkische
Ġanstatt
ĠGehirn
ĠPreuÃŁ
Ġanst
Ã¶ffentlichen
disziplin
Voll
uchtigkeit
afeln
ĠKirchengemeinde
David
ĠEtw
Abt
ĠTobias
Ġermitteln
ĠdurchfÃ¼hren
bard
Sim
ĠDorn
Ġert
fahrzeugen
chi
ympath
sicher
spark
ĠTheodor
splans
Ġjust
ĠOffizier
etn
ildert
Ġgelangte
aga
Ġnerv
verordnung
Ġmusikalischen
Ġgemeint
ĠZent
Ã¤ngst
ĠHerzogt
Leist
ĠEffekt
ĠnordÃ¶stlich
new
ĠHÃ¤usern
Ġâĸ
ĠGil
reuth
laube
Natur
ĠFische
Ġernannte
ĠGÃ¼nther
ĠBenjamin
BrÃ¼
ĠGefÃ¼hle
ĠPack
ĠAmazon
Ġvorkommen
ĠLeich
Ġherab
Sir
rone
ĠHeide
Ã¼sten
ĠChemnitz
ĠMaj
Ġindividuelle
Ġstreng
ĠBistum
ĠGh
ĠArgument
ERN
olution
ĠNeuseeland
grenzung
solid
Ġdenkmal
tiven
Â·Â·
ĠAkteure
ĠGras
Rot
ĠMulti
ĠDia
Ã¤be
ĠRoland
ĠSoll
Gesetz
ĠTerritor
imes
ScheiÃŁe
ĠGleichzeitig
Ġjenen
Insbesondere
ĠKapazitÃ¤t
mitte
Berg
rott
Ã¦
Ã½s
ĠInfos
isi
vertrÃ¤ge
entscheid
ĠTimes
hain
Kor
ĠVerfÃ¼gbarkeit
gesetzes
Tags
Ġglaub
Ã¤chtigen
utern
ĠMetal
kum
probe
Ġ1880
ĠFas
anspruch
zed
ĠKh
ĠMarsch
ĠZelt
frauen
ĠGift
ĠErich
oks
...]
ĠVerringerung
Ġausgenommen
ĠJulian
ĠBrut
schi
center
berichte
Ã¶lz
ferien
rath
ĠVorfall
ĠCra
uts
hler
Ġents
Ġmerk
inten
lieÃŁt
Ġkonkret
ĠGon
ĠTalent
Regierung
Ġtechnisch
ĠPak
Ġeingegangen
kov
lÃ¤sst
ĠStau
Ġtust
Ġverzeichnen
utzten
rechten
demokraten
Stre
Ġdeutliche
ĠPromotion
ĠBetrug
ĠFassade
Ġcir
ietet
Ġstammte
UC
Ġstattfindet
Informationen
sicherung
Ġzwanzig
ĠKooperations
Ġkla
/_
rio
ĠEinzug
ĠBres
ĠLogistik
ĠLetzter
heater
einigung
image
Ġfair
Ġversprochen
Ġour
Ġpraktische
ĠOptim
ao
ĠRegistr
ĠSerb
VA
Ġsim
inderte
Ġgreifen
Engl
Ġzurzeit
Ġul
ĠausgelÃ¶st
aming
Ã¤ttern
ĠKÃ¤l
ĠFlorida
zonen
ĠKopenhagen
ĠBebauung
telier
ĠVerhaltens
ĠBefug
ĠBert
ĠAusmaÃŁ
Ã¤cheln
ĠAdler
ĠArena
iegelt
ĠRegionalliga
Verdammt
rechter
angriff
ahnt
kreisen
ĠBoston
ĠMotoren
ĠerzÃ¤hlte
Ġmechan
ĠImmobilienanzeigen
wh
Ġtsi
Ġanfangen
sprogramme
ĠProfi
Ġnotwendige
Ġelektronischen
ĠGÃ¶r
Ġbedeutenden
bargain
ĠAcht
Ġ1898
denkmale
mr
hrop
ĠStuttgarter
ĠMix
ennte
Ġgelangt
Ġeinziges
beweg
ĠspÃ¼r
Hen
rica
ĠÅł
ĠDritte
ĠVerzeichnis
ĠStol
Ġangeordnet
ĠTageb
TLICH
/-
ĠEinwohnerzahl
gesund
ĠKulturen
ĠBat
Verfahren
ohin
ĠLÃ¼beck
{"
liess
ĠRobin
Ġeinig
Ġsed
same
Ġspezialisiert
Ġerlangte
riet
lat
Ġindividuellen
aj
Ġkontrollieren
wÃ¤sche
ĠARD
ĠCat
ĠHagen
ĠNachhal
ĠErwÃ¤hn
ĠwÃ¼rdest
Ġproduzierte
wt
wÃ¼rdig
ĠSchmerz
OLL
Abbildung
ĠKommentar
ĠAufsicht
Ġbesie
ELT
Ġengen
ĠBrowser
ĠKreuzung
Priv
ĠLuc
Maria
Ġforts
Ġlike
Komment
ĠHelden
TSCHAF
ACE
bor
ĠDefen
tigungen
bot
ĠUmzug
Schwer
Ġzivil
Ġwiederhol
ĠAB
reden
Ġbeen
Ġau
Ġgenerell
ĠArthur
Ã¶d
Ġ450
ĠBesatzung
Ġbittet
ÅŁ
Empf
Ġphotos
SN
Ġaufweisen
ĠRÃ¶m
Ġgreift
Ġquer
Jahrhunderts
ĠKevin
Ġkritisch
ĠKampagne
conom
Ġschot
ĠViertelfinale
Weg
ĠTH
Wollen
Ander
Erste
Direkt
Ġschritt
ticle
ĠReserve
farbe
ĠBarr
esi
ĠKontrollen
Ġperfekte
Ġrenomm
ĠVeg
mobil
Ġkonta
adion
reiches
ĠGehalt
mg
ĠSven
inderung
Ġdrehen
Ġgeteilt
ĠgeklÃ¤rt
iÃŁ
ĠReformen
ĠÃ¼berlassen
Ġangeht
burgh
scheinlichkeit
big
komplex
dok
ĠLady
ĠHow
ĠErmittler
ĠGenf
ĠJugoslawien
iler
kle
ĠSchum
Far
Start
ĠJubilÃ¤um
Woher
allery
dll
Ġabgesehen
ĠVerluste
ĠgegenwÃ¤rtig
ĠVerbindungs
Ġspezifische
Ġlangfristig
drucks
Ġnegativ
Ġsal
umph
house
ĠHubert
Ġ220
Ġvermein
ĠReis
ĠStaatsbÃ¼rger
zweck
nÃ¼tz
Ġschwierigen
ĠReste
ĠMIT
ĠRaf
Willkommen
Ġbelegen
ĠHat
Ġbaut
Ġdahinter
ĠvorÃ¼bergehend
Ġstil
cin
Ġ1850
itekt
ĠNaturschutzgebiet
auss
ĠMars
initiative
necht
ĠLife
Ġisol
Organis
ĠStufen
ĠKriegsende
Ġtypischen
Ġfix
Ġdauerhaft
ĠÃ¼berleben
ĠMietwagen
ĠBohr
news
oberflÃ¤che
ĠRechtsanwalt
ĠCla
Ġrat
ĠTaxi
ĠGol
ĠExemplare
Ġkurzfristig
ktiert
aks
anischer
ĠallmÃ¤h
Energie
dor
ĠSonn
Ġbenannte
ĠHot
Ġfestgelegten
ĠWitz
Ġerwerben
ĠPic
nesday
ĠBag
ehnung
kasse
ĠWiederaufbau
Ã¤ll
steins
ĠReifen
ĠPrinzessin
Ġsicherte
Russ
orchester
eda
uble
ĠModernisierung
Ã¶ten
ĠFeiert
azine
ĠGeistes
ynast
ĠerfÃ¤hrt
ĠAar
Ã¤hren
Ke
ĠErinnerungen
solvenz
ĠCaptain
ĠJackson
zutage
ĠTy
ĠAuslegung
ĠGottesdienst
ĠBy
chs
ĠEinklang
Ġproduzieren
ĠBlues
ĠBrown
ĠKÃ¶rp
attung
https
ĠDiÃ¶z
Ġplanen
andin
ĠWettkampf
Darum
Ã¼tung
ĠKann
ĠBriten
ikro
Ã¤ltigen
ĠAssozi
izza
ĠOberliga
Ġkr
ĠAuslands
Ġabgeben
Ġunterteilt
ĠAntrÃ¤ge
ĠKritiker
ĠRaub
eutzutage
ĠErscheinung
ĠTaschen
ĠBachelor
ladimir
kÃ¼ndigung
PO
besuch
Ġangefangen
ĠstieÃŁ
ĠVision
Ġdeutschsprachigen
mz
ĠhÃ¤ttest
Ġdemonstr
ctor
ĠMÃ¤nnchen
litz
ĠZeitschriften
ĠMcC
ĠMB
ĠUwe
ĠheiÃŁe
Ġgeweiht
Stutt
ĠHast
ĠKandidat
melden
ĠRainer
ĠgelÃ¶
ĠFlotte
ĠSchuh
Ġ%,
Ġtar
okals
ĠView
Ġsuchte
ĠValen
ĠTrib
âĢľ-
Ġergreifen
ĠgrÃ¶ÃŁtenteils
ĠBauarbeiten
Ġscharf
ĠErhalt
muster
ĠProgn
ĠBildschirm
ublin
kreise
ĠHenn
Ġderartige
ĠMÃ¤rchen
ĠMoz
Ġverblieben
End
ĠYemen
Ġaggress
ĠVorjahres
Mehrere
ĠErziehung
Anders
Ġerlebte
IRTSCHAF
ÑĢ
leuten
ĠPetr
yball
ĠErkenntnis
ĠbegrÃ¼ÃŁen
ĠStars
ĠgroÃŁzÃ¼g
aissance
gefÃ¼gt
istanz
ĠAnwohner
ĠRepubl
EW
wÃ¤sser
Ġkrieg
teg
deuten
ĠVergn
ĠOld
ĠThailand
ursday
prechen
grÃ¼nde
Ġweltweiten
Deb
ĠZone
schritt
ĠButter
ustr
osion
Ġerfolgten
Macht
elemente
Ġlinke
ĠWÃ¼nsche
Ġeingeweiht
Ġpla
ĠÃľbersetz
Ã¤ndig
Deswegen
Ġatt
Ġeingehen
ziert
ĠKran
ĠAngabe
Bund
qualif
konstruktion
uchtet
ĠOne
ĠNad
Ġdiversen
ĠSchÃ¤fer
eni
Bor
ups
imit
Ġsteigern
Ġvertritt
!!!
sidium
Ġerfor
teau
ĠwÃ¶ch
Ġeni
Ġts
Ġvorgeschrieben
Ġhs
ĠCentre
ĠPenn
schieben
ĠPremierminister
Ġhilf
ĠWood
schwei
ĠBemerk
decke
Ġbehaupten
weitern
Ġfortan
ĠInnenminister
stall
ĠLinux
ĠvernÃ¼nf
Ã¤chtnis
ĠInc
Ġwarf
Ġrisk
ĠHomepage
Ġfac
ĠNest
Ġah
Ftaxonomy
Ġbun
ĠWes
Ġenglisch
Ġqualifizierte
ĠMans
Ġwovon
Ġcomputer
ĠWarte
Ġsubject
lÃ¤che
ĠOliven
ĠInternets
ĠRalf
Ġeventuell
ĠDass
Ġverlief
ĠGewerkschaft
ĠKnow
leitete
Jeden
ĠLeh
ĠBakter
leiden
Ġbritischer
Darf
ĠGesam
ĠÃ¶ffentlicher
ĠViktor
ĠOkay
ĠVerfolgung
amo
schlags
ĠLangzeit
ĠmÃ¼nd
Ġerstaun
genz
ĠAuftritte
Syn
ours
ĠMoritz
Ġsau
120
Ġentscheidenden
jenige
ĠSiedlungs
ĠMeinungs
ĠChron
Ġgeeignete
Ġverfolg
ĠAller
proben
Ġchinesische
ĠLetzte
ĠDiskriminierung
Sonder
ĠSchwanger
strukturen
ĠFertigstellung
ckten
laÃŁ
lÃ©
ĠGrafik
ĠSehenswÃ¼rd
Nimm
League
ĠreprÃ¤sen
Ġerledigt
ĠGegenstÃ¤nde
bom
Get
KA
Ġinszen
Druck
ĠAbsol
ĠEmpfÃ¤nger
ĠFantas
Ġeinbezogen
Ġtrennen
Ġunterbrochen
Nehmen
schnitten
Ġinternen
ĠRasen
ĠEinkommens
RT
achel
ĠAnruf
Ġentdeckte
steuern
schlÃ¤g
ĠMillimeter
Vo
ĠHÃ¼tte
Ġbemerkt
Ġposts
weilig
Entwicklung
hut
Ġallzu
ĠStipend
Ġdanken
Ġbestellen
ĠChris
kab
ĠglÃ¤n
ĠKleinen
ĠNeg
Bezug
adet
Saison
wÃ¤hlen
iffer
Ġverbleiben
Ġ1896
ĠDuell
Zuvor
ĠHarr
Erfolg
Ġeinziger
Ġincl
ĠâĢĺ
ĠKatharina
ctic
110
ĠPartnern
ĠKompetenzen
Ġdiskutieren
Ġise
ifest
Ġnam
Amtsblatt
media
Ġline
ĠAlarm
kollegen
Ã¤uÃŁert
ĠGross
Ġenden
Ġtop
senz
Ġtreiben
Verkauf
ĠBoote
Ġunterschieden
rÃ¤u
Ġtausend
ĠPazif
Ġangewandt
Ġng
ĠKartoff
ĠFelder
ĠDelegation
Ã¤ndigen
ĠFair
ĠPlÃ¤tzen
Ġuaf
Ġwahre
ĠUrsachen
Ã²
brem
Ġdenkst
DC
uner
uverÃ¤n
Ġrichtete
ĠNorm
ĠDirigen
Ġempfiehlt
ĠUmstruktur
ĠKav
atis
ĠMandat
ĠLaub
ĠBerufsbildung
Ġmex
anon
loch
Lasst
Ġabgew
ĠContainer
Ġ1895
ĠNationalsozialismus
scheibe
ernd
Ġerheben
Rich
Ġumgewandelt
ĠÃ¼berqu
Bilder
tv
df
ĠAchtel
nutzung
1984
ĠHeld
ĠExpress
Ġdasselbe
Ġzeu
hus
ĠGrundsÃ¤tze
ĠLÃ¶w
apur
Ã¼tzer
teren
fehler
ĠKeramik
Ġpeople
ĠArnold
Ġgeschlossenen
iance
ĠfÃ¶rdert
ĠSardinien
Ebenfalls
ifiziert
Ġausgegeben
Ġentschlossen
Ġgeholfen
forscher
Ġverringert
Ġbefassen
TW
ĠPDF
misch
ĠMitgliedschaft
ĠLegisl
portiert
ĠgrenzÃ¼berschreiten
ĠMaul
ĠSchalt
Ġfotograf
ĠServices
seit
nm
Del
Lux
ĠLeucht
quis
mÃ¤nn
ĠCir
ĠVirgin
ĠInfanterie
ĠDin
ĠProgrammen
Ġerheblichen
ĠÃ¤nderte
wanderer
ĠDal
marke
fÃ¤hige
ĠMeisterschaften
ĠschÃ¶ner
eigert
ĠTests
leidung
ĠBefÃ¶rderung
ĠHighl
ĠbekrÃ¤f
ĠKlimaw
hÃ¶rer
ĠVerab
Ã¤hle
ĠPeking
bstoff
Gold
Ġklaren
Ġsozialer
ĠStick
kloster
Ġbezahl
ĠIng
ĠVerzÃ¶ger
ĠErnennung
ĠEb
refer
Ġpor
PrÃ¤
ĠFlammen
skosten
zentrale
otes
ĠZimmern
160
Ġbereitet
ĠReiches
ĠZunÃ¤chst
ĠGabriel
ĠPian
ĠBucht
ĠRechen
Ġbedeutendsten
ĠRaketen
ĠSÃ¤ulen
ĠVerbands
ĠWeltmeisterschaften
ĠanschlieÃŁenden
anch
mente
Ġml
Ġausgelegt
nc
gespielt
spot
ĠFlexibilitÃ¤t
Ġtrugen
alom
jl
ĠUSD
ĠYoung
ehnen
Ġstarben
tsel
Ġverzichtet
ĠUmstÃ¤nde
Ġmap
Ġlustig
Innerhalb
timent
theater
ĠAbendessen
ĠAL
ĠTaten
stuf
ĠDaraufhin
ocht
enseits
Miss
Europameister
Ġbele
ĠSum
ĠKreises
wich
Ġrechtlichen
Ġnachts
ĠAlbrecht
Ã¶rn
oxid
MÃ¶glich
ualitÃ¤t
ĠGeneralsekretÃ¤r
RA
ĠJulius
delte
Ġufa
ĠAmateur
hauser
ĠZustÃ¤ndigkeit
programms
Ġsi
ĠPrÃ¤sentation
Ġ1897
Dis
Ġinvestieren
ragend
awa
Terr
Ġbefasst
ĠAnteile
Ġ}
Ġwiederher
anisch
ommel
fassen
Ġthr
posten
Gymnasium
ÃĦN
ĠSohnes
borg
ĠVize
ĠLinken
Ġgegenseitig
Prot
Ġdiplomat
Ġiniti
andeur
ATO
rohte
Saint
pil
Ġbetragen
ĠReinigung
gestellte
ulierte
Ġbehei
ennungs
ĠBudget
ĠUp
baut
Sobald
statistik
SDAP
Ġfua
uers
Les
rische
schÃ¤tzung
ĠAreal
brÃ¼ck
ĠBewegungen
ĠBearbeitung
Ġafu
hedrale
Hor
ĠLandwirte
Ġschlimmer
ĠBeschlÃ¼sse
ĠGuts
Ġwandte
Schul
ĠAngeklagten
ĠSturz
fun
Ġunternommen
perte
Ġignor
ĠReaktionen
ĠprÃ¤sentierte
Sagen
ĠHirsch
gebÃ¼hren
ĠNordamerika
ĠPas
walts
ĠJuan
bÃ¼ros
ĠMale
Ġbesorgt
ĠForce
fertigung
ĠKlagen
ĠBarock
Ġstatistischen
ĠNotfall
schwung
Ġsach
ift
Prozess
urity
nien
loud
ĠGesellschafts
itim
Ġleichten
Prem
Ġbedingt
Camp
Ð½
ĠDekan
ĠSattel
Ġstelle
ĠLat
aufent
ĠHeimatstadt
uy
800
formations
ĠHochwasser
1983
Ġindir
ATA
zemed
Ġgelie
Ġerstklass
informationen
ĠLade
jdiu
Ġreiste
ĠEdition
iebt
verfahrens
Ġganzes
llerie
ĠFestivals
ĠSW
cal
arth
stiftung
ĠFuchs
spunkte
hh
pfung
ĠÃĸffnung
cont
essa
ĠRet
ĠBlas
ĠEva
Millionen
fasst
vide
ĠJosÃ©
ĠAbhÃ¤ngigkeit
ĠAdr
ĠKÃ¤ufer
ĠSiehe
manager
Ġeinzur
rÃ¤uch
kk
ĠKommissions
ĠHauptrolle
hÃ¤ltnissen
Ġverarbeitet
ĠHERRN
ĠGÃ¶
bellen
Ġ119
ĠCentral
Ġverliebt
ĠmÃ¤nnlichen
Heinz
oa
stetten
ĠmÃ¼ÃŁ
hend
ĠMarktplatz
ME
izes
ĠKB
eutr
ĠEhepaar
Ġdenkmalgesch
iend
Wettbewerb
ĠPalast
Ġspektakul
ĠSolidaritÃ¤t
ĠVereinen
Ġindes
Ġgeholt
gÃ¤rten
zend
ĠWitten
222
nb
ĠLom
ĠOpf
Ġgestattet
rischen
ĠSprecherin
Ġerlitt
ĠVietnam
ĠPrioritÃ¤ten
Ġinnere
knÃ¼pft
ĠAnhÃ¶r
hÃ¶ch
suchung
Seiten
ĠSteuerung
SI
ĠVermarkt
ausstattung
Ġ1200
rix
ĠTeilzeit
ĠKanzlerin
Ġzustande
ĠKrisen
ĠFarm
voller
Ġgestanden
ĠLandwirtschafts
ankt
ĠBaron
ĠRettung
wesend
ĠBiele
ĠSchult
Ġbenachteil
Ġeigenem
ĠUrheber
Ġwin
ĠSchlos
ĠBin
Ġbringe
ĠstÃ¤rksten
Ġhinterlassen
Ġdieselbe
vom
Ġverzwei
Ġansonsten
ensburg
ĠFÃ¶der
ĠBeamte
ĠarchÃ¤
eistern
Ġherbei
Ġbekamen
ĠÃľbereinkommen
ĠDick
anton
ĠherkÃ¶mm
Ġerweitern
ĠErfurt
instrumente
ĠLett
ĠzurÃ¼ckkehren
Ġsiegte
Ġenn
gliederung
ĠFast
ingenieur
Ġbrasil
Ġherange
SB
ĠSpa
ĠKorruption
ĠFreis
aris
ĠfÃ¼hrende
ĠspÃ¼ren
hner
Ġwissenschaftlicher
ĠWitt
Ġ1871
ĠKnoten
Ġendg
lÃ¤ser
bayern
ometer
ĠNÃ¤ch
geschÃ¤fte
ĠHD
ĠArbeitsbedingungen
opher
udi
ĠZwer
immy
ĠbÃ¶se
ĠRÃ¤umen
Bank
Stein
ildeten
Ġeinstellen
fÃ¶rmige
Ġbegangen
ĠMissbrauch
ĠunverÃ¤ndert
Ġmorgens
Ġpra
Davon
verbands
ichtlich
ĠKantons
Ġerfre
ĠJohnson
ESCH
Ġwahrgenommen
rain
atorischen
ĠLands
ĠAuÃŁer
ĠdrÃ¤n
ĠBeleg
sbedingungen
ĠKetten
otoc
ĠBeu
Ġintelligen
ĠHeu
Charl
Hinzu
hundert
ĠBurgen
Ġill
ĠKleider
Ã¤rer
ĠGor
Ġanalysiert
Ġeinher
Ġweibliche
Ġreine
code
Ġmessen
prin
enntnissen
ĠAusÃ¼bung
Ġetliche
Ġgeehrt
Ġbeschrieb
ĠKita
chengl
Ġschmer
amilton
ĠverschÃ¤r
ĠEPÃľ
ĠErwerbst
raels
Ġabsolute
Ġverringern
ĠNichts
difo
Ġsur
Fach
ĠAgent
ĠBetrieben
ĠFakten
Ġeinzuf
hou
video
show
Annahme
hd
ĠOptionen
ĠVolkszÃ¤hlung
How
ĠSed
Steuer
fla
reb
Ġ[âĢ¦]
ĠSarah
DEN
ĠGanze
ischten
ĠKinos
gehr
ims
ĠLeiterin
Ġbeigetragen
ĠGa
ĠCab
Ġeinheim
Ġweiblichen
fraktion
Ġmitgeteilt
Ã¼ndeten
stiegen
ĠBegegn
ĠNachbarschaft
Ġwachsenden
zweig
zil
ĠInsolvenz
ĠVerbesserungen
ĠPie
ĠMieter
ĠSÃ¼dwest
ĠPersÃ¶nlichkeiten
Ġzumal
ĠkÃ¼mmert
dienstleistungen
ĠSchiffen
schull
hythmus
ston
wache
Ġangerufen
ĠVergabe
ĠGutachten
Ġgriff
zylinder
sibil
ĠPetersburg
ĠMarokko
minuten
Ġkonfron
geschritten
dimension
ĠunabhÃ¤ngige
ĠDingen
dentif
osis
Aktiv
Halb
ĠEsp
hed
bury
ĠAfghanistan
ures
Ġausgehen
kapital
Ġabgebrochen
Wahr
Ġlobte
Ġbv
ĠgefÃ¤r
ĠzufÃ¤llig
ĠAmerica
ĠeigenstÃ¤ndige
Ġbrauchst
âĻ
melde
Ġfarb
Ġeingestuft
ĠhÃ¶chstens
ĠPhot
ĠSitze
emi
zessen
gne
sbeh
Ġdreht
ĠRÃ¼ckstand
ĠTreppen
felt
Ġverraten
ĠSanktionen
ĠJeff
marken
ĠBÃ¤r
ĠBehand
sprojekt
ĠSpektrum
ĠPoker
ĠFron
stÃ¼r
lr
ĠPapa
oria
velopment
Ġukra
Ġstattfand
emie
fÃ¼ll
Ã¨s
omÃ¶glich
Ġbeantragt
ĠEngine
ĠfÃ¶rder
ĠBronzemed
ĠPubl
Ġnormale
ĠZuhause
________________
ĠPassagiere
sprÃ¼fung
main
Ġrepar
Kannst
ĠReihenfolge
Ġwarnt
idae
ĠNachweis
ebr
ĠLukas
Ġbeantworten
ĠChile
ktik
ĠErzeuger
vertretung
Ã¿Ã¿Ã¿Ã¿Ã¿Ã¿Ã¿Ã¿
Bef
ĠErgÃ¤nzung
Ġumfangreichen
systemen
Ġ170
Ã¤ndige
ĠRin
ĠErneuerung
itch
kc
uj
sere
ĠAllianz
Ġvorbehalten
Ġklim
ĠHerrscher
Restaur
ĠVertretung
ĠDiam
Ġfreiwillig
orca
adr
Ġweiten
ungsleiter
Ġliegende
Rennen
key
schutzes
ĠSlowenien
ĠZahlungen
Ġbefreien
ĠAbfahrt
ysteme
Pokal
ĠGeschichts
Ġmeldete
%.
Ġif
angt
Ġpos
Verlag
ĠMicrosoft
Ġverlaufen
Ġverarbeiten
ĠApartments
Ġwund
Ġdemokratischen
ĠMontage
ĠJim
Ġnju
ped
ĠArtikeln
Schm
ĠSolo
ĠAUS
And
wachungs
GroÃŁe
Ġzahlreicher
ĠStraÃŁburg
ĠGefallen
OZ
messungen
Ġsang
osex
sparteien
Ġfrage
Ġerleichtert
Ġschuldig
ĠAngeklagte
Ġbleibe
ĠGul
arti
flÃ¼ss
Matt
boote
ĠErwÃ¤hnung
HÃ¤
produkt
Ġpotenzie
ĠTabl
Ġwasser
italien
stufen
ĠreligiÃ¶sen
ĠInvestitions
ĠSchottland
Ġbn
ĠÃ¤uÃŁeren
ĠPest
ily
ude
ĠGewichts
ĠKonver
ĠVersicherung
Fahrer
ĠRau
ĠGitarre
raums
Ġanzuwenden
sul
ĠSper
Ġuntereinander
ĠverfÃ¼gte
irur
ĠMalta
ĠDurchbruch
Ġdiesbe
Ġgewisser
ĠReichen
visor
Ġerinnerte
ĠBun
Ġweb
ĠRechten
ĠbegrÃ¼ndete
ĠZufall
telle
gelte
ĠIsol
Ġcom
Ġwild
ĠAndrÃ©
ĠWellness
ĠCou
ĠSynt
1980
Ġgeheim
ĠHold
ĠDritter
Ġgeeigneten
ĠVolkes
Kenn
Ġchemischen
Â§
ĠTransa
kh
Ġsilber
Ġlehrte
ĠHum
acion
ĠBegriffe
GER
untergang
Ġeingezogen
ersdorf
ĠStabil
Ġjapanische
ppich
Ġaf
Ġfeste
warten
rechtliche
Ġmoderner
ĠInfo
ĠNam
blig
ĠCross
Ġrevolution
Ġemp
weihe
anes
ĠReligions
ĠKolonial
ĠVersionen
ĠBlue
ĠAnordnung
hier
euern
Ġausgestrahlt
brunn
nÃ¤
ĠLandesregierung
ĠRektor
wirtschaftliche
ĠDigitalisierung
manden
May
ĠQualifikations
wik
Ġsowieso
Ġ(%)
ĠAusw
GEN
ĠDez
ĠVinc
Ġbequem
Ġjn
ĠBeweise
ĠManchester
Ã¶cke
Ġwollt
ĠCous
ĠFlagge
camp
ĠklÃ¤ren
Letzter
ĠtatsÃ¤chlichen
azar
âĢ¦âĢ¦
ĠRav
entschieden
Ġdankbar
ĠKarne
reihen
sthet
ĠExtrem
Cor
bre
Ã¼ster
NIS
zr
ĠSind
ÄŁ
Ġeinverstanden
ĠFlÃ¼chtling
oga
ĠendgÃ¼ltigen
Ġerstmal
Ġgezielt
kilometer
ĠGeschlechts
ĠGedicht
ĠWÃ¼rttemberg
shafen
ĠkÃ¼rz
stationen
ĠRecher
Vertrags
ĠaufhÃ¶ren
ĠProduzenten
Ġ230
sor
mÃ¤rkten
ĠLeichtathletik
ĠÃ¤uÃŁern
ĠSpanisch
ĠBestehen
zufrieden
ĠPortal
ĠSyd
ĠWohnhaus
Ġversen
QU
status
rÃ¤nen
ĠKast
elf
ĠSalzburger
Ġkommende
Ġlegend
ogn
agegen
Ġzusammengefasst
Sieben
ĠCook
Ġunterstellt
steiner
ĠSchein
serien
ĠGaz
Ġunmittelbarer
ÄĤÅº
qq
uston
Ġpraktischen
ĠHeeres
ĠVermut
ĠangehÃ¶r
Ġsichergestellt
ĠSchmerzen
iegeln
ĠFeststellung
ĠWissenschafts
ĠdebÃ¼
ulous
ĠAuseinandersetzungen
ĠBoard
Ġenglischer
ĠBefest
mers
Ġheuer
ĠKZ
xy
ielsei
ĠSud
ĠNT
ĠVorgaben
ĠOrdnungs
Click
ĠLÃ¶s
steht
cles
ĠPublikationen
Mad
ĠIntelligenz
Ġ105
schÃ¤den
klinik
etwa
regionen
ĠLaus
],
ĠAngriffe
Ġlehnte
stimm
links
ogar
Somit
ĠGelt
ĠMountain
ĠKuba
ĠUrkunde
hebungen
ĠAusgangspunkt
Ġ1893
ĠZusammenschluss
zelle
1982
inderten
IEL
ĠeinschlÃ¤g
offs
ĠKi
ĠunabhÃ¤ngigen
schende
bon
bereichs
ĠBefreiung
kirch
Ġangewendet
merkt
steher
gerÃ¤ten
frem
Ġvielfach
iern
Ġbesetzten
quoten
ĠHundert
ĠClass
ĠMenschenrechts
ĠtÃ¤glichen
Ġvergleichsweise
mol
ĠNeck
ĠFilter
Mittler
ĠPseud
ĠBehinderten
Ġerzielten
Rev
ĠRÃ¼ckzug
Ġspiele
Ġbekannter
ĠSchiedsrichter
ĠBeseitigung
ĠReinhard
ĠPuerto
ĠkÃ¼nstlerischen
ĠParks
ĠPrioritÃ¤t
Heil
ÅĦ
tigem
ĠPlanungen
ĠreprÃ¤sent
ĠBauwerk
Ġaufgel
ĠAdd
BO
ĠWales
Ġtrop
athlon
Bewegung
festival
Ġerwiesen
Ġjtu
Ġumgehen
ĠOg
tagon
Ġbestens
Stuttgart
ĠKonsult
Ġbedeut
Ġelektrischen
agon
hf
mass
ĠAusbruch
Ġangel
ĠSet
Ġsrc
ĠStrategien
ĠlangjÃ¤hrige
ĠAufzug
Ġkanadischen
ĠTendenz
Ġverbesserte
ĠZweig
ĠBaus
MAR
ĠAuskunft
ĠKoffer
reibungs
Geben
Ġmde
opfen
ĠDemokratischen
irgend
quartier
Ġunglaublich
Ġcirca
ĠDoug
stagram
eds
ĠAlso
Ġverpasst
oko
ĠBraut
laster
jÃ¤hriges
ĠTai
ĠStuhl
schmer
Ġedm
ĠGame
''
ĠHeimspiel
ĠSha
Ġanzeigen
Ġkooper
riffs
ÃĦhn
metall
ĠInstand
arisch
ĠEF
ĠerÃ¶ffnen
></
ĠKonjunktur
datum
ĠRind
Mutter
ilden
Ġverstorbenen
wÃ¼rfen
Gewicht
ĠZubehÃ¶r
ĠFreiwilligen
ĠBegleitung
ĠSternen
ĠFlorenz
Ã¤len
Ġrechnet
Bin
Ġverspricht
ESAMT
ĠSU
ĠSchwie
lÃ¤ufe
Ġrespe
rekord
ĠGewÃ¤hrung
Ã¶hnen
Ġlautete
ĠPatient
Ġlandete
ĠSmartphone
agten
ĠStress
ĠProtokolls
Ġderart
Sowohl
ĠAusgangs
ĠBescheid
ĠFlo
pton
ĠBesatzungs
bÃ¼hne
ordneten
Ġmoral
Ġquasi
ĠExpedition
scheinend
ĠhÃ¶re
Jahres
ĠZielen
ĠStockholm
ĠAmtes
ansicht
ĠPion
ĠLeichen
ĠKlÃ¤r
ĠNag
Heinrich
Ġdme
Ġgetreten
skap
beschreibung
Ã¶tz
ĠPublic
irtschaf
Eis
ĠNichtraucher
Ġsichere
Ġverschoben
Ġfantast
ĠauslÃ¤ndische
ĠSenior
schefs
ĠFasch
Ġep
ĠDecken
Mor
Ġblauen
ĠQuell
ĠÃ¶fter
Ġeuer
lasten
Ġ115
ĠZinsen
ĠBauten
ĠKaufmann
Ġsinken
Herz
ĠTuS
ĠBeschwerden
Ġschaft
ĠÃľbereinstimmung
ĠsÃ¼ÃŁ
Ġandern
ĠHoffmann
eutet
ĠwÃ¼nscht
Schweiz
ĠKumpel
ĠAusnahmen
Format
Aktuell
jÃ¤hrig
ĠNSDAP
Ġausgeglichen
Ġras
sbesch
Ġunzur
online
Ġaufta
stift
EZ
siver
Ġaufw
disk
Club
Ġimpl
Ġverwaltet
ĠBeobachtung
Ġhohes
ĠZiffer
ĠgewÃ¶hnlich
Ġstehende
Ġstellvertretende
Ġ1800
ĠPhasen
ĠUnterkÃ¼nfte
ĠFred
ĠAngehÃ¶rige
ĠBewertungen
ĠCock
PL
Ġemd
lok
ĠBeute
Ġwieso
reuer
chengladbach
Trump
cv
hÃ¤fen
ĠHarmonisierung
grÃ¶ÃŁte
ĠPastor
ĠwÃ¤hlte
Lou
Ġerrichteten
iesen
vorsitzenden
ĠDuisburg
ĠWalt
ĠschÃ¤d
isp
ground
ieu
Ġ1888
ĠBereitstellung
endem
Ġstiegen
Ġdokumentiert
ĠChl
ĠErlaubnis
EIL
ĠTokio
Doppel
ĠzerstÃ¶ren
ĠUK
ĠMiner
ĠLinke
jektiv
ĠImmobilienportal
attle
iziner
ĠErober
ĠKong
onomie
ĠAnim
emens
Last
cess
Ġwach
Ġtp
ĠProphe
ĠBeat
Ġgeworfen
fcf
kasten
ism
Ġns
ĠAbwasser
ĠEntschuld
ĠLeu
ĠAnfragen
rauf
ape
BM
ĠGeister
Jack
itÃ¤re
amenten
eline
ĠSqu
FS
Ġbedeckt
ĠHÃ¶hle
owitsch
ĠKreativ
ierbar
Ġholt
nisch
ĠgÃ¼nstiger
Ġstattgefunden
Ġany
ternen
zession
Wirtschafts
ĠBoss
ĠBj
Ludwig
HÃ¶ren
DUNG
leichter
ĠFrÃ¼hling
ĠgebÃ¼r
ĠGleichgewicht
Wol
Sm
ĠInstanz
ĠVictoria
ĠSchichten
Bur
eingang
automat
Ġverglichen
Ġsicheren
hallen
Ġgelaufen
wÃ¤lte
Ġgriechische
ĠKey
Ġworauf
ĠHobby
utch
Ġbutton
Ġmassiv
wenn
versicherungs
Ġabgebaut
ĠSpring
Ġreform
ĠEWR
don
Ġbeigesetzt
lief
ĠZucht
ĠkÃ¼nstlerische
haut
Egal
Ġeuropa
utzend
ĠAutomat
Konzern
ĠGrei
Ġaufrecht
Ã¼cht
ĠCampingplatz
ĠKonstantin
ĠIsraels
ĠBedenken
aufwand
allas
ĠVorwurf
Ġniemanden
ĠMÃ¼hlen
Mobil
ĠenttÃ¤uscht
ĠLeo
ĠEUROPÃĦISCH
ĠZirk
ĠSerge
Ġeinzusetzen
ĠEric
ĠKÃ¤r
Ġsolch
ĠDifferenz
Ġles
ĠWeile
Ġschlossen
ĠJÃ¤nner
Ġhinauf
Machen
ĠDuo
Ã¼rtel
Ġdrehte
mitgliedern
dehnung
ĠGÃ¼l
ĠfÃ¼rchte
anka
hafter
ĠEingangs
ikern
ĠGent
ĠWahrscheinlichkeit
kÃ¤mpfe
brochen
irken
ĠBamberg
ĠFur
Statistik
ĠBald
idt
NG
Ġfungierte
Ġumliegenden
geordnete
Ġbefindlichen
ĠLondoner
ĠGraben
ĠgegenwÃ¤rtigen
ĠKommune
eiro
ĠLtd
Ġtt
ĠMedaillen
ĠSpez
Orts
Ã¤e
emeister
ĠEinstieg
Ġfuhren
ĠAnsichten
ĠKonstanz
VG
meyer
lÃ¤chen
ĠMis
Ġgi
binden
Volks
otti
ĠWitwe
essort
ĠSchlieÃŁlich
Ġesd
Ġhalf
figuren
bedÃ¼rf
Ġ\
omaten
ĠSpielklasse
ĠTi
ĠTol
ĠMagnet
ĠGewerkschafts
UK
Ġhu
ĠSchad
Ġtypische
Ġtem
ĠFÃ¤r
ĠumfaÃŁt
ĠLichten
ĠSchieÃŁ
cg
ĠStaatssekretÃ¤r
ĠEnts
mÃ¶glichkeit
fuhren
Ġschwieriger
verwaltungs
Ġhaus
oppt
sites
ĠGehÃ¤
risten
ĠAnwesenheit
Karte
cts
ĠVerbreitungs
ĠHels
iva
ĠDrag
Ã¶ffnungs
ĠGebet
hob
ĠClubs
ĠMath
herrn
ĠBreiten
Ġweiterentwick
ĠEmo
Ġausgegangen
Ġkannte
Solche
kranken
ĠTestament
ares
betreiber
Ġabsolviert
Ġoptimal
ĠParameter
ĠKilogramm
ĠSehenswÃ¼rdigkeiten
stÃ¼cken
umbia
Ġ1892
hg
ĠWahrnehmung
ĠBlo
ĠHeiz
rob
ĠProfis
Ġanzut
ĠBÃ¤cker
ĠPL
Ã¤dagogik
ĠFPÃĸ
bergt
Ġitalienischer
Ġanstelle
Ġbeteiligte
itÃ¤ren
ĠAur
MÃ¤nner
brunnen
Ġabgestimmt
ĠLeb
fÃ¶rder
wochen
ĠFreiheits
ĠDiego
ĠAblehnung
ĠAmarillas
Ġkontinuierlich
Ġstudiert
wender
ĠniederlÃ¤ndische
inens
tages
ĠBÃ¶rse
mp
wirtschaftlichen
ĠRote
ĠErzeugnissen
ĠschieÃŁen
Ġwhich
Theater
ĠAnrei
ĠBÃ¼chern
ianische
brachte
ĠSiege
Sw
iza
ĠeingeschrÃ¤nkt
ĠTan
ĠverÃ¶ffentlichen
ĠOsteuropa
ĠWiderspruch
1979
fuÃŁ
ĠTipps
ĠTrumps
sz
Produkte
ĠSaisonende
bewerber
aer
Ġgespeichert
ĠwÃ¼nschte
Ġschlicht
alitÃ¤ten
Kopf
Uhr
ĠFertigung
Ã¶lbe
ĠwÃ¼ten
ĠRinder
ĠTeils
ĠPsychologie
ĠTrinkwasser
ĠBewegungs
Ġbereitgestellt
neg
Ġumso
âĢľ),
page
Aktion
ĠKrim
Ġabgehalten
ĠDokumenten
Ġverhalten
Ġgelo
kau
warf
Fans
ĠVerordnungen
Ġrec
ĠStudierenden
ifizierung
motoren
Ġarmen
iop
Ġevangelische
ĠKonkurrenten
ĠNiger
rut
Nationalmannschaft
prot
oke
Ġideale
Liga
Ġbevorzugt
ĠProduzent
beitrag
hans
krafttreten
onna
ĠISO
ĠArzneimittel
ĠBaustelle
ĠUd
Ġeingegliedert
fb
Ġstarker
ĠHilf
ĠTote
liebe
feuerwehr
ĠDavis
icks
()
ĠWeich
Ġentstandenen
stÃ¤ndiger
ĠKreise
Ġerarbeitet
ĠIndones
anschluss
dik
ĠJar
ĠZins
ĠBedrohung
Ġstimmte
ĠrumÃ¤n
style
Ġhy
Wald
ands
Ġtechnischer
indel
ĠBienen
ĠWohnsitz
ĠEigenschaft
Ġunterliegen
Ġgestaltete
Ġvergleichbar
ĠEduard
ovanni
aktivitÃ¤ten
ĠÃĦmter
olin
ĠIb
Ġereig
ĠMatch
Ã¼chern
Ġeds
ĠArmin
rise
Ã¤tigen
ĠElektronik
ĠSammel
dep
Ġdse
ĠHandlungen
ĠVolksrepublik
Ġberichteten
CC
ĠRassismus
ĠAllen
ĠRas
vereine
ĠAbschaffung
suchen
affung
ĠMusical
ĠRechtsprechung
Ã¤tigkeits
zusagen
Ġvermisst
quer
ĠVerstÃ¤rkung
Ã¶pft
ĠLaser
etische
andinav
asy
ĠÃľberzeugung
ĠGÃ¤rten
ĠMomen
ĠEcht
denkmÃ¤ler
ĠVerdienste
ĠMei
DL
berts
Ġspeichern
erzeugung
ĠFaust
ĠFestsetzung
redite
Ġstudieren
ĠStreich
ĠEntdeckung
SM
ĠAli
Ġint
eer
ĠJunior
ĠFÃ¼ÃŁe
ĠErmittlung
ĠScien
plÃ¤ne
Ġangesiedelt
ĠNHL
Ġlieferte
Kilometer
Ġtrainiert
ietwagen
ĠGerÃ¤u
ĠVolle
Ġausgel
Rein
zufinden
ĠErdÃ¶l
ĠPiloten
ĠLength
PE
Ġaufgeben
ĠAusfÃ¼hrungen
Ġsde
ĠEinzelheiten
Ġsaniert
ilit
Ġeignet
Ġerhebt
ident
ĠPressemit
ĠrÃ¤
ĠMÃ¤rkten
round
ĠAngreifer
ĠOzean
Recht
bio
Ã¤uÃŁer
ĠÃĦnderungsantrÃ¤ge
ĠGeschirr
sprechpartner
Ġverursachen
Ġjetzigen
1981
ĠEcu
ĠAra
Hz
Off
ĠFlu
ĠRenaissance
runken
ĠStor
ĠVirus
Ġbewerten
ĠPlatte
arbon
ĠSynchron
ĠGEMEINSCHAF
schalten
Prin
Ġsl
ĠsÃ¤
ĠUmstellung
Software
Ġmater
ĠHÃ¤r
ĠArbeitsplÃ¤tzen
ĠGÃ¼nter
ristall
Ġergriffen
jugend
ĠEugen
Ġantwortete
Bran
reife
ĠWehrmacht
Ġkeineswegs
ĠgrÃ¼nden
betreuung
ĠSag
Ġregionaler
verzeichnis
Ġnegative
eler
ĠungewÃ¶hnlich
ĠBow
ĠPeriode
ĠWiedersehen
ĠRenov
Ġderer
Kontakt
Ġbegraben
ĠLaufzeit
ĠThem
ĠabgelÃ¶st
ĠiPhone
Ġ1894
ĠKÃ¤se
ĠBusch
emmen
ĠAnzeigen
ĠAussehen
ĠFracht
ĠDecke
ĠDennoch
ĠWissens
ĠAudio
enthal
Ġeinheitlichen
ĠVON
ussion
ĠRac
register
ĠAbbildung
ECD
Ġbeeindrucken
ĠVermittlung
Ġid
Ġjenseits
ĠGefangenen
Eng
sparent
inus
Ġheimischen
Ġstoppen
gerichtet
atives
Ġuh
befehl
olis
ĠEuropÃ¤er
Zentrum
ĠPutin
Ġbewahren
schuhe
Ġsank
ĠSonstige
Arabien
Bu
Ġesi
ĠdebÃ¼tierte
packt
Ġbrechen
illes
ydra
URIER
ĠKÃ¼nstlerin
Ġpolnische
Ġminim
ĠBruno
Ã¤uber
ĠPant
ĠDirk
blen
Ġgemeinsames
ĠGutes
galerie
Ġ1889
ĠSports
aton
ĠEichen
ogo
ĠWik
Familie
hls
Daniel
ĠZiegen
ĠZeichnungen
ĠListen
ĠCott
Ġgarantieren
ĠSitzungen
jagd
Ġteilgenommen
Ġdon
rea
windigkeits
ians
Ġmomentan
sturm
ipedia
Ġfolgendes
Ġerinnere
ĠAustria
rÃ¶m
rÃ¤nkte
ĠSchÃ¶
schaftliche
Ġordentlich
ĠSechs
fertigen
presse
Ġ1885
ĠStrukturfonds
consult
ĠFix
ĠAmtsgericht
Ġangestre
Ġberechtigt
PM
quid
ici
Ġqualifizierten
ĠMagen
testet
Ġhob
Ġkaiser
zeits
Ġeig
ĠEinbeziehung
ĠPrinzipien
mien
Verb
ĠStrÃ¶m
Reserv
Ã¤chtige
ĠModel
Ġaufzubauen
ĠPrÃ¼fungs
ĠLesen
gerecht
vy
ĠDoppelbett
ĠBook
Ã¤ums
ĠAnalysen
ĠSchlieÃŁung
ĠAuftrÃ¤ge
ĠNote
ĠEthn
ough
Ġdick
Geschichte
ĠStÃ¼tz
Ġprogramm
ĠWelle
Ġschme
ĠLuther
Ġvereinbar
ĠverstÃ¤rken
ĠSom
ĠBereitschaft
ĠLitauen
Just
ĠSystemen
ekter
Ġaufgerufen
ĠGroÃŁher
ĠFlugzeuge
Ġbild
Mitgliedstaaten
ĠMuskel
ĠFirst
HT
Ġfil
eisterung
ĠBreslau
ĠWorkshops
Ġkonzipiert
HP
ĠAgrarpolitik
ĠStall
Ġzitiert
Ġflach
Ġpotent
Ġaussieht
ĠParkplÃ¤tze
ĠYorker
beitrÃ¤ge
Ġvorgeworfen
ĠRussen
steck
ĠTermine
wahrscheinlich
folio
Josef
SL
kleidung
beding
Ka
ĠRoger
ĠMyth
ĠBÃ¤umen
Ġ2021
ĠAz
ĠiP
itees
Ġjeweilige
SchlagwÃ¶rter
ĠCer
Ġfund
Daneben
imo
ĠgefÃ¼llt
ĠSteve
tremulous
ĠAven
ĠAster
ĠRied
ĠkÃ¤mpfte
haven
Ġnegativen
ĠEid
Finale
Af
holungs
bem
ĠFÃľR
ĠPerformance
gebÃ¼hr
ĠDeal
ĠDutzend
ĠBefÃ¼r
Gesund
sun
tarif
ĠTony
ĠErdbeben
ĠfÃ¼nfte
ĠbegÃ¼nst
ĠErklÃ¤rungen
schlieÃŁt
ĠCHF
ĠGroÃŁvater
walde
Ġvorzeitig
vious
reiÃŁen
ĠMÃ¼he
izierter
Ġbedarf
stisch
ĠÃ¼bers
Ġehemals
deutet
Not
ĠEintrag
ĠChurch
ĠDublin
Ġaufhalten
FrÃ¼her
ynastie
ĠExil
ede
ĠArbeitsgruppe
Cont
ĠBesonders
ĠlÃ¤ngeren
Ġkombiniert
Ġverwies
istisches
ĠWid
ĠGir
Dienstleistungen
Ġgrundlegende
ĠPrÃ¤senz
ĠallmÃ¤hlich
Pil
steinen
ĠÃĸk
ĠSpreng
tpro
Ã¼chtig
ĠRott
Ġinnovative
ĠTechniken
ĠPressekonferenz
counter
Klicken
ĠFrequenz
Ġperman
ĠImage
sammlungen
ĠErdgas
ĠLiver
spektion
reter
NO
ĠGoethe
ĠLem
ĠHahn
Walter
Oper
Ġkandid
ĠSafe
ĠNationalpark
Ġverleihen
ĠShop
ĠFul
ĠCamb
ĠAnfangs
ĠBesser
Ġharte
Ġtypisch
ĠHarald
Ernst
egg
ĠSchacht
tellekt
Verband
nappen
ĠKÃ¶nige
Ġche
ĠNATO
Ġewig
delten
rah
sterben
ĠDikt
ĠZweite
itions
wolle
tee
einschlieÃŁlich
Ġseinerzeit
Darin
ĠKÃ¶nnen
ĠSprint
final
alli
Ã¼chtern
ĠProvinzen
ĠStandorten
wandlung
Nacht
Ġschaut
ĠHamilton
ĠBosch
ĠKorrektur
ĠSauna
Äĥ
Ġnacht
Ġke
ĠOrientierung
Ġsla
otz
etisch
aring
ĠHÃ¤fen
Sterne
cre
lli
Ġfreute
ĠOldenburg
Ġeinzelner
ĠTschechos
ĠPorto
ĠAuflagen
Ġenorm
ĠSchÃ¤tzungen
rechtlich
ĠBlÃ¼te
Ã¤hrungen
Ã¼chter
lehnen
ĠLove
Ġran
egr
ects
Ġspont
eti
Ġlebensl
ĠEbenfalls
mmer
ĠSchalke
ĠAthleten
ĠHÃ¼r
ĠTÃ¤nzer
Ġliege
ĠDrama
rÃ¤g
ĠNorbert
ĠEigentums
Gemeinde
lit
Ġindustrielle
ĠAD
Kunden
ĠMitgliedstaats
ĠSÃ¼dost
Ġzugest
4576
ĠAle
obahn
Ġ[...]
ĠPfad
""
zÃ¤
ĠEiner
brÃ¼che
Ġfjof
ĠNationalsozialisten
Ġ1891
Ġerwischt
Turnier
inois
ĠMacron
title
ĠCouncil
pra
Ã§ois
DIE
Ã¤isches
Ġschar
ĠRoboter
Ġfreundlich
ĠInkrafttreten
ĠTyps
Ġdienten
Ġkorrig
ĠRente
ĠAnschlag
Eisen
yan
ĠFraktionen
becker
Ġkonfrontiert
speicher
ĠHolland
Ġumgekehrt
ĠSack
See
etischen
ĠgeÃ¤uÃŁert
jd
Alexander
raham
Ġmill
ĠBie
Ġschwanger
ilo
welche
Ġlebende
ĠCarlos
Tem
Rom
ĠGesprÃ¤chen
ĠNapole
ĠCorporation
lach
uerst
Weltmeisterschaften
bayerische
Ġwunderbar
sters
Ġungew
ĠgewÃ¤hren
Ġrealen
ĠDrachen
ĠAnlauf
ĠGemark
ĠHugo
Ba
gee
ĠÃĦnderungsantrag
ĠVerlags
Ġsuche
ĠSoldat
SH
ĠDNA
ĠBalk
ĠlangjÃ¤hrigen
ĠWarschau
ĠUs
Ġantiken
ĠStandorte
ĠZentralbank
Ġmittelalterlichen
ĠRuder
ĠUntern
Ġbegegnen
eku
mannschaften
ĠSchwarzwald
Ġbrut
Ġinstallieren
iri
itektur
Ġerkannte
Raum
termin
ĠPist
Ġirgendwas
ĠLasten
ruhen
arbeiteten
arnt
utze
durchschnitt
Jemand
sigFree
ĠjÃ¼ngere
ĠCarolina
ĠZiegel
stÃ¤ndigkeit
sigFreeId
bri
inki
Ġgezahlt
ĠVerdienst
Ġbundesweit
Ġgewohnt
ĠgrÃ¶ÃŁter
ĠBelast
istern
Ġexklus
respon
Ã¤ts
ĠZÃ¤hne
Ġsm
Ġ360
trock
aldate
standes
onanz
Ġbescheiden
schaftlichen
zeitschrift
ĠBronzemedaille
ĠLav
otocac
KR
764576
iccaldate
Ġnachfolgenden
ĠRahmenbedingungen
ĠPos
Ġ240
Antwort
eli
olph
merkung
Ġserviert
Ġsorgten
Ġbrennen
ĠTrier
Ref
Ġumgebracht
ĠIdentif
sko
Ġdeze
Ġ***
dule
ĠChaos
ĠÃ¼berwinden
gard
vania
ĠPay
Ds
bezogene
vl
streben
ĠKein
Fa
ĠWarn
/-/-/-/
ĠVerbÃ¤nde
ĠWÃ¼ste
ĠberÃ¼hmte
ĠStreitkrÃ¤fte
hÃ¶fen
ĠInformatik
lava
ĠdÃ¼rfe
ĠAngestellten
aunen
alts
ĠTemp
inea
ĠFlÃ¼chtlingen
Ġerlitten
ĠErfordern
Ġgestrichen
Ġverteilen
pension
fx
mission
Ġih
ĠhinzugefÃ¼gt
breitung
betrieben
ĠVil
ĠDenken
Ġanwesend
ĠAuswertung
Ġwirtschaftlicher
ĠBeschÃ¤ftigte
ĠFraktions
Ġpal
ĠAuffÃ¼hrung
Ġwendet
handlungs
Ġriesigen
ĠSz
ÑĤ
ĠAct
Ã¶pfen
Ġsiebten
ĠSeelen
Immerhin
ografen
ĠResidenz
ĠHere
Hu
fingen
LÃ¤ndern
Ġsingt
ĠhÃ¤ufigsten
ĠDietrich
yg
Ġstring
ĠsÃ¼
ĠgrÃ¼nd
ĠregulÃ¤ren
alisierte
ĠHimmels
vu
Ã¶stliche
Bahnhof
Olymp
oleranz
ating
Ġwiederholen
ĠSiemens
Ġnament
ĠJahrhunderte
ĠMedikamente
uda
Ã¤rzt
Ġasi
ĠerÃ¶r
zeugte
Album
ĠMarin
drom
aba
rente
Ġpflanz
ĠInstagram
Ġoptimale
reuden
ĠAuswÃ¤r
ehst
down
Ġidentifiziert
ĠBuck
Anfrage
ĠEw
ĠFunde
Ġaufwend
ĠAnth
ĠgelÃ¶scht
erkennen
ĠNi
finanzierung
ĠWerks
ĠGedÃ¤chtnis
sperre
liessen
strÃ¶m
ĠWirksamkeit
Ġkass
Ġ(-
ĠTut
Ġangrenzenden
ĠHeilige
ĠCharlie
ĠgÃ¤be
aufgang
ĠStark
blenz
Ġlit
Ġgesamt
Ġenthaltenen
ĠWater
ÃĹ
ĠdurchgefÃ¼hrten
Einfach
ĠBochum
Hann
Ġkehrt
ĠRolf
Ġtanzen
outube
Ġfehlte
ĠJeder
Stell
Ġgrossen
ĠTelefonn
ĠFlur
zit
ĠBlitz
Zuerst
ichern
Ġverpasste
ĠErkrankung
ference
ĠStudiums
Ġverbracht
ĠSend
atorische
eburg
Ġeinheitliche
Ergebnisse
ART
Ġzugute
belastung
ĠDev
Ġanrufen
Ġstetig
Ġprominen
ĠKonflikte
bereitschaft
Ġvorbereiten
igation
ĠHandwerker
orthodox
Hom
zio
mak
andelten
ĠHumor
gere
ĠDurchgang
Krieg
mauern
ĠLass
ĠBauf
rohungen
wiki
laufenden
rogen
ĠTrin
genda
Ġfliehen
ĠÎĴ
Quote
ĠAutorin
Jean
ĠHÃ¼tten
Ġzeige
ĠWÃ¤lder
Ġ(;
Ã¼hen
Ġentspr
ĠAwards
ĠRezept
weet
Ġmonths
Ġgetestet
Betrieb
zeitige
Tal
geschnitten
Download
Ġ1866
ĠErt
kreises
ĠBug
stex
mos
ĠSunday
"><
ĠRend
ĠPlen
ĠGerÃ¤ten
Ġln
Ġ1874
ĠLap
gewÃ¤sser
Darauf
ĠIndikatoren
mischen
ĠKram
leite
ĠLex
ĠOran
Oft
ĠGesetzgebung
ĠGalax
LÃ¤nge
ĠSPÃĸ
run
pag
ĠBielefeld
ĠmÃ¤nnliche
ktors
verse
renzung
ĠNachkommen
ĠBusse
ĠSchock
ĠSchrÃ¶der
sprÃ¤sidenten
ĠPhotos
hÃ¤us
Ġunzureich
spol
Ġidentisch
ĠRadfahrer
Hoff
Ġwussten
Wa
ĠProtagon
hose
Werden
Ġparlament
ĠDÃ¼sseldorfer
ains
ĠInterpretation
ĠDissert
ĠgÃ½s
Ġnachrichten
ĠSoft
Ġtraurig
usste
Ġverank
Verwalt
ĠBesonderheit
Ġradik
kru
ĠDemokraten
WE
ĠPad
ĠStudios
iments
ĠWestfalen
Ġabends
ORD
ĠZwie
Ġbearbeitet
Ġlegten
ĠFriday
ĠLiverpool
Ġrechtliche
urger
ahu
fac
Wirtschaft
ĠWut
Ġbefre
ĠJam
stÃ¤dte
cuba
ĠendgÃ¼ltige
ĠregelmÃ¤ÃŁigen
ĠAnhÃ¶rung
ĠAusarbeitung
Autor
produkten
ĠEinfluÃŁ
orer
Ġbricht
SK
Ġgesellschaftliche
zg
Ġiran
ĠCour
Ġ750
ĠDram
ĠCharlotte
ĠNetto
ĠInschrift
amarillasl
ĠWies
ĠFI
ĠBock
Ġphilosoph
ĠKonzepte
ierender
Ġtiefen
Gast
obs
Ġleistete
wanne
ĠTrik
ĠwofÃ¼r
drÃ¼cken
Fort
ĠHÃ¤ft
braun
psych
ĠEinsÃ¤tzen
ieben
Ġvereint
ĠGregor
ĠLegende
herz
alla
ĠCastle
Ġzwangs
ĠbegrÃ¼ÃŁ
ĠLisa
ĠÄĮ
ĠPlatt
auspieler
Ġlove
sprogramms
bekÃ¤mpfung
hese
ĠSchÃ¶pf
Station
ĠSÃ¶der
Ġhinterher
aufsicht
ĠerlÃ¤uterte
WF
etra
Ġzurecht
ĠEtage
achus
ĠBuen
Ġzwingen
upe
ĠTrÃ¼
Ġdez
ĠgrÃ¼ne
ĠDistrikt
ĠWÃ¤nde
ĠlÃ¶st
Ġbemerken
leutnant
ĠDeshalb
Ġeigens
Invest
ĠThursday
Ã¶ffneten
Ġnimm
Ġfur
Ġhistorisch
Ġgeltend
vorschlag
ĠFreitagabend
Leg
ĠEuropap
kong
Ġdecken
leichen
ĠClaudia
Rhein
EFA
ĠFlusses
Ġbewiesen
ĠPrÃ¤sidentschaft
ĠOder
ĠFernseher
Ġbvg
villa
ĠSorten
grafen
verbo
ĠPharma
Einmal
Ġeinzig
ĠBeachtung
ĠBasil
ĠBarb
ehrung
ĠGieÃŁen
Ġalarm
Ġinteressieren
ĠwomÃ¶glich
ved
dee
Ġfestgehalten
eigenen
Ã¶rtlich
Zahlreiche
probleme
Ġvertrauen
Ġherzustellen
esday
ĠEtappe
ĠReichweite
KÃ¶l
Ġgelebt
gebunden
ĠSchokol
Bre
ĠLeber
MAN
ĠWerder
WER
hofft
Pre
ĠermÃ¶glichte
ertor
trat
Ã©d
wunsch
ĠkrÃ¤ftig
ĠmÃ¼de
Ġargumen
ĠOri
Sat
Ġeingel
Ġharten
rb
ĠReformation
Archiv
ĠUntergrund
gebietes
ĠMedaille
phia
tia
ĠSnow
filme
ĠNachbargemeinden
ĠGod
ĠElektriz
anzeige
Ġglobale
ĠAction
Ġinmitten
ĠTruppe
ĠLebensmitteln
ĠZwill
ĠKanad
Cal
Ġverfasst
ĠBenutzung
?",
Ġvorhandene
Ġpunkt
ĠCharts
ĠVÃ¶
ĠGlobal
Ġsofor
ĠausgerÃ¼stet
drei
ĠAufsichtsrat
Ġeil
ĠWend
Ġfir
py
ĠNutzungs
Jes
heitlich
ĠImper
ĠSabine
Bot
ĠKatal
Fo
schwitz
ĠgewÃ¤hlten
ikanten
ĠLungen
Ġ1875
Ġlebens
ĠLeih
auto
vens
ĠDiebst
ĠEbenso
div
ĠSK
gemÃ¤
ĠAnders
ĠGumm
weden
ĠKathedrale
Ġbedeutete
Ġentz
ĠRotter
Ġvorlegen
ĠTorhÃ¼ter
ĠSilv
sporter
azit
ĠstÃ¤ndigen
ĠWolfsburg
ĠCB
ĠLuftfahrt
ĠAirport
ĠRTL
Mittlerweile
liegende
sylvania
ĠunzÃ¤hl
ĠEvalu
rm
ometr
Ġherein
ktisch
ĠKrieger
aug
Ġ@
Ã¤mmen
franzÃ¶s
ĠKolumb
ĠKick
ĠDB
Press
ĠAktivitÃ¤t
ĠColumbia
Ġthere
Schlaf
ĠSklaven
alente
Ġnachvoll
ĠgrÃ¼ndeten
iwod
helfen
ĠTeich
emmt
mangel
ĠOstsee
brief
iod
Bekannt
partements
Ġausser
immungs
Vater
Carl
egn
oid
ĠFuss
bestÃ¤nde
geladen
vm
ĠMater
ĠDesigner
Ġmitunter
ĠgemeinnÃ¼tz
ĠKommandeur
ĠvollstÃ¤ndigen
schub
ĠHeiden
Auto
Ġzeichnete
Ġlaufende
tausend
ĠPersÃ¶nlichkeit
onomen
worth
ĠÃ¼berliefert
Ġunbesch
ĠTexten
ĠGastronomie
entscheidung
ĠInszen
ĠProv
lh
ĠkÃ¤mpft
ĠTrio
teor
reibe
ĠCover
ĠBoots
ĠPflanze
Ap
ANDEL
lee
vie
ĠReicht
ĠGÃ¶tter
ĠSydney
unft
metern
obi
ÈĻ
Ġfinanzieren
ĠVerschiedene
ĠGewÃ¤hr
ĠPader
korde
Spanien
ĠEntschÃ¤d
Ku
Mac
tÃ¤tigkeit
Ã¤nkischen
kommun
ĠJobs
WÃ¤hlen
ĠYe
Ġerweiterte
Tran
Ġeingesetzten
igr
Ġerledigen
Dur
ĠbrÃ¼
ĠtÃ¶d
Win
ĠWednesday
Ġ4000
zuhalten
ĠSingapur
ĠRichtungen
gelder
izz
stehend
trÃ¤ger
ĠBrat
Ġherzlich
Ã¼e
ĠAbfÃ¤lle
ĠUnterrichts
ĠKit
Ġbinnen
ĠErholung
ĠÃľbergabe
Ġcomm
Demnach
Ġeinzeln
sprinzip
eing
Ġhorizont
Ġrede
ĠVogt
ĠgrÃ¶ÃŁerer
Link
ĠKÃ¤lte
ĠTam
jk
ĠHaben
ankungen
ĠTouren
izabeth
ĠAbd
Ġnachhaltig
Ġ(),
ĠPflichten
istry
Ġweiss
Baden
Ġfing
ĠCard
Ã³w
onnement
bringt
Ã¡s
Gest
ĠGD
Ġfangen
ĠStory
ĠSaf
ĠVeter
ĠZoo
Rob
Ġausb
ministers
unch
ĠHed
Veranst
suchungen
ĠVertrauens
ĠSalv
Ġbedienen
Ġgrundlegenden
Tom
ĠTaylor
auben
nik
ĠBenn
esende
ĠEstland
reserv
funden
mÃ¼n
bestimmung
arben
ĠEinstellungen
Ã¤ndischen
Ġumgehend
Ġungen
geschÃ¤fts
Ġbitter
ĠDiagnose
chtenstein
ĠzulÃ¤ssig
ĠDÃ¼
>>
grÃ¼ndung
ĠPfalz
ĠConc
hungen
ĠTheat
Allgemeine
Ġunber
uzierung
Ġunbekannten
Ġwestliche
Rel
">
duktion
Ġinf
ungsweise
ĠVorschlÃ¤gen
ĠZusammenhalt
Ġdunklen
ĠTicket
Frankfurt
steigerung
ĠGot
ĠSektion
Ġanwend
ĠÃľbertrag
atus
Niederlage
ĠLiebling
ĠSamuel
Ġschickte
minton
ĠCho
ĠGie
Ġgrosse
ĠVirginia
Ġattraktiv
ĠBT
roid
ĠKoalitions
Ġherunterladen
Ġ1879
alm
ĠGremium
UrsprÃ¼nglich
Ġwettbewerb
ĠDemonstration
icherte
ĠMehrwertsteuer
ĠTuesday
ĠFlasche
rypt
Sil
ĠBegeisterung
ĠSÃ¼damerika
ĠHanse
ĠBut
giene
ĠMinderheiten
SSR
ĠBerechn
Ġadministrat
gemeinschaften
kommand
Ġtarget
Ġsor
ĠElect
EE
Ġwpo
riechen
imler
ĠRico
nord
ĠDokumentarf
Ġbesieg
eitern
ĠTechnology
bewegungen
ĠEL
ĠAuftraggeber
ĠWeiler
Stimmt
Ġmarkiert
ĠzukÃ¼nftigen
ĠÃ¤rzt
Ġeingehalten
europa
phil
Ġermu
Spiele
Ġaustralischen
ĠKÃ¤mpfe
Ġ1887
ĠMonday
install
William
ĠScher
ĠEinschrÃ¤nkungen
Ġumzusetzen
forme
ehre
shire
sÃ¼d
denz
Andererseits
ĠfÃ¼hlte
ĠZa
ĠJahrest
ĠZeuge
)".
ĠLED
ĠSymb
ĠNass
rer
ĠSerbien
ithm
ĠBody
oge
Entschuldigung
ĠDifferen
ĠerwÃ¤hnten
Ã¤chern
ĠHur
ĠEntschlieÃŁungsantrag
Linie
nungszeiten
ĠHighway
Ġsinkt
mensch
ĠBrad
spricht
Ġeinzigartige
ĠPens
Johannes
ĠÃ¼bermittelt
Ġnachweis
ĠSymptome
ĠMÃ¼tter
elta
ĠJurist
ĠSynagoge
ĠKollege
zes
Ġlangem
Ġ1868
Ġabgeleitet
Ġorganisierten
ĠflieÃŁen
Ġarbeiteten
onente
Ġeffektiv
ĠSchaffen
eihen
Moment
ĠGur
ĠWi
Ġ1867
ĠDess
ĠHalbjahr
ĠPropert
BIL
schee
ĠDei
diensten
ĠVorles
zubringen
Ġverwandelt
Vorpommern
Ġqualifiziert
dim
kompeten
zh
miral
rte
venten
kÃ¤mpfen
ĠBod
ĠMessung
Ġgeredet
Ġportugiesischen
ĠKÃ¶r
bezogenen
Ġeingemein
ovac
gottes
Ġkontaktieren
ĠnÃ¤chstes
Ġunternahm
ĠErdogan
ĠBrauerei
ĠTrÃ¤nen
Ġamtliche
ĠRoma
TB
ĠBriefe
Ġ210
Ġ1886
rive
Produktion
ĠLastwagen
immte
ĠOberÃ¶sterreich
ĠLan
serklÃ¤rung
ĠSchirm
ĠJersey
Char
stage
ĠMeine
ĠÃ¼berschritten
Ġkonvention
ĠTenn
Ġvorgegeben
Ġjenem
tremen
ĠPow
Ġschwedische
Dauer
ĠNummern
Ġtheir
viewtopic
Boot
zenzen
ĠBerichten
Ġmithilfe
itat
FlÃ¤che
Ġungesch
Tri
ĠLebensjahr
itÃ¤n
Ġscheinbar
130
ĠSkulpturen
kaufen
Ġbetre
entz
Teilnehmer
ĠGrÃ¼ne
ĠPia
ĠUser
iasieger
einem
ĠstÃ¼rzte
ĠPerspektiven
Ġhar
ĠLaura
ĠregelmÃ¤ÃŁige
modelle
ommy
Ġaufbauen
ĠLock
Ġerneuten
ĠKnei
ĠReport
Ġexternen
eistungen
leidete
%,
IO
Ġkat
oldt
irus
ĠSchub
ĠWeiterhin
ESCO
ĠGleis
felden
Ġveranl
ĠWuppertal
Ġformuliert
ĠBenzin
arab
Ġbilater
ĠDiensten
Ġarabischen
Tro
ĠUhren
ĠBehinderung
ĠUmstrukturierung
ĠGewissen
ĠerhÃ¶hten
fotos
ĠSozialdemokraten
lg
sat
ĠBuk
design
ĠFound
ĠGlÃ¼cks
ower
adelphia
BEI
ĠdrÃ¼ben
ĠUSB
Ġbezeichneten
icz
Ġtjdi
uta
fÃ¼hrende
Forschung
ogene
Ġhervorge
ĠValley
Rec
ĠAy
Ġnationalsozial
scheinen
rong
ĠFlaschen
Ġvorherigen
Ġintegrierten
ĠHonig
cio
ĠWoiwod
Ġbeherbergt
ced
Ã¤uft
ĠNachkriegs
ĠGÃ¼te
Uns
vogel
ĠBetriebssystem
Coach
ĠZweiter
Ġorigin
Sechs
ĠErfindung
ĠZusÃ¤tzlich
rike
bing
Ġanzunehmen
Ġkorrekt
amme
arius
ĠLeut
manischen
Ġkro
ĠBegleit
ĠAttent
ĠbekÃ¤mpfen
ARD
ĠPur
Ġstandard
MP
Ġzunehmende
Auswahl
ĠAufsteiger
bewohner
ĠExperiment
Val
leiterin
ĠAmm
esheim
springen
beamten
Nachrichten
Ġerhaltenen
bekommen
ĠItaliens
nerin
versuche
institute
Ãľb
wird
ĠUnglÃ¼ck
Handels
Ġ1872
ĠElfmeter
ĠMagn
phys
Ġungarischen
rauben
Ġseltener
ĠLeer
bels
tennis
Ġ1884
tigkeits
ĠFlash
studio
Ġtransportiert
schle
ĠberÃ¼hrt
Ġgesungen
Ġmangeln
ĠverstÃ¤rkte
ĠLeinwand
ĠVat
Ġvorliegt
ĠSpinn
ĠVergnÃ¼gen
ĠCass
Ġsportlichen
ographische
Ġwolltest
ownloads
ĠGeschÃ¤ftsordnung
Box
ĠLewis
Richard
schichten
iftet
ĠnÃ¶tigen
ĠAusschreibung
ĠFBI
Ġbeauftrag
Ġvermieden
ĠMayer
ĠPon
trags
eche
ĠAires
Ġposition
ĠChristine
ĠUpdate
Ġcn
Ã¼nkt
fie
ĠBischÃ¶
Ġanzusehen
geordneten
anks
ĠNiederÃ¶sterreich
TION
Ã¶lzer
Ġoffener
Ġunerwar
Dra
achtete
ĠÃ¼blicherweise
ĠKommandant
ĠVolker
inseln
jÃ¤hrlich
Ġgeschossen
Ġrenoviert
dan
Ġother
standards
Net
ĠIhm
lef
ĠBosnien
Ġkaputt
Ã¯
ĠWester
Ġerm
rez
vinz
personal
Ġlanden
lÃ¶ser
Ġzahlt
Ġangegebenen
schreiber
WIRTSCHAF
Ġ--
uo
pdf
ĠEndr
ĠPrinzen
sin
Ġlokaler
Abst
ĠOperationen
fristige
brÃ¼cken
ĠLight
owitz
ĠstÃ¤dtische
ĠPorsche
Ġhinweisen
ĠEinzugs
rud
musiker
Ġkop
Ġheftig
Ġzugewiesen
Dad
anto
1978
TERN
ĠTR
Ġversorgen
ĠNationalen
prise
Mc
Reich
Ġerfreut
ĠBeschlusses
ĠReeder
ĠArbeitnehmern
orger
ĠMonster
ĠHeid
liesslich
gebir
letzten
Ġangemeldet
ĠKai
magazin
ĠVollen
Ġphysikal
pes
ĠKÃ¼nd
ĠVorbereitungen
Ġwertvolle
ĠgÃ¤n
ĠNoti
ĠzukÃ¼nftige
orno
Ġbezog
Ġreichlich
ĠsorgfÃ¤ltig
Ġfurcht
pressum
ĠMallorca
onstranten
nischer
ĠÃĸVP
Ġentsprach
foto
Ã¶rer
Ġdumm
Ged
Ġwachsende
Sing
ĠMÃ¼ndung
enta
Website
anforderungen
ĠEntlassung
ĠUnterbrech
armee
ministr
Ġstraf
ĠbeschrÃ¤nken
GlÃ¼ck
MB
Mt
ĠPhilharmon
ĠNeapel
Erstmals
ĠSpeise
ĠGegenzug
ĠSupermarkt
keller
Ġheutzutage
Verzei
Ġunterschrieb
db
Ã¼tzlich
Ġsenken
ĠVerstoÃŁ
beauftragten
rena
INE
nÃ¤chst
otherapie
Ġ).
Ġroad
wil
ĠMoor
Anton
ystems
ĠNG
ĠPiet
stor
endigung
Mietwagen
instrument
ĠKriegsgefangen
Ġlangfristige
Pan
cep
Ã¤tzchen
Il
ĠAnsÃ¤tze
ĠJura
Ġverdeut
Ġindischen
ĠMÃ¼nzen
Entscheidung
ĠbewÃ¤hr
ĠModerne
Ġsyn
zielen
ĠSiedlungen
Bro
Ġec
ĠJonas
nf
Ġcle
stÃ¤dten
Ġmarkt
Ġ1873
214
Dre
ĠBesten
ĠMotive
urb
ĠEarl
ignal
Stellung
Ġbereiten
ĠOhne
vÃ¶gel
ĠMinisterprÃ¤sidenten
ĠPrix
ĠWis
ĠPropag
umpe
verletzungen
olt
Ġ/></
ĠMittelbayerische
ĠGeschlechter
Ġerlangen
ĠOf
lÃ¤uft
Wi
oping
file
ĠGm
ĠNordwest
ĠpÃ¤dagog
AE
Ġletztendlich
ega
Histor
ĠDynamik
ATT
ĠRegiment
utung
ĠLÃ¶sch
alisierten
steurop
Clau
Ġfind
ĠBibliothe
pfalz
ĠmÃ¤chtig
ĠNat
sergebnisse
ĠVerleihung
Presse
varian
ĠStÃ¶rungen
illigt
ĠVermarktung
ittee
Ġdemselben
ĠLehrstuhl
Wohnung
ĠWohnraum
ĠErÃ¶ffnungs
ĠTatort
Ġ1882
ĠCorps
ĠErfassung
ĠCambridge
ĠKatze
abhÃ¤ngig
skar
ĠCheck
Ġ1881
vit
ĠstÃ¤rkere
Ġtfj
agnost
Sonstige
unternehmer
Fel
ĠNetze
nachlÃ¤ss
ĠBonus
ĠAufteilung
gebend
cha
Ġerfunden
Ġdritter
Ġinten
ĠAlbums
ĠGipf
Ġloc
ĠTuch
Ġirre
Liebe
ĠOxford
ĠIron
olischen
ĠgleichermaÃŁen
nehmlich
cond
gelernt
Familien
werkstatt
ĠHild
GrÃ¼n
alp
schern
upport
Maxim
Ġschrittweise
ÃŃk
ĠMÃ¶nchengladbach
ĠUrug
ĠMoon
Ġsynt
ĠÃ¤hnliches
gb
Ã¤rkt
ĠausgewÃ¤hlten
tainment
ĠPrÃ¼fungen
sprÃ¤
ranke
ĠDob
Ġenthielt
Bayern
Ġgib
ĠLyon
ĠerwÃ¤hnen
Ġwho
ĠEtwa
ĠGewebe
krimin
ĠNavy
ĠHelsinki
ĠORF
ĠHochzeits
wissenschaftlichen
enr
Î±
uls
Ġther
icer
ĠSpannungen
Sollten
tional
City
kredit
ĠfÃ¼gte
Ġvermehrt
ĠMauern
ĠGedichte
GrÃ¶ÃŁe
News
ĠVersprechen
verhandlungen
faktor
Ġsprich
iege
achusetts
ĠPfor
ĠEvangelischen
Tja
artiger
ĠFlieger
NU
Ġherz
ĠDekor
Ġirischen
funktionen
brecher
bauern
Ñģ
ĠSekundar
ĠMais
ĠOrtsteile
ĠZentrums
Ġner
istenten
Ġtreu
ĠProduktivitÃ¤t
ĠgewÃ¼nschte
ĠTorwart
Ġzeichnen
eib
ĠFlie
ĠStraÃŁenverkehr
112
Ġdiesel
Ġfortsetzen
obei
ĠPolizist
standort
yright
Ġattack
Ġgesunken
ĠannÃ¤h
Ġhattest
Manager
Ġeinfluss
ioden
tius
schne
olly
James
ĠRoch
worte
Sr
HK
itus
ĠGeschwister
ĠInflation
ĠAbgaben
World
ĠGrundstein
Ġschwimmen
Ġfit
Ġolymp
ĠInsbesondere
PPE
rÃ¼ÃŁ
ĠKleid
ĠHauptstraÃŁe
Winter
igend
owo
berichten
Ġcu
Ġgenauen
250
scheiben
Ġwork
gleis
cos
fse
ols
Ġnamentlich
Ġbrauchte
Ġ1883
igl
Ġtanz
ĠWilson
Ġhm
ĠschÃ¶nes
ĠTelekom
ĠZeitungs
ĠStolz
Ġerlaub
hoe
Tex
ikator
Ġandauern
ĠMessen
ĠRevision
Ġliest
ĠBinnenmarktes
Ġspir
ĠKatastrophen
tech
ĠGeschehen
ĠfÃ¼llen
Ġeindrucks
ĠunglÃ¼ck
ĠflÃ¼ss
genannten
Ġexp
Andreas
ĠJahresende
ĠErforschung
bourg
hub
ĠPoint
ĠHaftung
ĠGib
ĠAnkÃ¼ndigung
echter
ĠAuftreten
ĠHardware
ĠGemeinsame
spektor
Ġentfallen
ophon
ĠÃ¤gyp
ĠPflanz
lade
Ġredet
Ġkurzzeitig
flÃ¤ch
ĠTrends
Ġom
Ġhalbes
ĠPit
ible
ĠNiederlagen
ĠQueen
ĠGottfried
arien
ĠToronto
'm
plus
Ġerneute
View
Ġwhat
PT
kenntnisse
Seitdem
ĠKompromiss
zubilden
Ġprofessionellen
ists
Ġisraelischen
Ã¤mm
Ġgeschl
Stattdessen
begriff
ĠKontinent
ĠBedingung
Et
Ġefn
ĠUnfÃ¤lle
ĠMittern
verschmutzung
ĠBeobachter
ĠPier
Ren
ifikation
ĠVereinigtes
ĠVulkan
ĠVerbund
umping
ĠTurin
Ġwere
ĠSchen
ĠImport
Ġsexuelle
nk
Ġic
ĠTraditionen
betriebs
ĠAlger
ĠKatastrophe
ĠÃĸsterreicher
ĠIndustri
eie
ĠFalls
ados
ĠreligiÃ¶se
cul
ĠAusblick
ĠStrich
ocaust
ĠAchtelfinale
Auft
ĠAnbet
hmann
ĠSchmel
beauftragte
maier
wechslungs
hammer
Ġbeding
Ġverant
********
ussell
ĠUrlaubs
Ġerfolglos
Ġwertvoll
Ġausgerechnet
ĠLieferanten
Ġeingenommen
ĠForschungen
Ġbeeindruckt
Lebens
Ġjegliche
Zeitung
ĠFundament
ĠDarstellungen
schlaf
Ã¤chse
Ġthey
einnahmen
ĠFeinde
sextrem
Ġunterird
Ġgegliedert
ĠKent
USS
ĠOECD
âĢĿ,
Ġdatiert
dc
ĠGnade
rene
ĠAbteilungen
augen
istum
Ġinterne
Lange
Sieht
Ã¤sse
Deutsch
ĠGiovanni
Jedoch
ĠFerienwohnungen
ĠPrÃ¤sidentschafts
JÃ¼rgen
ĠWerft
rador
Ġmathemat
Ange
berufen
Anna
ĠDissertation
ĠdÃ¤nische
zeilen
ĠWirbel
zs
ĠausÃ¼ben
ahlen
helfer
ĠOffice
ĠKonstru
Ġtravel
ĠanschlieÃŁen
Ġschoss
ischte
Ġverbundene
ĠAnsprechpartner
CA
iy
ĠGeneraldirektion
ahll
ĠBog
Spezial
ĠBeleuchtung
Online
Ġtransparent
bewertung
behalt
Ġordnungs
Ġumbringen
geschlecht
ĠNight
Ã¶ses
Sand
irurg
ĠInvestment
ogenen
bf
ĠCav
ĠVollzeit
bildern
europ
FOR
ĠJag
GemÃ¤ÃŁ
ĠIG
Ġangestellt
ĠMittele
ĠMarcus
Ġwechselt
Ġrem
ĠFreder
mÃ¤ÃŁiger
Ġkreis
rÃ¼ckte
Ġdenselben
ĠZuhÃ¶rer
naden
kraftwerk
fÃ¼hlt
ĠgestÃ¼tzt
Ġanzubieten
Ġxj
ĠErkrankungen
ĠRechtssache
Ġintegrierte
bruchs
gram
Marie
Ġentkommen
Ġflexi
mmetr
Ġlt
hÃ¤s
wertungs
Ġfortgeschritten
Ġvergleichen
ĠData
Ġruhigen
Ġ1878
Ġzunehmenden
analy
Ġnachhaltigen
icy
ĠWoll
ĠDeckung
sturz
ĠBeendigung
ELLE
ĠSchulleiter
ĠBerger
ĠPfeil
ĠPick
ĠSpeisen
ĠZentrale
situation
Ġunterrichtete
ĠApfel
ĠFF
lande
ĠES
104
gerichtshof
esters
geschichten
fÃ¤lischen
Ġidentifizieren
diot
ĠAusweitung
ĠEms
ĠChristopher
Habe
CE
Ġbeantwortet
ĠÃĸsterreichischen
Ġaufweist
Ġbegehr
Ġwander
ĠPraktiken
ĠÃ¼berwie
ĠKasten
offizier
ĠBonner
ĠNachhaltigkeit
hinter
fries
schÃ¤r
ĠFavoriten
ĠAirlines
berechtigt
Ġkolle
consultants
ĠBegegnungen
ĠBv
ĠHerzogtum
ĠTageszeitung
ĠDreiÃŁig
Ġzwischenzeitlich
udad
ĠBetrÃ¤ge
ĠComic
ĠLj
ĠVizemeister
ĠVeget
utes
ĠEhrenamt
ebung
lÃ¤d
ĠKoblenz
zukommen
ural
ĠÃ¶rtliche
ĠWeltraum
ĠAxel
ĠEins
Ã¤chsische
cat
igeb
Richtig
Ġtha
loh
ĠBakterien
ĠInstrumenten
ĠSehr
Ġ1876
700
damer
Ġ1815
grÃ¶ÃŁen
Ġ1861
ĠChallen
bee
Ġabsolvieren
fertig
ĠgewÃ¼nschten
Schutz
ĠOffensive
ĠReduzierung
Ġlernt
ĠChal
ĠArsen
Black
Division
puertor
ĠSandstein
Ġverschaf
LÃ¶
gens
ĠKamin
ĠgerÃ¤t
mittels
article
Mn
prinzip
arz
puertorico
ĠAstron
ĠSE
ĠdrÃ¼cken
Hamburg
ĠHaag
zien
Ġreiche
ĠTreppe
Ġzustimmen
spflicht
friedhof
ĠDest
kins
genossenschaft
Â¬
ĠSamstagabend
ĠDA
ĠtÃ¤tigen
ataillon
finger
ĠTauch
ĠHirn
Ġkostenlosen
ĠRebellen
Ġgeschenkt
Ġbeseitigt
Ġgemeinsamer
Ġfehlende
iose
ĠSelbstmord
Ġbeseitigen
ĠReden
Ġstatistische
Ġbelastet
ĠFÃ¼ÃŁen
ĠTiefen
methode
Verl
ĠStet
gebenheiten
ĠSchlosses
zÃ¼gigkeit
Ġjemandem
ĠKette
ĠPend
skraft
verw
)",
ĠAusgra
ĠDafÃ¼r
ĠBesonderes
Stefan
Kolle
ĠHerkunfts
ĠErden
steam
nig
Regel
Ġerkl
ĠSophie
Kol
Ġversichert
Ġgescheitert
Ġwidmen
gesprÃ¤ch
Ã¶ser
1000
ildete
ĠIngenie
lland
ĠnÃ¼tzlich
iami
auna
Ġsteigenden
eback
ĠWiederein
ĠCampus
ĠKÃ¶rpers
reie
ĠRotterdam
ĠFont
Ġreservieren
ĠSupport
ĠIndian
gÃ¼nst
Ġbetreten
ĠKrem
Ġhind
ĠSusanne
ĠAbriss
Ġ1840
berechtigten
zc
pielen
ĠrÃ¼ber
klam
Ġorientiert
sprozesse
ĠDraht
strasse
Ġschwierige
bÃ¶r
ĠErlÃ¤uter
ĠbewÃ¤ltigen
ĠRÃ¤umlichkeiten
ĠConst
Geboren
ĠLokomotiven
aumen
ydraul
Ã¶hr
ĠKletter
220
ovis
ĠGewinne
ĠPassagier
ĠrÃ¼ckte
ĠBenutz
ĠUNESCO
eminar
ĠSparkasse
uchter
Personen
Ġwozu
teams
Sommer
fÃ¼llen
ĠLebensraum
westlichen
Ġbeurteilen
Ġexakt
ĠAufruf
fuÃŁball
egal
ĠgeringfÃ¼g
Kategorie
ĠMeier
sperr
enix
Ġlohnt
ĠWiese
ĠRedakteur
stellter
ĠkÃ¶niglichen
Ġsignif
ĠGrabst
Ġaufgewachsen
Ġhervorragende
ĠHC
ĠChrom
Ġmake
ĠHung
ennten
ĠTschechoslowakei
ĠZeugnis
Ġreinen
ĠSax
Mat
locken
schauer
tions
ĠEure
Ġvorgeschlagenen
ĠEinsatzkrÃ¤fte
OH
ication
ĠDevelopment
ĠEvents
pfte
Ġentspringt
Ġbaro
ĠHaushalten
tÃ¼r
Ġminder
Ġgesetzlich
ĠAusdehnung
uschen
Ġverletzte
ĠDozent
ĠMinn
ĠGallen
ĠBuÃŁ
ĠErziehungs
izen
ĠMeÃŁ
ĠkW
ĠClark
Ġstammende
Ġ380
egra
blank
ĠSatzung
ĠBuenos
Ġapartment
ĠDj
OW
flucht
ĠHÃ¶hlen
Ġglaubst
ĠEffekte
ĠAbgabe
ĠFotografie
Ġmax
Ġrechteck
ĠTiroler
ĠObergeschoss
Ġsexuellen
ĠDog
bele
antrieb
ĠAS
imer
Ġernsthaft
Ġlebe
Ã¬
Ġkrei
erhalt
ultan
kandidaten
Ġtiefe
redakteur
ĠWork
ĠgerÃ¤um
Tat
Ġfreigegeben
hÃ¤lfte
geschicht
ĠEUROPÃĦISCHEN
Ġbinden
Reihe
ĠEndspiel
sub
ĠgroÃŁartig
ĠÃ¤lterer
ĠgewÃ¼nscht
ĠBorn
Ġfilm
Joseph
ĠAccess
ĠGoldmedaille
ĠHack
ĠrÃ¶mische
Ġwitz
ĠStellungnahmen
Ġdarauffolgenden
ĠAnleger
Ġkol
stellbar
Ġsee
Ġhotel
ĠAuszeichnungen
Siehst
Ġnc
ĠVegas
Ġwohnte
Ġaktiviert
ĠRechtswissenschaften
ĠPeru
Ġgood
Geld
Ġae
Ã¤nke
ĠwÃ¼nsche
Ġantworten
ĠPortrÃ¤t
ĠBÃ¼rgermeisterin
revolution
ungel
ĠGam
ĠHubschrauber
ĠLettland
Ġsd
Ġerwies
Erd
Ġfamili
Ġangebaut
ĠTickets
cHFFFF
Ġversamm
Ġeingebunden
Ġverschaffen
ĠKlimawandel
ĠValencia
Ġdurchschnittlichen
Union
Ġfolglich
Ġ1862
Ġ1851
uzz
ĠRessort
ĠÃĦuÃŁerungen
Ġ1865
Ġkrimin
shut
ĠerwÃ¤hnte
etty
Ð¾Ð
Ġgoldenen
ĠKorea
ĠZwar
Ġdeutlicher
Initi
gc
1977
ĠVII
Ġrass
Ġabweichen
Samm
werfer
ĠSchwÃ¤b
ĠTakt
Ġriesige
ĠOpel
Agentur
gewinnung
Ġneuem
elson
ĠJahn
ĠPaulus
Ã¼berwachung
Ġhervorragend
ĠHT
Ã¨res
Ġdt
Weltmeister
ĠBVB
inental
ĠInnovations
ĠBeet
opping
greifende
Zehn
abilitation
icip
ĠPressemitteilung
Ġfehler
ĠGood
ĠnÃ¤h
ango
uez
aufbau
Ġbegleitete
ĠVorgang
ĠAtelier
roller
ihr
afrikanischen
Os
arbrÃ¼cken
richtlinie
Ġ1869
Ġentstandene
ÃĦnder
ĠAnweisungen
ĠPennsylvania
ĠAlternativen
ĠMohamm
Ġerrang
herapeu
ĠDiakon
="_
Ġweichen
Ġmitnehmen
ĠFerner
still
ĠMotivation
ĠSaturday
ĠLehrerin
ĠAbraham
Ġunbeg
ĠSof
karriere
ĠFox
ĠWerkzeuge
zweige
iniert
nest
ĠGeduld
ĠImmer
ĠzusammenhÃ¤ngen
ĠHonor
ĠWeine
fis
ĠInterviews
ĠOP
uelles
ĠPhiladelphia
ĠElementen
lÃ¶sungen
ĠBundeslÃ¤ndern
ĠbemÃ¼hen
ĠMarburg
rar
enni
ĠSiz
ĠCourt
ĠZelle
Ġkunst
zenen
Ġ320
pc
provis
ĠOliv
Ġassozi
ĠbrÃ¤
ĠPRO
ochte
ĠWiederherstellung
ĠCalifornia
ĠProst
Ġbetonen
Ã¼ndungen
ĠPeters
Ġlachen
ĠId
qm
ĠKlimaschutz
Moder
ĠAuftrags
Ġmassiven
Ġregeln
ĠUrauf
ĠMagd
professor
ĠÃľbereinkommens
ctions
ĠfrÃ¶h
ĠRasse
edn
Ġerfolgreichsten
ĠAbtei
ĠJacques
Gro
ĠLars
ĠBlum
ĠTante
More
Ġangenehm
ĠBrosch
ĠNahen
ingend
Ġ102
ĠSilbermedaille
zk
gio
Ġherausfinden
Ġkritische
ĠgefÃ¤rbt
spolitischen
ganz
ĠBorg
Ġkommunalen
ĠSozialdemokrat
ĠPac
ĠMarina
ĠPremium
-"
Ġdeutlichen
ĠAutoritÃ¤t
ĠEconom
ĠWÃ¶r
ĠEinzelnen
busch
Ġumgest
Ġbelief
steilnehmer
wÃ¼rde
ĠUmlauf
KÃ¼
ĠScholz
haar
ĠEmission
Ġmonatlich
Ã¤us
ĠWeihnachtsmarkt
Ġangemessene
ĠBeil
Ġkennst
Ep
ĠOrigin
fellos
ĠUmstand
Ġbegegnet
NS
schmerzen
Ġsauer
fische
ĠFlecken
Ã©t
freundlich
ĠBrett
ĠZentren
ĠJÃ¼d
Zw
Ġ1864
fiel
Festival
Ġrom
Partei
Ġtechnologischen
verÃ¶ffentlich
Ġumfassend
Ġzulassen
ĠInnenhof
ĠAquar
fÃ¼hrenden
ĠFahren
platzes
Ġdeines
ĠPeg
ĠZorn
ĠMT
ĠFren
Ġsportliche
Ġgelte
GrÃ¼ne
ĠThÃ¼ringer
ĠWladimir
ĠPlayer
ĠwÃ¼s
Ġlehnt
ĠÃľbung
Play
ĠStaff
Ġaufbew
ĠOver
ĠLud
illo
tiago
ĠBlech
ĠschÃ¤tz
ĠBehaupt
Ġteilzunehmen
endel
ĠGren
splÃ¤ne
ĠResultat
ĠHerd
pielt
Ġschickt
tures
ĠAtl
ĠstÃ¼tzen
Ġbetrachte
Ġserb
Ġgross
krebs
idad
sbuffet
IAL
cam
ĠKennzeichen
Tun
Ġprofessionelle
Ġ111
szene
ĠGert
Alter
okl
skop
Kapitel
abgeordnete
Ġunbest
ĠMeistertitel
Ġbesuchten
uti
ĠpopulÃ¤r
Ġhochwertige
ĠHohe
ĠSpielfilm
Ġverabschiedete
ql
ĠVerhandlungs
Ġlokal
Î¿
ĠNerv
onda
Ġbetrunken
swerte
Roll
HD
noten
ulationen
irurgie
Ġdetaillierte
inken
vergleich
Ġleidet
rina
Ġkritischen
ĠschÃ¤tzt
ĠPaare
ĠSÃ¼nden
ĠHilde
ĠRast
skirche
icus
ĠZigaretten
ligist
ĠLegislatur
Ġgegeneinander
ĠKommen
elia
Ġlocker
poten
Ġentfernten
ĠTrei
ĠhÃ¤r
Rud
tisches
ĠSÃ¤tze
Ġbeinhalten
Hy
bier
ĠMaschinenbau
medien
Liefer
FÃ¼hr
ĠAbends
lebten
ĠÃ¼berwacht
ĠHEr
AAAA
ĠunnÃ¶
ahles
risiko
ĠMusch
ReprÃ¤sentantenhaus
grem
Ġerforderliche
ĠBeschrÃ¤nkungen
Ġnutzten
Ġgegessen
ungszeit
ĠKasse
ĠAnnÃ¤her
ĠBadminton
HMEN
ĠLack
Ġeingemeindet
zugang
ofern
Sogar
bewahrung
bereitet
Ġunmittelbaren
Ħ¢
dell
ĠDarsteller
achtal
ĠKomÃ¶die
ĠWille
ĠÃľberwachungs
Ġverdanken
lowakischen
ĠGehÃ¤use
ĠShang
ĠVerfasser
Ġ1877
ĠGebÃ¼hr
ĠVerleger
fers
ĠNebel
strei
ennetz
ĠColor
ĠVerwandten
edr
ĠTeppich
ĠSubstanz
Ġmak
ĠMie
Ġquadrat
ozial
ĠKessel
ĠEntspannung
ansion
ĠPrevious
Fehler
ĠDefizit
IZ
ĠDamm
Experten
kW
uture
ĠFi
EIST
ĠStudent
onische
ĠProzeÃŁ
Ġhinteren
Jac
ĠStrahlen
sth
irland
ĠRevier
ĠRusslands
ÃĪ
iverse
Ġherstellen
ĠCli
Ã¼mern
ĠPetra
Ġvielsei
Ġintensive
ĠErnÃ¤hrungs
nick
ĠNatÃ¼rlich
Ġmuslim
nem
ĠHandwerks
wieder
ĠMÃ¤ngel
ĠZugangs
Fotos
ĠBauernhof
maÃŁnahme
ĠaufgefÃ¼hrten
Bislang
priv
png
greif
ĠBadewanne
Ġunauf
hode
If
ĠDresdner
Ġkennengelernt
Original
eiermark
ĠFrisch
ISCHE
eri
schullehrer
ĠSho
Mass
ĠLenk
ĠausfÃ¼hrlich
Ġihc
vorschlÃ¤ge
investitionen
1945
ĠQualifikationen
iee
efo
kreu
ĠBewerb
ĠScheiben
Ġetabliert
Bon
OLIT
Ġtreibt
ĠMose
ĠBestre
ĠBurk
siedlung
Ġeuren
ĠEsch
ĠBegleiter
Ġ1849
'.
Ġfs
Ġ(=
ĠJahrgang
ĠGlanz
ĠSchÃ¤d
ĠLandwirt
Ġverpflichten
ĠEZB
ĠFormular
ĠZeitalter
alon
Ġdekor
suchten
KK
viert
ĠFerrari
ĠWeit
Ġ1830
ĠMiller
Ġtaucht
ĠPilger
ĠInnenraum
Ġdeutet
ĠStoffen
ĠgÃ¤ng
Ġvertik
kohle
ĠLÃ¼n
ikte
rÃ¼stungen
schreibung
ĠClin
ĠGÃ¤n
Ġsome
wiese
Ġunweit
Ġafrikanischen
Ġdefinitiv
ĠberÃ¼hmt
Ġverstecken
ĠErleichter
Bundesstaat
ĠProfession
LS
streck
IX
Ġdringen
ĠLieben
Otto
ĠFlÃ¼sse
dann
ĠunverzÃ¼glich
ĠAgenda
ĠBatterie
isemitismus
ĠFA
Ġkonsequent
aha
ĠWohnen
EntschlieÃŁung
sletter
erbe
ĠdiesjÃ¤hrigen
ĠGrÃ¼
Ġgeschw
anuel
ĠFeu
merkungen
ĠFachwerk
ĠKate
unterkunft
ĠTechnische
ĠDiÃ¶zese
Ġspannend
ingo
ĠgÃ¼ltig
ĠstÃ¤ndige
ammung
ĠSchwimmbad
Ã¼ndigen
Ġradio
Ġverbreitete
ĠBÃ¶den
nde
ĠBeratungen
ĠTreib
flich
etzungs
Ġbeibehalten
laubst
ĠStadium
Kin
ĠChi
ĠBÃ¤ren
Polit
Ġverwiesen
stecken
Ġerfassen
ĠSyl
Ã¶ster
zutragen
sv
Ġkompletten
ĠFrances
Nik
ĠMusikern
ĠAkadem
ĠAlice
Ġverteidigt
strich
Ġwarnte
ĠFoundation
ĠzÃ¤hlten
Ġhasse
ĠOfen
Zen
Ġqualifizieren
Ġeinsetz
jw
onel
ĠElbe
uw
brett
ENT
Keiner
ĠJubilÃ¤ums
Ġabl
ĠStephen
ĠOrganisations
ĠItaliener
sts
Ġfremden
ĠSomit
iversitÃ¤t
ĠgefÃ¤hrlicher
ĠSpanier
ĠBefugnisse
ĠKuh
ĠBoy
boo
Ġfeind
ĠInvestor
Verbrauch
setzungs
atlan
ugt
Ġbeheben
Mannschaft
ĠMount
ĠDÃ¤m
ĠNev
ĠUlm
vre
ĠJedoch
ĠSammler
kenn
Ġ104
Suche
ĠAbkÃ¼rzung
ĠfÃ¤ngt
ĠPublikums
ĠInnovationen
ĠRÃ¼ckseite
ĠDiplomat
ĠZuwachs
Ġknow
Ã¤pst
ĠgÃ¶tt
Ġlook
ĠBroad
ĠSende
spezial
ĠFreistaat
Ġhinunter
Abteilung
ĠHarz
hir
ĠMarathon
ĠWerten
ĠgÃ¤nzlich
ĠHeirat
bourne
Interview
ĠKru
entsprechend
Karten
ĠunterhÃ¤lt
ĠEpisoden
Ġpersonen
Ġverschlossen
1975
dringen
quenzen
ĠAusflÃ¼ge
114
Design
Ġunder
ĠInnere
Ġback
Ã¶ver
Ġgewusst
125
Ġ#.
Ġfehlenden
ĠKonzentrations
FrÃ¼h
ausgleich
Ġtesten
Ġberuhen
ĠNAS
strÃ¶
Technologie
auswahl
ĠWy
ĠNÃ¤hr
ĠCountry
imb
ĠGenuss
sprÃ¼chen
ĠÃ¼berregion
Ġgewiss
Ġstammten
ĠHeilig
sachen
blÃ¼
Sicherheits
ipper
Ã¼bertragung
cent
ĠFreundes
ĠDÃ¶rfern
sendungen
Ġgelei
ĠZinss
ĠDebian
ĠSib
ĠauswÃ¤hlen
ministration
ĠGB
Szene
Ġbeleid
Ġwidmet
Ġerweiterten
ĠBundesver
Ġblickt
ĠschÃ¤tze
ĠSees
Wow
Ġkomplexen
Ġmulti
ĠGord
ĠRick
KURIER
gefallen
ĠTrick
Ġrestauriert
ĠUrteils
Ġcar
ĠSchÃ¼lerinnen
ĠAri
aufgabe
ĠNordkorea
ĠEcken
uments
ĠAmtsblatt
materialien
frequenz
Links
Entwick
ohan
ĠHl
ĠstÃ¶ÃŁt
Wolfgang
ĠSonnabend
Mess
ĠDemo
sstaaten
bÃ¤ume
Ġ190
decker
ĠÃ¼ben
firmen
zugreifen
Ki
mittelte
Ġbesiedelt
![
Ġbefestigt
faden
ĠPunk
EGKS
ĠPfe
ĠFlughaf
ĠangehÃ¶ren
Ġfo
abis
Wr
ĠDIN
Ġerfordern
Ġkoll
beschÃ¤ftigung
unrein
ĠParken
ĠEmer
nea
PN
beide
Maschinen
ĠAffÃ¤re
ĠEinnahme
kriterien
ription
Ã¤rzte
Ã¼chten
erium
ĠReb
Ġprivater
Zweitens
ĠPfle
Ġlet
ĠErreichen
ĠPrÃ¤fekt
Registr
ĠCos
Ġerschienenen
irkt
sportler
garde
ĠED
ĠFortuna
mitarbeiter
ĠEingliederung
ĠSÃ£o
Ġvornehmen
ĠSubstanzen
ĠStro
ĠKristall
Voraus
ĠTischtennis
Ġdrohen
ĠwÃ¼tend
gendet
ĠRache
ungslos
ĠHierbei
Ġhaupt
Ġablehnen
QL
ĠVÃ¶l
Ġinneh
gÃ¤ngig
Ġahn
ĠHolocaust
Ġgesetzliche
itals
ĠJohanna
Donald
Ġsog
ĠSpace
Disk
flikt
CDATA
Ġkomplexe
suche
ĠZeitplan
Ġstrategischen
Ġunbekannte
ĠKonditionen
Ã¶stlicher
ĠKlassenerhalt
sprojekte
bewusstsein
figuration
beihilfen
ĠGemarkung
ĠQuoten
ĠbenÃ¶tigten
anzlei
ierst
indliche
ning
ĠKameras
Can
ĠMent
Ġteurer
TIG
preuÃŁen
ĠWieso
ĠgehÃ¶renden
ĠNÃ¼rnberger
Ġdesign
Benz
ĠRT
Ġzeitlich
ĠMemor
masse
Ġreagierte
ĠPropheten
stark
Ġ%).
sbank
ĠProduktionen
ĠHolding
hem
ĠSteinen
mÃ¤ÃŁigkeit
Ġherrschte
ĠZeilen
mf
ĠfÃ¤h
gerung
Out
erw
ĠAufstand
Ġviert
ĠOrchestra
eball
PrÃ¼
chsen
ĠStirn
ĠMajest
ĠDennis
gendetwas
pres
Song
aver
strand
ĠTromp
Ġfliegt
ful
ĠErscheinungs
Ġgewartet
ĠCN
Ġbeschuld
ĠMitbegr
Ġkommerziellen
Ġrefle
ĠVolkswagen
Ġ<![
ĠGruben
ĠWÃ¶l
ĠSteffen
ĠVortrÃ¤ge
tauscht
mÃ¶gliche
ĠWeiden
ĠErzÃ¤hlung
ĠAchtung
ĠAufschwung
ĠRegime
Ġeein
Ġresultieren
preisen
ssitzung
ĠIndonesien
ĠÃ¼bte
Ã¡r
Ġoblig
entliche
ĠkÃ¶nntest
ĠRB
Ġea
Ġschriftliche
ĠTelefonnummer
Bleib
shall
ĠEqu
Ġwissenschaftlich
ĠSciences
ĠEinleitung
Van
ausstrahlung
Ġnu
CHF
Staats
1976
ĠMittagessen
schÃ¶nen
ĠLuftfe
ausbau
George
ĠBann
okratie
Laur
ĠNeuf
ĠBBC
ĠGeschÃ¤ften
ĠEtik
Ġobere
Gruppen
ĠKonsul
Ġdankte
ĠVamp
igers
ĠHoheits
Ã±a
ĠJordan
ĠfÃĥ
ĠHindernisse
Ġihrerseits
oyer
ĠMinderheit
power
EGEL
ĠfranzÃ¶sisch
Einsatz
vd
ĠApplaus
Interess
issa
Medien
operation
rÃ¤umt
ĠWÃ¼rde
Ġvermuten
Belgien
oba
ardi
ĠHad
Ġonly
ĠMitternacht
China
ĠDown
ĠAhm
leister
Ġinsofern
ĠausgedrÃ¼ckt
zwecken
Ġsammelte
ĠProperties
WEI
ĠJess
Ġbehielt
LA
ĠFalken
schÃ¼tzer
ized
sÃ¤nger
ĠWoiwodschaft
ĠEinheim
spÃ¤t
ĠBaureihe
ĠKali
ĠAnzeichen
Bald
Dateien
aca
cean
ĠEtagen
ĠLippen
ĠÃľberreste
ĠgrundsÃ¤tz
Ġstrategische
ĠZolltarif
ĠUnder
Ġvollem
France
Ġworaufhin
ĠLis
blau
rict
Ã¤nk
Bn
ĠRhythmus
ubel
ĠRuÃŁ
Ġangesetzt
ĠMerz
London
ĠKem
ĠHSV
Ġ1863
ansas
Ġunein
barung
Ġvorgetragen
Ġnirgend
ĠLuis
ĠTeen
ĠErmittlungs
usp
ĠDEN
ĠProteste
Ġfrischen
kandidat
âĨĴ
anj
ĠGefÃ¤
ĠOstern
ĠbenÃ¶tigte
Ġaltes
Ġforme
ĠplÃ¤d
aise
Ball
rauchen
Ihm
moder
Ġchar
Ġpassende
ĠFrÃ¼hstÃ¼cksbuffet
wc
ĠParadies
ĠHartmann
ĠAlm
ĠTru
Ġfreilich
ungsbereich
ĠKut
Ġff
eltern
gge
ĠSeries
Ġweich
zutreten
dle
ĠSchmal
ĠEntwickler
ĠZugehÃ¶rigkeit
ĠHofmann
drÃ¼cke
Ġrep
ĠsÃ¤chsischen
Ġmancher
ĠSchuljahr
Ġjuristischen
ĠVia
arin
ĠVielleicht
ĠSachschaden
ĠFinanzminister
Ġleuchten
ĠToilette
Halle
ĠSpaniens
ĠHuber
HÃ¶he
ĠGletscher
Ġjahrelang
unds
ĠGelder
ĠErzeugnis
ĠLandgemeinde
ĠNit
ĠRE
ĠVertriebs
riechenland
Ġabstra
miss
Ġverkauften
ĠtÃ¶dlich
bleib
Zer
ĠSiegfried
ĠUnterscheidung
Ġglatt
Ġ106
ĠKopie
ĠFranzÃ¶sischen
eill
ĠMitglieds
Ġbekomme
ĠBriefwechsel
ertoire
ĠJh
ĠDance
Ġverwandt
MÃ¼
ĠEllen
ĠWeser
malt
ribution
Ġlen
ĠSalon
befug
ĠVerk
Ġleistet
Ġentschuldigen
ĠAnfÃ¼hrer
ĠSac
Ġ108
ĠTil
Ġbeanspr
ĠFÃ¼hrerschein
ĠSchÃ¶ne
Bud
ĠJen
Ġbeliebten
Ġstrateg
Ġhis
Track
ĠBech
ress
othar
ierra
nae
bauf
ohr
ĠLyn
ĠJava
ĠzurÃ¼ckgezogen
Zumindest
ĠgefÃ¤hrliche
ĠSozialpartner
gift
ĠMoos
klub
ĠAnwender
etit
static
ĠPaderborn
Ġbulgar
ĠgefÃ¤hrlichen
ĠSektors
VO
Ġgenossen
Ġabzul
ĠBesonderheiten
Ġschmerz
Ġtl
ĠHauptort
omenkl
ĠBargeld
oor
Ġechter
Ġpur
schon
ĠÃ¼bernahmen
agnen
Ġvorgesehene
ĠArtillerie
ĠInhalts
Ġnomin
lÃ¤ÃŁ
ĠEB
ĠEroberung
Ġspreche
Hermann
Ġnorwegischen
Ġojdiu
Ġzusammenarbeiten
ĠNeujahr
ĠSymph
ĠkÃ¼hl
ĠFlÃ¼ge
ĠDy
gess
ĠThal
sposition
Klass
rell
anteile
prov
Ġba
ĠGelb
Ġtechnologische
ĠTelekommunikations
ĠbegrÃ¼ÃŁte
Saturday
Ġeth
Ġlauten
Fal
ĠSara
ĠWann
ĠSeinen
Ġfrische
Preise
eif
Ġrussischer
uu
Ġrechtlich
bol
ĠArgumente
Ġliefen
wurfs
kurrenz
ĠZukunfts
tf
ĠMassachusetts
owina
enezu
arischer
ĠlÃ¶schen
Ġumsetzen
idsch
Ġdurchgesetzt
ĠHaushaltsplan
endienst
ifo
BÃ¼r
IND
Ġtrainieren
kontrollen
dition
Sek
Ġeft
Ġkonver
orph
Count
ĠProjektes
ĠVerbraucherschutz
ĠBuchen
ĠfÃ¼rchten
ĠSammlungen
!âĢľ
endo
cih
Event
Ġdifferenz
ĠNarren
ĠSchÃ¤del
ĠWohlstand
arrt
ĠHead
xn
Ide
Ġlebendig
infrastruktur
Ġgeforder
Burg
ĠStu
ĠAsche
Ġdefinieren
ĠKonvergenz
uge
ĠSeel
ĠLandesliga
Ġug
ĠfÃ¼gt
Wein
spezifische
Ġfun
hringen
kurz
ĠNadel
HÃ¶rt
ĠKabar
stal
Begriffs
abwehr
traum
strafen
Ġunend
ĠExplosion
ĠErlangen
Ġweiger
ĠbeeintrÃ¤chtigt
ĠLuftwaffe
Dagegen
KÃ¼nstler
ĠDemonstranten
ĠBuches
rk
Ġgutem
ĠZwÃ¶lf
ĠRÃ¼cksicht
Ġgewalt
ĠAndrew
ĠArmy
ĠUrkunden
spoten
Ġhabilit
order
Regen
Ġdirekter
Muss
ĠWirtschaftspolitik
head
ĠOhio
ĠKÃ¼nstlers
ĠSchaum
Ġerbaute
Ġerfolgreicher
ĠFreuden
ĠMitwirkung
ĠKarib
ĠBÃ¼rgerkrieg
undeten
feldern
illing
ĠverkÃ¼ndet
Ġintensiver
ancy
ĠLÃ¤ufer
acional
ĠAuÃŁens
Reise
sports
ĠMenÃ¼
uttle
Klaus
verbÃ¤nden
slation
ĠClaus
Dec
ĠBER
ĠAer
ĠTU
ĠDouglas
literatur
????????
stadion
Ġverbliebenen
sprozesses
ĠverstoÃŁen
ĠTÃ¼rken
ĠAusfuhren
ĠReporter
ĠLaufen
gd
boy
ĠPolitiken
ĠChinas
sammel
Gemeinschaft
Ġauswirken
WÃ¤re
Ġscheiden
Ġweitaus
ĠWasserstoff
Ġnl
resp
ĠUEFA
Ġibu
Ġbewirkt
Ġdunkle
oldaten
schin
ĠDaimler
Ġrelevanten
facht
Ġsterne
ĠUrsula
ĠMomente
mans
ĠHertha
faser
anschlag
hÃ¤ltnismÃ¤ÃŁig
known
oon
Hop
ĠHauptmann
Ġku
Ġgeistigen
mere
ĠBars
zettel
ĠUruguay
Real
ĠvergrÃ¶ÃŁert
ĠSozialpolitik
ĠÃĸkonom
schiedung
ĠverrÃ¤t
ĠEinzige
md
ĠAbbruch
ĠVolleyball
ĠPakistan
Ġinhaf
Ehr
Ġentnehmen
Ġerschlossen
minÃ¼
Ġbeheima
ehlshaber
ĠRegisse
Ġappell
ĠPoll
bling
ĠHaltestelle
Ġsynthet
ĠCA
ĠLev
Ġarchitekt
ĠFlughÃ¤fen
hire
ĠStÃ¶rung
gesprochen
ĠangefÃ¼hrt
ĠHongkong
ĠVincent
ĠSieb
iren
ĠÃ¼berlebt
enningen
reuungs
ÃĦr
Stadion
ĠBedÃ¼rfnissen
ĠsÃ¼dliche
ĠMeinungen
Ã¼ttern
ĠFernsehserie
ĠClemens
TSV
kraut
Ġpraktiz
Sec
gesetzte
ĠKrÃ¤ften
tÃ¼mer
ĠAlltags
ockt
amarilla
verlÃ¤ssigkeit
Schiff
ĠWilli
stet
odien
ĠAbzug
Ġbeantragen
ĠCrew
ĠWartung
Ġverlieh
klaus
ĠArschl
ĠAthl
auflage
inchen
gow
ĠBefragten
ĠWinterspielen
Roy
Ġanzupassen
ĠTÃ¶t
Ġrufe
Ġ103
studie
lime
ĠHosen
Holz
Ġsteuern
Tube
ĠMAR
ĠWelten
ĠZag
windigkeiten
ĠFeuerwehren
ĠUmwandlung
edi
Ġdieselben
ilding
Ã¶ntgen
ĠPage
Ġabs
ĠTerminal
spielerin
Ġ109
ierendes
osaur
Ġbevorzug
ĠKÃ¼rze
ĠErik
ĠLaien
hilf
flugzeug
ĠKompositionen
Ġinformierte
ĠLibanon
ĠRealisierung
Ġsicherstellen
Technik
exkl
ĠgenieÃŁt
Ġtre
guia
FÃ¼hrung
heid
Ġerlern
Ġzuhause
Ġergaben
aktive
ĠWurzel
ichtiger
alus
ĠWahnsinn
Ġbeeindruck
Ġ001
ĠKanzlei
.&#
ografischen
TM
Ġversprach
ĠTower
pur
omon
sonst
ĠAtlantik
ĠUnterzeichnung
].
Ae
Ġexterne
ĠRosa
wirtschaftung
sprodukt
ĠHus
ĠNationale
ĠVorrunde
book
wol
ĠFres
ĠRic
ĠParl
Ġerhaltene
Ġmitgebracht
ĠAuswÃ¤rts
Sub
ĠPilz
rf
ĠLÃ¤ng
ĠReflex
ĠCarr
ĠEdin
ĠSpielzeiten
ĠErwÃ¤
HAL
ĠCommittee
ĠTreiber
FU
schiffen
ĠSaat
ĠUngleich
ĠGerd
Ġlangfristigen
Ġblaue
itÃ©
ĠVolkspartei
sbeg
Hierbei
betriebnahme
Ġeingebracht
ĠUngar
intens
Ġbegab
ĠstÃ¼tzt
Ġsensi
artett
Ġ123
Grand
aman
ĠverknÃ¼pft
seitigen
ĠUdSSR
Ġmodif
gelegenen
just
Ġeingeschlossen
ĠSchwerpunkte
ĠZufl
Ġnachweisen
Ġbestritten
ĠCoburg
ĠJohnny
Ġbasieren
ĠSwiss
Ġviermal
Ġbefried
ĠEinbau
ĠGedanke
Ġschottischen
Ġuse
Schwarz
ietz
leihe
ĠWeinbau
8220
ĠCharter
darsteller
ĠDisziplinen
ĠAppl
ĠEsk
ĠVerstand
Ġabwechslungs
ĠVollendung
ĠBerufsausbildung
ĠWÃ¤hrungsunion
Ġengagieren
ĠCher
Ġkos
Ġgeliebt
Log
nne
ĠRaumfahrt
Ġoh
evanz
renn
zek
Weiterhin
Ġblo
Ġtollen
ĠJimmy
wÃ¤lder
usel
roman
Gipfel
Ġstimmten
Ġfik
ĠDein
ĠStadtwerke
seitige
Ġlacht
Ġhebt
ĠVent
BegriffsklÃ¤rung
ĠNachteil
sprobleme
come
Ġtg
OO
Ġzeitgleich
TÃ¼r
Villa
Ġbefasste
ĠKohlenstoff
Ġven
SchÃ¼ler
ymn
ĠNÃ¶rd
klagte
ktische
Ġwarnen
AW
ĠZier
stheorie
ĠDring
Ġfestgesetzt
Ven
ĠPhilippinen
ĠRut
Ġhour
rant
wÃ¤lt
ĠNationalspieler
Fragen
Rh
Ca
Ã¤mter
ĠWird
schnell
fahrerin
irma
allt
ĠLevel
ĠRue
tium
brid
ĠAnsehen
ĠFahrten
olet
ĠMinim
Ġcommun
milch
Ġspringen
vik
alena
Ġauthen
ĠLorenz
KÃ¶nnte
ĠBeschleun
ĠprÃ¼ft
ĠgÃ¼ltigen
Ġzusammengestellt
ĠAbstammung
ĠabschlieÃŁ
ĠgeschÃ¤tz
ĠPolar
psis
arning
ĠFlut
ĠvernachlÃ¤ss
sprozeÃŁ
gungen
ĠStraftaten
ĠSponsoren
ketten
Ġgewarnt
ĠAntike
ĠErhebungen
ĠdemnÃ¤chst
ĠEuropameisterschaft
ĠMaier
ĠStifts
ĠverzÃ¶ger
ersatz
skomm
zumachen
zeitigen
Ġmg
ĠverÃ¤nderte
ĠKlassiker
SR
eres
kter
ĠEif
achteten
Ã¼nft
ĠVorrang
ovice
ĠLiechtenstein
schuk
Ġ('
honduras
Ġ().
ĠArk
ĠLandschaften
Ġpflegen
105
Analyse
Ġanerkannten
Abb
ĠGrundstÃ¼cks
pfleger
ĠDC
ĠSchar
ĠvorlÃ¤ufigen
olith
Ġ388
Ġgrau
ĠTaiwan
agramm
gesprÃ¤che
ĠUnternehm
ĠHaustiere
("
lastet
orges
ĠElizabeth
felde
ĠHend
ĠAndroid
osop
fÃ¼hrers
ĠZwecken
ĠAbwesen
ĠKreisen
ĠCR
Ġrut
Koch
bÃ¤ren
Ġqualitativ
ĠSkigeb
Ġabseits
ouri
ĠLateinamerika
Nummer
ĠAngestellte
ĠSpaziergang
vet
hatt
ĠGÃ¤rtner
ĠstÃ¶ren
vorsteher
ĠElef
Ġoe
ĠSanierungs
list
Normal
ĠCarlo
hersage
delt
stelligen
char
Ġseg
Ġlauter
Ġmitteilen
raÃŁe
laufende
Ġeinnehmen
ĠKarin
quet
udenten
ĠMerkmal
ungsort
Ġherangezogen
ordens
schaftlich
Ġausgeliefert
Ġiw
ĠSeitdem
ĠEngineering
ĠIllinois
Ġeinzul
ĠDebatten
%),
dd
satzes
kontroll
Ġrealisieren
tief
ituten
ĠTriumph
ssicherheit
haltige
ĠLuf
Ġvorrangig
ĠAntisemitismus
ĠIdiot
ĠQuote
ĠUrban
Ġbeschriebenen
Ġ",
Ve
Endlich
ĠHaken
ĠEberhard
Ġunent
ĠKolonie
ĠAusscheiden
1973
ĠFolgezeit
ĠPech
ĠEntlastung
ĠFrag
Ġaktualis
beamte
feln
kapazitÃ¤t
ĠfrÃ¼hzeitig
Ġinformation
ĠCrist
rou
Ġniedrige
umboldt
Ġstationiert
Acc
lÃ¶s
kee
ĠFuÃŁballer
Ġmarsch
ĠEinzelhandel
ĠEntschuldigung
Ġeinzelstaatlichen
ĠAuszubilden
koch
ĠtÃ¤gliche
effiz
ĠVergewal
ĠEinbruch
automaten
Regiment
Ġgesonder
hessen
kamen
ĠbeschlieÃŁt
rw
haftung
Î¹
akon
ĠVolksschule
Luxemburg
Ã¶gern
Ġangetan
ĠLeistungsfÃ¤higkeit
dependen
beziehen
Ġmobile
sek
Ġkonkurr
Ġabsoluten
Ġentnommen
ĠEc
ĠLadung
noch
esischen
Ġgrundle
Ġlink
Ġachte
ĠSpielzeug
Ġkommend
teilungs
Kraft
Ġsho
Ġzugenommen
102
ĠSpecial
VerÃ¶ffentlicht
tchen
Ġredest
ĠBayreuth
ĠResonanz
Ġtags
herd
ĠGerichtshofes
ĠeiD
kritik
ĠerklÃ¤rten
Ġverwirklicht
ĠDreieck
ĠImpl
zyklus
schir
ĠUltra
hib
ikanern
ĠPlat
abo
ĠMarmor
amera
Ġstrahl
rent
ĠMetro
GeschÃ¤ftsfÃ¼hrer
!)
Ġjugend
ĠWeiss
Neuer
ometrie
ĠRezeption
Gitar
ĠZÃ¤hl
Ã¤nglichen
Tur
erzeugnisse
ĠOkt
ĠPrivileg
rv
Ġ1600
seille
sperson
ĠVersuchs
ĠRumpf
schatz
ĠHip
ĠPrÃ¤vention
ĠSenkung
Erinner
ĠKitz
ĠTreue
ĠBezahlung
ping
hielten
abin
orgnis
Ġbetreffende
Ġjuristische
Junge
ĠZÃ¶lle
Zoll
ĠMonika
âĦ¢
ĠTerrorismus
ĠTunesien
Check
ĠtatsÃ¤chliche
llo
ĠHasen
ĠGrimm
Ġgt
ĠFreie
Ġ280
ĠJog
futter
ieref
greifenden
ĠVormittag
ÃĤ
ĠRog
cHFFFFFF
irgt
ĠFlei
ĠNiederschlÃ¤ge
Stim
ĠGeschenke
hee
ĠPanik
.âĢĿ
ĠTot
bietet
Ġargentin
ĠGeschÃ¤ftsjahr
SO
Ġ1856
ĠgenÃ¼gt
spuren
CHEN
Sex
eife
Ġbeacht
ĠIndianer
Ġvermark
ungsmaÃŁnahmen
zucker
kÃ¤ufe
ĠieD
yc
ĠHÃ¤u
Ã¼chtete
ĠDoppelzimmer
Ġsaison
ĠHospital
izer
zulÃ¤ss
ĠKot
Ġmassive
ĠUnterhaltungs
apital
Verg
ĠprÃ¤zise
zantin
ĠKleinstadt
ikalien
ĠCall
gre
ĠMaast
entrale
gestÃ¼t
Ġuntere
...?
ĠGitarren
Ġeffizien
oefs
Computer
Gn
MER
ĠLandratsamt
ĠTed
zimmern
Ġ1806
denburger
sbahn
Entschuldigen
ĠEy
ĠZimmermann
DÃ¼sseld
Ġfrucht
ĠRohstoff
Richtung
Ġvorderen
Ei
ĠGraph
Ġï¿½
Ġunangen
ĠKiew
Ġtb
ĠGremien
mh
Ġentspannen
Ġerkran
Ġbu
ĠNep
esc
Vic
ĠBoris
Ġgetrieben
Ġillegalen
gebÃ¤udes
ĠDienstagabend
schuldung
obe
eimer
ĠKreativitÃ¤t
kÃ¼nstler
Ausgabe
forschungs
Ġ1859
ĠPhilip
ĠDreiÃŁigjÃ¤hrigen
ĠGarage
Ġregional
ĠmÃ¼sst
Ġwarmen
Ġmontiert
undern
ĠAmpel
Bill
Ġ%),
card
ĠZwick
Qualif
Ġunger
Gab
stif
igration
ĠLibr
ĠTelekommunikation
ĠTurner
ĠAP
8222
Ġkonzentrierte
ĠMunition
Ġbran
Ġdenkbar
ĠCe
ends
vereinbarung
ĠSid
opter
ĠKraftwerk
farb
ĠAnschluÃŁ
ĠAspekten
Studio
Ġ175
Sar
schÃ¼tze
ĠNeckar
Ġunschuld
Ġnet
ĠBezeichnungen
=""
Ġwould
ĠTerritorium
ĠPionier
ĠUnrecht
antit
NER
ĠHenri
ĠNordirland
ĠEntertainment
ĠnÃ¶rdliche
ĠvielfÃ¤ltigen
MaÃŁnahmen
ĠNetwork
thal
Ġausfallen
Ġmangel
Gebiet
Ebene
Ġhole
ĠConne
ĠannÃ¤hernd
amment
ĠNL
Anlage
ĠKay
Ġgespannt
ĠBegriffs
gerichte
Baum
ĠKosovo
uno
inische
ĠCloud
okuss
klÃ¤rungs
ĠMantel
ĠMiete
Ã¶sser
anbieter
ienz
ĠKoh
rater
yeong
Ġhaf
izite
orientierte
istiken
Eins
ĠÃ¤h
VR
ĠAUF
Ġfestzulegen
weiterung
Ġmehrheitlich
prech
ĠAh
ĠStroh
Ġcih
âĢ²
hÃ¶hen
Ġbekleidete
Zugleich
ĠLogo
Beispiel
.):
ĠGeschÃ¤ftsfÃ¼hrung
ĠFj
Ġschlag
ĠReleg
isters
ĠBerichterstattung
taucht
Ġair
Ġtraum
140
ĠExperte
schwar
ĠDerby
Ġeinzigartigen
ĠViews
ĠGehÃ¶r
ĠKurfÃ¼rst
Fac
Ġarrang
ĠWiderstands
Ġderzeitige
ĠTurb
Letzt
ĠErben
Paris
Ġwenigsten
jektive
ĠverkÃ¼r
Ġtri
pfe
Kreuz
ĠSÃ¼nde
Bundest
ĠIntensiv
Detail
orbene
omo
Ġrunden
ĠMarion
Thema
Ġwillen
Sor
umfang
ĠeinschlÃ¤gigen
ĠSpeed
tierungs
ĠEreignissen
ĠSchilder
Ġej
unternehmens
Ġtschechischen
Ġabgeschafft
ĠverlieÃŁen
wÃ¤ltin
abkommens
ĠAgn
Ġgemeinschaftliche
ĠOS
apo
ĠMiami
ĠÃľbungen
Zie
Ġbrauch
Ġliebsten
Ġakademischen
ĠPazifik
Ġvorherr
ĠDreharbeiten
Ġfinnischen
Ã¤tigt
ĠMontagabend
Schwar
ĠKolumbien
ĠPutz
ĠSpende
ĠReut
ĠAusfall
mittelten
sec
stheater
ĠFÃ¶deration
ĠBrian
agung
ĠFabian
kassen
ĠLehrern
ĠCrow
ĠRÃ©
ĠAngebots
ĠGroÃŁmutter
Ġklingen
Ġuas
Ġproblemlos
Ġdella
ĠGitter
rz
ffel
ĠAlbanien
ĠVerwaltungsrat
ĠLÃ¼cke
Ġlich
ĠHexen
ĠiDe
tempel
United
ĠSegen
Ġverlei
ĠBewerbung
speriode
ĠVerkÃ¤ufer
ĠVerabschiedung
ĠWirkungs
ĠBaumwolle
Pierre
ĠStÃ¶r
Ġbring
hra
ĠSaarbrÃ¼cken
Ġspiegelt
Imm
ĠAnleitung
ĠBabys
ĠFuE
fochten
Ros
!",
Ã¼ttert
ĠBoule
ĠNaturpark
ĠMittwochabend
ĠSah
ĠWÃ¤ldern
iterran
Ġlandwirtschaftlicher
nette
Ġindirekt
Ġunterliegt
ĠBewohnern
Ġempfing
ĠRubrik
emonie
ographischen
ĠRussischen
ĠÃ¼bergab
filmung
ildren
Ġderjenigen
ĠToiletten
fasern
ĠJahrhunderten
Besser
ĠeDi
telang
RG
ĠIsa
ĠKreisstadt
Ġbesiegte
ĠFehlen
ĠStille
ĠTournee
ĠLÃ¤nderspiel
ĠMaas
ĠLuxem
:"
Ġasl
Ġzueinander
ĠBruders
ĠLogik
rechnungen
ematik
Ġsuch
Ġamerikanischer
Ġstammenden
Ġthem
Ġfahre
agerten
Ġrang
ĠElektrom
ĠEAG
ÄĻ
Ġabgelaufen
ĠKolleginnen
ĠCasino
wieweit
skont
Ġverbreiten
ĠDunkelheit
Ġvorzulegen
ĠBernard
ĠRup
ĠGrundstÃ¼cke
Ġausgetauscht
ĠSchra
ĠKonzeption
Ġhergestellten
Ġtype
bp
ĠHob
Ġwell
ĠArte
Internationale
ĠZirkus
Ġglieder
ĠSenats
ĠGebirgs
ursache
ĠTrÃ¤ume
ĠErfahrungs
Ġweltweite
Ã¤en
Ġval
Fan
Ġlsa
ĠGesundheitsschutz
180
ĠChancengleichheit
ĠBundestagswahl
Ã¤uren
ĠGriech
dring
ĠFolter
eug
ĠRedner
ĠWeiÃŁe
schall
ophil
Kleine
ĠTitan
Ġzugeschrieben
Habt
ĠKlubs
ĠBemerkungen
Ġseh
ĠUran
ĠLucas
WC
ausenden
ements
ĠVillen
ĠOlaf
Ġforderten
ĠLehen
ĠWirkungen
ĠKapazitÃ¤ten
ĠPlanet
Ġvergangene
ĠBerufe
ĠZuschÃ¼sse
EA
jap
ĠPlatzierung
ĠAvenue
atischer
Ġ260
Ġgeheiratet
Ġpolitisches
ĠApostel
edo
ĠLiedern
diu
ĠMessungen
ĠKonflikten
Abend
Ġdemokratische
Ã¤stinens
ĠMÃ©
ĠOm
Ġmeldet
Mama
ĠGard
Ġchristliche
ĠbÃ¼rgerlichen
ĠHauptsitz
schers
ĠBilly
Ġabschloss
ppchen
Studien
maus
ĠNACH
ĠFestland
Salz
luÃŁ
UnterstÃ¼tzung
historiker
Tier
mitz
iveaus
ĠSD
odation
Baby
Ġve
ĠNett
iefs
Ã¤umen
Info
agern
ĠUNO
ĠDachau
Ġwesentlicher
Ġzentraler
default
dw
Ġusa
rachtens
produktionen
Back
bereitungs
articles
Ġunregel
ĠOblast
Ġdigital
Ġintegrieren
Wohin
Ġdrohte
genehmigung
ĠTÃ¤tigkeits
ĠHolger
feste
ĠRinge
ĠMarg
Ã¼nn
Ġnad
ĠTw
ĠSchÃ¼tz
ĠAufforderung
Griechenland
omenklatur
ĠÃ¼beraus
Ġâĸł
irekte
Material
boe
ĠWES
keine
ĠkÃ¼rzer
messung
ĠSecurity
Âĥ
ĠGrÃ¤ber
ĠAnhalt
Ġbewirken
Ġsexy
ĠdÃ¼nn
ĠMeldung
ĠSchwerin
ĠReinigungs
utenant
abgabe
ĠAnbindung
Ã¤ndlern
ĠDonnerstagabend
ĠBundesland
Ġerwe
Ġvereinbarten
ĠModerator
frank
mittelalter
unterschied
ussten
ĠCOM
gewalt
ĠPrÃ¤z
vh
Hit
Hof
major
ĠMuss
ĠErleichterung
ĠSeminare
ankte
Blau
Ġimm
Information
Ġkompliziert
ĠTSG
Wochen
ĠCow
ĠImpulse
ĠEnttÃ¤u
Ġ650
ĠSeh
arrer
cing
ĠhinzufÃ¼gen
ĠVorsicht
Ġschade
Tradition
Ġdominiert
Wal
Ġinteressierte
Ã¼f
Ġroom
Ġbeabsichtigt
ĠansÃ¤ssigen
stich
Monat
ĠForstwirtschaft
ĠKÃ¤mpfer
avw
Ġirgendwelche
EUROP
ĠVorfahren
ĠÃ¼berwachen
ĠvorlÃ¤ufig
ĠpersÃ¶nlicher
ĠflÃ¤chen
lagnahm
orch
irs
SON
achstums
Ġobersten
Ġgedeckt
Ġzukommen
Durchschnitt
ÃŃo
ĠMaÃŁstab
abbau
Ġheilige
Tsch
ĠSingen
ĠStÃ¤mme
Position
ĠThese
ĠknÃ¼
gets
chang
Ġstarkes
ĠÃģ
ĠBlumenstra
Ã¤rmt
iot
Ġbraun
ÃĦhnlich
ĠInszenierung
ĠProte
ĠRÃ¤tsel
HEI
sfers
ĠRun
ĠÃ¶kologischen
Ġbreites
Pop
ĠSinfon
Trans
gp
Ġgegenseitige
Ġanpassen
Bil
ĠFL
Ġdenjenigen
ĠKlappe
ĠAnnÃ¤herung
standard
ĠGegebenheiten
Tim
ĠMoral
ĠstoÃŁen
Ġentsprechender
ĠMust
partnern
ĠBrÃ¼dern
ĠOrganisatoren
ĠOslo
massen
Ġ2500
dingen
ĠMitbegrÃ¼nder
schuh
ĠAnten
iolab
ĠÃĦra
malerei
ĠGrande
ĠKalten
track
ĠzeitgenÃ¶ssischen
ĠVernicht
Ġhilfreich
ĠTausend
rizona
Ġbeantrag
115
ĠHop
ĠInvas
Ġbeides
Ġillegal
ĠPopular
Ġbedeutender
ĠGesellschafter
Ġbal
sÃ¤ure
ĠAndy
ĠSenator
Stellen
ĠUrsprÃ¼nglich
neues
Ġkomisch
Ġantrat
Ġmanip
jas
ĠDL
OB
vic
schlus
Ts
esk
bezirke
ĠKriege
tc
ĠItalienisch
denberg
ĠZuvor
usten
Ġeinladen
ĠTitelverteidiger
schlÃ¼ssen
loyd
ĠSchafe
ĠVÃ¤ter
ĠZeile
Schne
ĠEinflÃ¼sse
ĠErachtens
ichtigkeit
bezirks
ktop
ĠStaatsangehÃ¶r
Ġap
Ġ****
bearbeitung
Ġbegeistern
ĠVerspÃ¤t
ĠVersicherungen
ĠReichtum
ĠnÃ¼tz
ĠProblems
ANG
Raus
zugeben
ĠAlgerien
ĠStatue
ĠRohstoffe
Ġanscheinend
schalter
ĠBridge
fristigen
ĠRenÃ©
tile
lebnisse
ĠSchwach
Ã¤lern
Ġhindurch
Ġinterpretiert
Ġgelingen
ĠCin
Ġ128
technische
tagen
ĠKonferenzen
iertem
besserung
regiolab
Erz
ĠGlocke
Ġ550
ĠbewuÃŁt
ĠBombe
Ġach
Ġkinder
ĠkÃ¼ndigt
Ġvorzubereiten
usik
Ġflog
icture
Junioren
oux
ĠKlÃ¤gerin
heide
ĠVorarl
allerie
aii
Ã¶hnt
ĠVerwaltungen
metik
ĠVerpackung
ĠDominik
ĠAbwesenheit
ĠKatholiken
ĠNordost
ĠEFTA
Ġschweizer
Ġruhiger
nahe
ĠSchlus
Ġverwirklichen
ĠEintrÃ¤ge
katholischen
Ġverhandelt
ĠGeruch
ĠPrimÃ¤r
Ġmerkt
rachter
chnik
ĠLow
Ġeffizient
ĠRegierungschefs
Ġgewalts
selbe
ĠComeback
spap
Leute
feed
Ġverzichtete
Kre
ĠElite
ĠherkÃ¶mmlichen
onc
Ġbayerische
Wur
900
uffer
Ġuntersagt
ĠwÃ¤rst
Ġvornehmlich
ĠKÃ¤mpfen
ĠBestandteile
pfÃ¤l
ĠSchlange
Ġ1803
uthor
SÃ¤nger
ĠGÃ¼terverkehr
Ã¶sten
âĢĶâĢĶâĢĶâĢĶ
ĠzurÃ¼ckgekehrt
Big
Ġbreakfast
ĠAusgleichs
ĠDurchfÃ¼hrungsbestimmungen
ĠMuslime
Ġvorgelegten
ienn
1972
Bade
flotte
ĠWohnungsbau
Ġverabschieden
begriffen
Ġfester
ĠMiÃŁ
ĠkÃ¶rperliche
There
linde
ĠEpisode
steuropÃ¤ischen
Ġneutr
ĠBelagerung
haltestelle
ĠLiberalisierung
Ġgeradezu
Page
ulo
kehrte
Ġsua
ĠBande
ĠLÃ¶sungs
Cop
Ġvollzogen
Ġkleinste
spekt
kommissar
ĠNachrichtenagentur
Russland
ĠGrÃ¶n
ener
ĠÃ¼berlegt
Ġangetrieben
fju
Ġaufgesch
ĠLandeshauptstadt
ĠBallett
arier
ĠObersten
Ġanmelden
ischerei
Ġtaten
Ã¤ndes
ĠauÃŁerordentlich
ampion
Urteil
Ġbestraft
ĠShanghai
ĠKaros
Ġziel
ĠFrey
Ġ135
Ġkriegt
ĠrÃ¤t
Ġgegenseitigen
ĠLenn
ringt
Ġunterzeichnete
reichte
ĠDienstleistung
ĠeingerÃ¤umt
ĠbeschlieÃŁen
ĠSchulze
"âĢľ
ĠTC
ĠGesichter
ĠPedro
ĠReferend
rÃ¤ts
Ġevangelisch
hew
ssa
Ġ107
ĠExpansion
Ã¼gt
Ġschildert
amarillasaust
zogt
ĠLip
Ġverborgen
ĠPetrus
ĠNort
probieren
quen
ĠRelevanz
inghausen
ĠGrundwasser
PrÃ¤sidenten
Ġeff
Ġsicherer
ĠSchweiÃŁ
ĠGT
Entsprechend
ocken
christ
stermin
zeile
Leit
phe
spolitische
gebenden
Ġruf
Ġsat
vormittag
undete
Ġkraft
Ġsr
bÃ¼chern
asso
ĠPalÃ¤stinen
beton
Nic
pin
ĠZusammenfassung
ĠErmord
ĠFilmm
Ġanzutreffen
Ġbewohnt
ĠBundeslÃ¤nder
ĠberÃ¤t
regungen
Wahrscheinlich
ĠChap
ĠPul
Ġtrin
lies
nez
ĠKiss
ĠBÃ¶se
writ
acy
clubs
fassungen
Ġzielt
Charles
Staffel
ĠAnker
wÃ¼rdigkeit
ĠAuschwitz
kÃ¼nften
entrÃ¤ger
verbund
timer
ĠFahrgÃ¤ste
Warten
hÃ¤n
ĠMorgan
Ġ113
Ġetablieren
ĠgebrÃ¤uch
Louis
Open
ĠVenezu
Ġcfj
grab
Ê¿
Landkreis
ĠNachlass
Ġgeschnitten
ĠSop
ĠEvolution
Ġbegeben
Ġzehnten
Jer
Premiere
ĠKN
ĠAnteils
Ġvernichten
asing
ĠBetrachtung
angelegen
Ġgeschlossene
ĠMedium
Ġanstren
aufenthalt
bachs
Mul
Ġsteigende
Diesmal
avy
tÃ¤g
lm
Ġ117
Set
timetern
roit
ĠInternetseite
gewerk
Ġgeform
ĠEntwicklungslÃ¤ndern
Fernseh
ĠJaneiro
Ġverteidigte
Ġ1400
ĠNordsee
Solange
ĠAmph
Elf
Nachbar
gesetze
amas
Ġunsicher
ĠRechtsan
ĠBrutto
Ġvorzunehmen
ĠMultim
Wed
LE
sius
ĠGewÃ¤ssern
ĠErwÃ¤gung
Ã¤ndigkeit
Ġbemerkens
ĠLittle
road
ĠTap
ĠZuliefer
ĠKohÃ¤s
sektors
ĠEnglÃ¤nder
ĠgebÃ¼rtige
job
Ġabgesetzt
filmen
Ġentspannt
ologin
Ġinternationales
flu
Ġ1854
hout
Ġvorab
neo
ĠrE
ĠNahles
ĠPÃ©
Ġverfassungs
ĠÃ¼r
ĠJahreszeit
mÃ¤nner
Ġpers
fertigte
Ġfusion
Erstens
Ġbewaffneten
ĠVerbreitungsgebiet
ĠAuÃŁenhandels
tika
ieller
handen
Ġ6000
ĠHose
grÃ¼nder
ĠUrauffÃ¼hrung
Anteil
Ġasu
Ġenorme
Ġverschiedensten
ĠSlg
ĠAufzeichnungen
ĠAutonomie
Ġniemandem
Ġlib
Apartment
Ġnull
sprechende
regend
ĠResolution
ĠprÃ¤sent
hyd
106
schwester
Ġhad
JPG
ĠSchwarze
zoneid
Stellungnahme
Center
ĠImporte
ĠCons
ĠSegment
/-/
ĠFassaden
ĠDirigent
ĠJÃ¼nger
Licht
ĠSad
Inser
Ġmusikalisch
Ã´ne
AREN
Ġhourly
ĠKÃ¶rperverletzung
ĠLuftfeuchtigkeit
ĠEuer
pid
Ġflexibel
gerechte
Schluss
ĠPreistrÃ¤ger
asar
ĠSchwed
ĠLichter
wÃ¤rter
ĠHoffnungen
ĠJungfrau
Ġexplod
ĠÂ£
handelt
technischen
Ġ1857
ĠGis
Windows
ĠFranÃ§ois
pez
ĠMargaret
Ġausgestattete
ĠPot
ĠBush
armen
Ġalkohol
Ġvernichtet
empfÃ¤nger
wechslung
Ġalternative
ĠnervÃ¶s
kommando
Ġset
ĠSchwaben
preises
ĠBÃ¤nde
Ġabermals
ĠPanorama
Ġreibungs
Bev
fungs
Luc
Ġgewechselt
Ġwant
erhebung
ĠKonzerten
bat
iast
etal
ĠSchluÃŁfolgerungen
ĠRechner
ostet
ĠGrube
drehen
ĠExeku
unruh
pit
Ġinspiriert
ĠInteressenten
knecht
ickten
ĠSpezif
Ġworld
artment
Japan
ĠgestÃ¤rkt
nant
ĠRÃ¼
ĠProje
ĠbeschÃ¼tzen
Ausgaben
orbenen
ĠLuzern
zulassen
BrÃ¼ssel
gingen
kuchen
Ġausmachen
Ġgoldene
iatrie
essur
ĠAnbetracht
ĠKovac
ĠvielfÃ¤ltige
erischen
ĠDeg
richtet
Ġzugeteilt
enturm
Ġ1855
Ġdurchqu
Spr
Hierzu
sider
Ġeingetreten
autos
ĠWat
ĠJeh
ĠMainzer
Ġseltene
ogl
ĠPapiere
ĠTherap
software
Ġnahen
ĠÃ¤uÃŁere
ĠFreibad
sprecherin
ĠAsi
ĠWeizen
ĠPrim
ĠWeltrang
ĠSiedler
Ġausreichende
Ġsam
Ġbegrenzte
ĠAdminist
Ġbunt
ĠKurve
Ġbesiegt
ĠBÃ¶hmen
2525
ĠAllah
Sun
ĠReprÃ¤sent
ĠErmordung
Ġ1852
opath
ĠÃ¤t
Ġverschwindet
Ġsens
RC
izitÃ¤t
Ġflie
ĠPotential
Ġrw
ĠWolff
ĠScheibe
Arena
ĠBah
ĠangehÃ¶rt
ĠTiger
ĠBurschen
fro
Ġverleiht
Ġrun
Kas
ĠQuadratmetern
Hart
FP
ĠVerfassungsschutz
qv
ĠMitteleuropa
ĠZens
ĠAbgas
zeitlichen
Ġunab
Ġsieb
gon
ege
ĠNetzwerke
ĠAchter
ĠSantiago
ĠEinwei
Ġsenk
Ġeintreten
Ġdazuge
ĠFÃ¤cher
otum
Ġgefr
ĠAbschnitte
ĠPalette
Aufgerufen
ĠHinzu
freude
Werner
Legen
..."
ological
Ġerkunden
Ġkonstant
profil
ĠnÃ¶tige
ĠMobilfunk
cti
Ġangebotenen
atinas
insbesondere
ĠAussichten
Ġzweifellos
ĠLÃ¤cheln
ĠErzieher
Ġtj
Ġvorliegende
Ġhervorgehoben
ĠDrucker
Ġhigh
lain
stÃ¤ndiges
ĠPublikation
fassade
ĠOden
igra
ĠLÃ¶ff
versch
Ġschief
ĠWortlaut
esr
Rating
ĠWeimarer
verbote
information
ĠÃľbernacht
Angel
Ġdeuten
Ġgerechtfertigt
respond
ĠHeft
COM
Ġwoher
null
Offiz
Ġereignete
ĠZuverlÃ¤ssigkeit
esie
Ġausgearbeitet
ĠConference
She
ZT
Ġbefahren
ĠLyrik
ĠTech
Ġhistorischer
ahle
ĠUnentschieden
ĠSchwellen
ĠModul
schlÃ¤gt
blogspot
iday
159
aci
lease
ĠGrundriss
treff
kd
Ġallgemeiner
ĠVorgÃ¤nge
ĠAufstiegs
ĠFreiwillige
ĠPont
ationalen
ĠLagerung
Ġbeherrscht
ĠRegistrierung
ĠTotal
blut
tierter
Ġabgelegt
kammern
ading
antien
Aff
Ġunterschrieben
%).
ablo
ĠKonzep
ĠEmpfangs
ĠGehminuten
lf
ĠverkÃ¼ndete
egowina
ĠSparkassen
ĠMov
ĠMarseille
1970
fachung
ĠEmotionen
ĠGenehm
Ġvergeblich
ĠRitu
"}
mensionen
Freund
ĠKubik
Daraus
Ġdazwischen
ologna
ĠTÃ¼rk
ĠTrauben
Ton
ĠKelly
Ġbearbeiten
][
ĠPode
ĠwÃ¤hlt
ÂŃ,
ĠLiquid
ĠSv
aisen
ĠSchreibtisch
ĠLobby
ĠSchmetter
nnen
sung
ĠMozart
UG
ises
mittelbar
ĠSamt
ĠWalk
ĠsE
ĠChefredakteur
SEN
ĠSchlagzeuger
ĠDeinen
ĠTatsachen
uage
ĠspÃ¼rbar
Parlament
ĠIngol
verteidigung
ĠErzÃ¤hlungen
OLITIK
olische
izierungs
ĠbehÃ¤lt
ĠBestÃ¤nde
Sofort
Ġkirchlichen
computer
ĠVerbandes
ĠZÃ¼rcher
viron
packen
anas
kretariat
ĠentfÃ¼hrt
ĠSiegel
ittgen
ĠhÃ¶herer
Ġmerken
gitter
ĠVie
ĠschÃ¼tzt
spolizei
wÃ¶ch
verz
ĠPaulo
terrasse
rockner
iendly
organe
Ġ1858
ĠLipp
ĠGesichts
ĠWassers
Ġinnovativen
ĠMinen
ĠMÃ¼nz
ĠGÃ¼tern
ĠPersonenverkehr
Ġblicken
Ġvorangegangenen
ĠRomane
Ġeineinhalb
Ġbefragt
GrundsÃ¤tzlich
ĠMontreal
ĠObdach
DÃ¼sseldorf
ĠToleranz
ĠalltÃ¤
igter
ĠbefÃ¼rchten
MISS
109
Ġglaubte
ĠBehandlungs
jer
ĠGebirge
ĠKrankheits
Ġpassenden
Ġbedroh
rations
SW
ĠÃľBER
mittlungs
ĠmuÃŁte
ĠwunderschÃ¶nen
Ġbemerkte
Konzert
ĠFood
ĠgefÃ¼hrten
ĠTreffpunkt
Ġbekannteste
1974
oft
geheim
Anti
ĠFriedrichs
Ġspirit
Abschnitt
sohn
Ġillegale
ĠAdv
genau
ources
ftrainer
Ġsystematisch
ĠFlugplatz
ĠHind
ĠAntar
Dom
ĠWick
ĠSchlangen
ĠKorb
Vorsitzender
ĠStickstoff
Management
ĠSilvester
Ms
Ġprotestan
ĠHarvard
FO
mÃ¼ller
kant
gelten
Ġangeklagt
Tochter
ĠBrennstoff
ĠCharme
ischÃ¶
Ġausgest
Ġbeten
ssysteme
ĠZaun
ĠEuratom
ĠSozialausschusses
volles
Ã¤ule
Joachim
assistent
ĠPalm
stamm
Ġwish
Teams
ĠAlf
arife
ĠeinzufÃ¼hren
Ġentwarf
Wohl
Ġverhe
fit
Ġeinstigen
FI
Ġwettbewerbs
zulernen
filter
ĠEbers
ĠREG
ĠSkandal
ĠTschechischen
ĠGenua
roth
FFEN
gefÃ¼
ĠHerrschafts
core
Ġautomatische
emn
Ġverweisen
Ġhellen
ĠKennzeichnung
restaur
ĠVas
ĠZutaten
Ġhinnehmen
CI
Ã¤ub
Tick
beihilfe
ĠConrad
oinland
Ġiew
autif
wing
ĠInfektion
ĠStahlindustrie
ucky
zm
ĠWeide
ĠPrognose
ued
Ġabgesagt
ĠFliegen
marktes
ĠLebensqualitÃ¤t
ĠgeprÃ¤gten
ĠPassau
ĠModellen
ĠKrankenversicherung
ymph
ĠKÃ¶nigsberg
Ġgestoppt
Washington
Ġanm
Verschw
Ġclick
ĠBahnen
ĠOpfern
ĠSÃ¼dseite
ĠansÃ¤ssig
ĠRÃ¶ntgen
Ġschlimmsten
ĠInbetriebnahme
ĠAdministrador
rett
ĠNeut
ĠVEB
ĠDokumentarfilm
Up
ĠGesamtheit
Ġgalten
ZEN
zd
:)
Ġglied
ĠWarm
Ġgesundheitlichen
scheide
Ġpolizei
Ġrekonstru
Ġvotes
ohen
Inserido
ĠangehÃ¶rte
btt
Ġzertif
Ġwhen
ĠPomp
ĠBlu
ĠKilo
ĠÃ¼bersehen
ĠMexico
ĠGlaube
ĠGlÃ¤ubigen
Ġneunten
klassigen
Ġgepflegt
111
Ġrenommierten
ollow
ĠBeobachtungen
jut
ĠEff
IEH
Transfer
ZE
ĠLoc
Ġselect
Frage
Ġanwenden
ĠAssistenz
ĠGeisel
schwemm
Fahren
blÃ¤ttern
aubt
ĠHits
ĠChristina
ĠZie
ature
Ġheftigen
ĠErschlieÃŁung
Ġsieh
Ġabgenommen
grat
amento
ĠwÃ¶chentlich
Ðº
zeichner
ĠTitels
leuchten
barte
AHL
Ġschneiden
ĠLachen
ĠSoziales
ĠzurÃ¼ckgegangen
ĠzukÃ¼nftig
ĠNeuigkeiten
orum
Struktur
ĠLÃ¶hne
Server
ĠBirken
ĠNeumann
folgende
ĠHumboldt
ulierten
semester
ĠBundespolizei
ĠGaler
ĠBraunk
state
phabet
ografische
ĠKrefeld
Ġ1813
Ġsyrischen
ĠSizilien
ĠMonitor
Ġgegner
ĠAufsehen
tretungen
iane
Ġschrecklich
Ġot
rence
ĠBodensee
cycling
Ġzusammengeschlossen
Hm
FG
Kommun
rus
Ġgeschaffenen
Ġnm
ĠSpielplatz
ĠÃĦth
ĠZÃ¤hler
ĠZwischenzeit
ĠBrigade
ĠOffiziere
akespe
Mitteilung
Ġfasst
ĠTeilung
Ġexistierte
ĠJochen
ĠempfÃ¤ngt
ĠEinschrÃ¤nkung
Seht
xe
illons
meisters
sitzung
Kauf
hec
eeper
ashi
wÃ¼rdigen
ĠBiom
Ġheb
Ġfinanzieller
ĠAlan
abilit
ĠKalt
ĠGom
Kern
ĠOlympiasieger
ĠCastell
One
ĠReservierungen
Ã¼nktlich
ĠRank
kriegen
angabe
ĠBedienung
autobahn
ĠEmissionen
ĠSagen
ĠParteitag
ategorien
ĠGasthaus
ĠBalkan
inas
ĠAlgor
ĠNachteile
ĠvÃ¶ll
ĠHerrmann
Ġgraus
ĠBEST
pflanzt
zahn
ascha
Runde
ĠÃ¼bel
ĠHess
ĠTeilchen
ĠArmuts
rod
ĠWeiterbildungs
Tages
Ġstrukturiert
ĠVerzicht
ĠHSG
ĠExpert
journal
ĠPorzell
angels
effizienz
Ġ270
ĠEmma
ĠTak
face
hon
Ġfirst
ĠGene
leu
ardt
gerte
Ġflachen
auÃŁer
Ġbrem
ĠRentner
rannt
ĠYouTube
atzer
ĠFavorit
ĠGreifs
ĠKandidatur
leppt
Ġrs
ĠHaufen
anbau
Ġzirk
Ġteilnehmenden
ĠÃĦrzt
ĠCad
Ġunterrichten
Ġ385
werbs
ĠMinnes
ĠHohl
hattan
sparungen
Ġschwache
ĠGarden
ĠSkel
ĠNobel
Lehr
Sicherheit
ĠSchlagzeug
Cas
ĠBundestrainer
zeugten
Pu
ĠBerechnungen
ĠHeilbronn
ĠunterstÃ¼tzten
ĠDuft
Ġweiterentwickelt
ascal
Kanal
Ġklappt
mutlich
ĠFahn
gewichts
product
stÃ¶rungen
ĠWÃ¤hrungen
ĠMinisterrat
ĠDichte
ĠÃĸle
ĠJong
ĠSpezialisten
ĠExperimente
ĠErkenntnissen
Ġsowjetische
ofo
Ġ1845
ĠUNTER
ĠArist
Albert
ĠGesundheitswesen
Kampf
Alten
inie
spielt
eigenschaften
ĠJahrzehnt
rade
ĠtÃ¶tet
ĠJane
ĠRuinen
Ġersetzte
ippen
ires
Ġbelasten
Ã¼bergang
Ġanbietet
Ġleise
Ġallesamt
ĠVorstandsmitglied
ĠRindfleisch
cept
ĠGreat
ĠSachverstÃ¤ndigen
schlug
Ġ1846
Ġ118
Ġempfunden
Ġbefindliche
Ġwind
ĠLehn
schiffs
Essen
ĠCommunity
utta
Ġanwendbar
Ġaufgetreten
ibia
ĠPlace
agan
ATEN
Insel
ĠKurfÃ¼rsten
ĠWurf
ĠErfinder
ĠSortiment
flossen
vence
IST
lc
ĠKrÃ¤uter
ĠRalph
ĠBehr
Ġsuchten
ĠSten
ĠGE
Ġgeringere
ĠIdeal
ĠKies
ĠzurÃ¼ckhalten
Ġkomponierte
Ġgeringeren
107
bedien
abu
Ġbestehe
Ġblu
loses
ĠUnknown
izid
staatliche
knÃ¼pfen
Ġehrenamtlichen
Mas
ĠNan
ĠRollstuhl
Sprecher
rÃ¤tin
Ġgedruckt
ĠStaus
ĠMinisteriums
ĠAusstieg
ĠKarneval
Ġdien
ĠAgenten
voraus
iÃ¨re
nummern
Ġschmalen
grade
ĠCord
Ann
('
ĠGeneraldirektor
ĠInspir
ĠProzesses
tests
ĠPseudonym
Ġjenes
netze
othek
ĠPfeffer
hoc
bohr
transport
anfang
ĠnI
ĠergÃ¤nzte
oka
ĠHoffen
PU
Ġaufgefallen
Ġspitz
Ġinstitutionellen
fos
gefahren
Ġspanischer
ĠHealth
ĠHoward
ĠMolek
klÃ¤ren
Ġausgefallen
Produkt
Ġ1816
Ġfestlegen
ĠGelie
ĠzuverlÃ¤ssig
ĠerÃ¶rtert
Ġeingeteilt
Ã¨ne
indlichkeiten
ĠÃ¤hnlicher
ĠEdelstahl
griffe
ĠFeed
ĠPosted
lieferten
ĠKaribik
ĠeG
ĠCu
ĠFlensburg
ĠMechanismen
Ġevery
ĠInnenministerium
Ġsea
gipfel
buchs
search
116
Ġsozusagen
AHR
ĠZar
ĠGron
oviÄĩ
Ġnieders
hum
ĠSchriftstellerin
ĠZeichnung
arie
ĠMehrheits
ĠprÃ¤ch
Konferenz
Tool
Professor
riebes
ĠEdinburgh
sheim
Tre
jects
ĠRÃ¤der
Ġkonservativen
ĠBundeskanzlerin
Wild
Ġ387
Ġverhandeln
LG
alischen
Ġflei
englisch
sees
bewusst
Ġumfangreich
ĠÃ¤hnelt
elie
wÃ¼rdige
ĠWanderung
seei
ĠHost
Ġintensiven
ĠSignale
anstalten
Ġbenannten
Ġzugestimmt
Ġgesunde
zende
Seb
Ġschlugen
Ġbesseres
ĠFette
ĠPater
echanischen
teneg
Arten
ĠÃ¼berarbeitet
ĠMeteor
Verschiedene
ĠGarde
Ġaufbewahrt
Ġmost
Ġdauerhafte
moor
Ġverschwand
ĠÃ¼bliche
ĠGitarrist
gesundheit
ĠLandstraÃŁe
Ġehrenamtlich
senden
Hal
ĠInnerhalb
Ġirgendetwas
ĠSchumacher
Ker
Ġbiologischen
Fen
Ġig
ĠSchwÃ¤che
Weihn
vertrauen
gegenstÃ¤nde
gesicht
span
GÃ¼nstige
rages
zeiger
Ġbvdi
ĠWasserversorgung
lagern
ĠStoÃŁ
ĠKÃ¶pfe
ĠKredite
ĠschÃ¤r
eight
rechnungs
abr
agent
ĠDoc
ĠÃ¼berfÃ¼hrt
Ġabstimmen
ĠNagel
Ġerarbeiten
Ġstein
ĠSandra
Ġ2022
inkt
eux
ĠGeflÃ¼gel
ĠÃ¶konomischen
ĠSonnenuntergang
defin
shop
ĠEpoche
Ġerwarteten
ITT
Ġverfolgte
Ġgestellten
politiker
Ġ1847
ĠlÃ¤ndliche
Ġumstrittenen
Sieger
Ġdachten
ĠKomitee
ĠMigrations
ĠCruz
ĠBalken
amerikas
ĠMediziner
ĠRepertoire
ĠKoordination
KÃ¶ln
ĠmÃ¶glicher
ĠTum
handwerk
ĠBullen
Ġ+(
ĠSkulptur
Ġstellvertretenden
ĠChines
ĠPiraten
ĠPortugies
ĠSpahn
ĠScheck
ogie
Ġausgezeichnete
Ġgesell
Ġethnischen
ĠTÃ¶ne
Ġderweil
ĠHunderte
ĠProfessur
Ġbaden
Ġek
ĠErtrag
ĠMitarbeiterin
grÃ¤ber
Ġaufkommen
ĠQuin
ĠFreiherr
ĠCreek
ĠVerkehrsunfall
ĠVorschlags
ĠBestands
Ġbemerk
ĠGegenÃ¼ber
ĠDreck
/#
Ġvoranz
ully
ariats
ĠFortbildung
klage
Ġkalten
coln
bruder
Ġanalysieren
ĠImpuls
traten
rowser
ĠFolgenden
ĠHauptp
Ġstol
ĠBaustellen
ĠMichigan
ĠFat
ĠstÃ¶r
...)
enna
Ã¶llen
Ġetablierte
ĠAbweichungen
ĠgehÃ¶re
ĠImpf
ĠErwin
pri
ĠRahmenprogramm
zan
ables
ĠMast
STR
ĠVerletzte
ĠLiebhaber
Ġgericht
ĠBeobachtungs
odore
ohnung
Graf
Ansonsten
Ġdortige
ĠBeschuld
ĠNeumarkt
ĠWeisheit
fp
ayr
ĠTimo
Ġerobert
MC
berechtigung
ĠSkigebiet
ĠBindung
ĠgeschÃ¤ft
ĠChampionship
Ġseltenen
gerei
ĠRuine
ĠProtagonisten
ĠRenovierung
ĠDschungel
dg
ĠStammes
okolle
ckes
Seid
ĠSÃ¶hnen
ĠFlÃ¼ssigkeit
Ġformal
Wall
Ġtur
Ġwunderv
spektive
Ġherausragende
ĠZylinder
ĠMO
ĠBIL
ĠEntschÃ¤digung
123
ĠAbu
leid
ĠPhysi
ĠMÃ¶nch
ĠKm
Ġprovisor
ĠFahnen
Ġzuvers
ĠNetzwerken
find
ĠSheriff
ĠNazis
ĠEnergy
ĠAsylbewerber
ĠStÃ¼cken
ĠFiliale
FranzÃ¶s
ĠMagazine
Ġvertrau
ĠgefÃ¶rder
Viz
ĠzÃ¼g
ĠÃ¤uÃŁert
dk
ĠRatsprÃ¤sident
BÃ¼
wy
->
Ġlandwirtschaftlich
ĠLer
Ġaufer
ersteh
ĠFÃ¼lle
Organisation
Ġerschaffen
Ġverweigert
ĠSteiermark
ĠArschloch
sind
Achtung
Ġhey
ĠKongo
ĠMÃ¶r
ĠKraftstoff
Ġ</
ĠGesamtwertung
ĠAchse
Eing
ĠOptimierung
ĠRassen
Ġverschlechter
spektrum
anges
ĠSchwung
MISSION
ĠAlliierten
ĠBischÃ¶fe
inos
ĠJap
Ã¶hnung
ĠNBA
lehnung
ĠNieren
Ġverlegte
Ġverkehrt
ĠgefÃ¤hrden
lls
ĠDeine
ĠMoskauer
Ġisraelische
ĠLagen
ĠImmobil
ĠfrÃ¼herer
exe
Ġschwachen
Ġbehauptete
mische
Ġregistrieren
ĠVerhÃ¤ltnissen
ĠTrack
Flor
ĠFulda
Ġexzellen
ĠRausch
Ġzwingend
ogne
ĠNicol
Ġtrockenen
ĠverlÃ¤ngern
Ġstrei
ĠTrikot
irrt
--------
Vorsitzende
ĠWebsites
Ġplatziert
Ġls
ĠâĢº
knoten
Acht
konzer
Wunder
Ġpassierte
ĠRid
prozen
ĠPrince
118
amann
ĠVes
ortes
Ġ1818
Ġherauszufinden
Ġgetrunken
ĠRÃ¼stungs
stÃ¤rk
Ġvollendet
////
ĠRedu
ĠBerufsbildungs
ĠKanzel
ĠLutz
splanung
ĠKlarheit
ĠMazed
Ġbeschlagnahm
ĠGewÃ¼r
Ġlhr
Ġexperimen
Feld
sterb
ĠQuartier
Bach
":{"
scheine
ĠPrototyp
Ã¶rster
erkrank
igg
ĠViv
ĠlÃ¤cher
Ġkennenzulernen
ĠExporte
ĠjÃ¼ngst
aysia
ĠJas
ĠKronen
Ġbesagt
Ġmission
ĠDepartment
ĠNations
onyme
ĠBoll
Ther
ĠSpezialitÃ¤ten
abgeordneten
ĠBent
Anmerkung
tums
german
turnier
ĠDiener
hauen
Ġreist
ĠPun
Ġverkehren
SPIEL
ĠbefÃ¼rchtet
Ġibe
Vereinigtes
gebungen
ĠDienststellen
Ã¤ste
Rent
ĠRingen
Ġgesenkt
ĠStaatsan
Ġseltsam
Roman
Ġlud
Ġ114
ĠAmbiente
ĠauswÃ¤r
ality
ĠRenault
Ġschau
ĠSchweizerischen
ĠGovern
Vide
Ġplay
gren
Email
Ġacc
ĠJoint
ĠHandt
ĠHyper
bj
ĠTheaters
Ġbunten
ĠdrÃ¼ckt
ĠSprit
Daraufhin
gymnasium
ĠConsult
ĠschwÃ¤ch
ĠDialekt
ĠVerwaltungssitz
ouren
initiativen
Ġpein
atures
strahlen
ĠAnthony
sif
werbern
Ġ1820
ĠZweitligisten
golf
ĠSemester
otypen
zza
ĠAffen
ĠSteck
ĠTatverd
Ġhessischen
hÃ¶hungen
yeongchang
ĠRade
tains
mÃ¼ndung
Ġrechtfertigen
relev
leitungs
ĠRÃ¶mischen
fÃ¤nger
Ġ1300
ĠEntwÃ¼rfe
ĠGÃ¼ltigkeit
ĠBiologie
mÃ¤chtig
Ġhabilitierte
tentwicklung
bir
ĠAnpassungen
ĠSchwimmen
also
warte
rÃ¤dern
Ġdarfst
Ġbeauftragte
ĠVerlegung
ĠSchrecken
hansa
ĠArizona
ĠFlieÃŁ
ehnten
ĠManusk
Kommentare
ĠEuropameisterschaften
ĠFurcht
ĠNy
Ã¶cken
Ġsieg
eiÃŁt
zeptanz
olta
ĠDessau
Ġzweieinhalb
ĠLandung
Serv
ilia
qs
Ġvorsieht
Ġstaatlich
ĠMaf
ĠRacing
omi
Dieter
marck
ĠBruck
ĠRug
Ġorts
ikes
ergebnis
jub
Hintergrund
menschen
ylon
ĠHindernis
ĠunÃ¼ber
unterlagen
Rek
ĠFellow
ĠAngriffs
Schweden
orientierten
ĠTrock
Ġgrob
nationalmannschaft
pfiff
Ferienwohnung
ĠJahrtausend
ĠSpion
melder
Parallel
gj
ĠTausch
nahen
ĠMehl
ĠhÃ¼bsch
Ġmobilen
ĠVorschrift
Ġwfs
ecu
heims
ĠeingefÃ¼hrten
Ġbeschleunigen
Kaum
Ġ330
Ġorientieren
sofern
erklÃ¤rung
ĠUt
Ġanerkannte
useppe
cover
ĠFeh
ĠNiederschlag
ĠWilly
ĠStanley
Cy
Ġderjenige
kontingen
hoden
ĠLanghaus
ĠHorizont
reistrÃ¤ger
ĠTes
host
Aktuelle
Ġgrundlegend
Jon
ĠTie
Ġschmal
ĠSMS
ennamen
ĠWertes
Leiter
/-/-/-/-/
ĠPyram
ĠInt
ĠBundesamt
ĠLausanne
Ġ1814
Ġschriftlichen
ĠKnopf
Ġwerd
ĠDag
ĠFormulierung
Ġerteilen
ancouver
setzten
Ġbeliebtesten
FÃ¼
Ġamb
jana
ĠBond
Ġverwickelt
Ġautor
ĠAuer
richtungs
ĠDopp
ĠkaufmÃ¤nn
ÃĦh
bog
ĠPrÃ¤sidium
Ġsektor
Ġkostenloses
shi
Daran
Fall
ĠmutmaÃŁlichen
ubst
Ã¶hm
ĠKÃ¼hn
ĠAnderson
Ġmitgenommen
ĠGeschirrsp
Liter
Fu
Ġgif
Ġbewahrt
antasie
ĠSofia
Ġ145
door
ĠFlora
ĠVertrÃ¤gen
ĠHubraum
lb
konserv
But
rÃ¤nkten
Dep
Ġehrgei
osophie
ĠSchokolade
Ġgehoben
FK
Ġbrannte
Ġgreat
Ġ1853
ĠBezirksliga
css
ĠnachtrÃ¤glich
eide
ĠBegrenzung
Ġkompeten
Ġverband
ĠEingriff
Ġfeierten
Webseite
ĠLac
ĠItal
autiful
ĠTib
gif
wu
Radio
Ġthan
Ġansch
Ġbelgische
ĠVorlÃ¤ufer
artiges
ĠQuadratkilometer
Sitz
Î½
ĠSieges
Leon
tilater
oen
xi
Ġaufsteigen
iving
Haushalts
faktoren
Ġvn
platzierten
Jesus
ĠNikola
bia
Ġangemessenen
ĠEinver
WIRTSCHAFT
konsum
Ġflank
Altern
eigene
ĠKultus
ĠfÃ¼hre
ĠMoschee
Ġprofitiert
Ġweitem
ĠkÃ¤me
ĠApoll
Ġdrinnen
Ġmittelalterliche
rote
werpen
klima
ĠMick
ĠJonathan
ĠScheitern
ĠPlas
ĠgestÃ¶rt
eichten
ampagne
ĠFaden
ovÃ¡
VC
gium
Ġhochwertigen
sporte
Gestern
dez
ĠgewÃ¤hlte
Ġieb
Ġuf
Ġankommen
Ġbeurteilt
hot
Ġtd
ausstellungen
Que
ĠTin
Ġneur
ippi
mÃ¤ssig
Prom
komme
Ġath
Ġkostete
ĠBandbreite
aktiven
Ġstrengen
agnet
vironment
Seinen
ĠPulver
kehrungen
lechts
Golden
Ġgesendet
ĠCanada
ĠRegierungsbezirk
modus
Pet
vision
ypagesc
oinlandsprodukt
GÃ¼n
cation
ĠBedarfs
mbach
ĠEver
ĠDrehbuchautor
Meisterschaft
lÃ¤ÃŁlich
ĠGordon
gewÃ¤chse
Ġuneingesch
ĠsouverÃ¤n
wikipedia
ĠGaststÃ¤tte
arke
Ġoberste
ĠHydro
Ġafter
Ġklang
Technische
Ġell
Berliner
Wenig
echts
skÃ½
ĠVIII
ĠausgeÃ¼bt
kart
ĠAuskÃ¼nfte
ĠPhoto
ĠmÃ¼ÃŁte
ĠverhÃ¤ltnismÃ¤ÃŁig
ĠUnger
ĠÃĸzil
ĠOB
atra
Bit
ĠIgn
ĠhPa
Ġschenken
Ġwirksame
Ġstreiten
ĠEinwanderer
Ġaktiver
ĠAnregungen
versicher
128
ĠBistums
ĠVergessen
iak
nachtung
Ġ116
habe
ĠStreik
schach
Ġverlangte
Ġbegrenzten
FE
ĠGenre
ĠKomponente
rengt
ĠBelastungen
DM
Ġangelegten
ĠRyan
ĠSÃ¤tzen
bietern
ĠGuer
103
ĠzusÃ¤tzlicher
Ġquantit
ĠhinterlieÃŁ
Abschluss
ĠWebseiten
ĠStÃ¤rken
ĠÏĩ
ZEU
ĠRECH
Ġunvor
ĠNicole
Ġanim
Ġberuhigen
ĠPuppen
eskop
Ġmess
ymne
Ġ225
ĠpalÃ¤stinens
Ġwohlhaben
Ġbesprechen
wg
dumping
ronic
ĠBÃ¶hm
ĠOlivenÃ¶l
ĠGNU
rec
Ġpat
ĠGeis
ĠDete
ĠKrankenhÃ¤user
ĠIndividuen
ĠFranziskus
ĠToll
ĠÃ¼berschreiten
ĠSymbole
agin
Ġunmittelbare
ĠRestaurierung
has
ĠOnt
ackte
ĠMajestÃ¤t
MÃ¶chten
summe
Ġgesteckt
drungen
ĠausgeprÃ¤gt
Ihnen
Lage
ĠTram
ablauf
Ġleeren
ĠSonntagabend
Party
Jung
klin
ĠGern
1968
ĠCommission
ĠSchwangerschaft
ĠNapoleon
ĠJama
Landwirtschaft
ĠRaj
ĠNon
ĠBetreuer
Type
fektionen
zwecke
ĠTyr
ĠreprÃ¤sentiert
ssitz
ĠAZ
ĠPent
Brit
NACE
Minuten
Ġbedeutendste
Ġeurer
Ġcod
bud
ĠWich
ĠRealschule
Han
rack
Ġdistanz
Ġaufrechter
ĠGrÃ¤fin
ĠTreibstoff
ĠSla
ĠHÃ¤uf
wirkt
opft
ĠBekanntheit
MO
konzentr
Ġeib
iba
Systeme
Programms
Ġstillgelegt
ĠKÃ¤rnten
ĠGEMEINSCHAFTEN
ĠScheidung
ĠArrange
auscht
ĠMaastricht
ĠLod
ĠZOLL
ĠBrise
kÃ¼che
ĠEuropÃ¤isches
pps
ĠUnterbrechung
WW
ĠOberlandes
Ġneb
Ausge
gov
ĠmÃ¤chtigen
ĠLothar
ĠzerstÃ¶rten
Ġtrennt
Ġspontan
ĠGlasgow
liebene
Ġkul
lexible
Ġhotels
Ġbud
ĠTast
ĠDatenbanken
Sach
ĠSingles
ĠWelche
Ġtreff
allee
ĠKameraden
lia
ĠGerÃ¼chte
ĠUdo
ĠFreising
pulver
rite
Thr
ĠBrÃ¼ck
leidungs
Aqu
orenen
regelungen
ĠAnleihen
ĠPeer
Ġbeachtet
Ġerfolgreichste
tett
lv
ummen
olia
Ġfindest
Ġoffer
Ġsportlich
ĠMohammed
ĠEinzugsgebiet
arest
Ġheimlich
ĠAden
ĠPokals
Ġangeben
ibus
katholische
Gran
gehren
ĠWord
ĠTub
VT
itischen
Ġtjf
ÅĤaw
ĠAcc
ĠBuff
ĠBeerd
ĠHouston
ĠDisney
class
ĠSitzungs
verfolgung
Ġlangsamer
ĠFrÃ¤
eur
ĠÃľbersetzer
Ġnukle
dischen
ĠAussteller
ĠAppell
ĠgrÃ¶ÃŁeres
igsten
Ġ1700
Ġaufgegriffen
ĠFertigungs
lautern
ĠZivilisten
ĠZonen
gebe
Ġkonsul
Ġinforme
Master
Vill
ommodation
ĠPreuÃŁischen
NUNG
Ġbewerben
gehung
ĠBundesrat
ĠKerzen
Ġrhein
Stil
Ġsteil
Ġeinheimischen
Ten
kers
Â¡
ĠPuls
esseln
ĠVerfolg
.'
ĠKonter
ĠDate
fy
ĠSED
ĠSierra
IEGEL
ĠZÃ¼gen
rp
ĠÃľbersetzungen
Ġextern
etch
ĠGeorgia
emy
117
Ġexperimente
Ġstaatlicher
Systems
Ġweitergehen
Ġreale
ĠGrÃ¶
Ġausgeschieden
ĠDark
ĠBundeslig
Spann
ĠhÃ¶chster
ĠBefÃ¶rder
ĠBeinen
AGE
ĠHeiko
ĠTurniers
Ġfremd
ĠKonsens
stars
ĠSehn
Ġukrainischen
108
ĠGemeinschaftsrechts
Len
Beginn
verleih
antritt
Ġgeschul
ĠAde
ĠBeitrags
einfluss
ĠCE
ĠOskar
ĠKostÃ¼
ĠBekenntnis
spezifischen
ĠPrÃ¤fektur
ĠWaschmaschine
Ġlandet
ĠEngels
ĠVenezuela
ĠWirklich
ĠHod
ĠLehren
ĠGefangenschaft
bÃ¶rse
ouv
ĠDil
frÃ¼chte
heorie
ĠMunicip
Ġ|
andele
ĠDahl
Ġebi
Ġnannten
ĠGabrie
ĠMinus
ĠBotan
ĠKne
Ġbesichtigen
ĠJugendlicher
ĠWahrung
ĠInnern
ĠBreitband
Ġerweisen
Ġentfernte
condado
ĠGig
ĠMordes
ĠReife
ĠMartina
ĠRapp
Ġeint
Ġverbreiteten
ĠLiteraturang
alische
spflich
âĻª
atemal
ĠChore
ĠChief
Vielmehr
ĠKliniken
ĠAnwalts
Ã¤mtliche
ĠverstÃ¤ndlich
ĠLaune
MaÃŁe
Ġwandern
ĠPelz
ikers
Journal
ĠPlant
ĠRegionalpolitik
behÃ¤lter
Alte
ĠDorothe
ĠSpalte
Ġzuversichtlich
Ġuntersuchten
Ġeinzigartig
ĠBefragung
Ġeien
ĠSpringer
ĠGeneralmajor
Ġgelben
Cr
ĠRaums
Ġdeckt
Ġds
annel
SAM
ĠDrum
ĠBevÃ¶lkerungsdichte
ĠEcho
ĠBeraten
ĠBaumeister
Ġunterhalts
Eu
ĠnÃ¤chster
Ġlern
ĠOrtskern
ĠbelÃ¤uft
verluste
gegenÃ¼ber
Ġseitlich
ĠAbsturz
Ġverbrannt
User
otel
ĠVernunft
ĠblÃ¼
ĠLÃ¼cken
Abgesehen
Merkel
Ã¤tigten
Heraus
ĠAT
Ġhf
ĠmaÃŁgeb
Toll
Ġfeinen
ĠFachbereich
ĠGetrÃ¤nk
kontakt
ceh
iedler
Ġproduzierten
uÃŁts
stÃ¶ck
training
Ġverblieb
alitÃ¤ts
ĠAdams
ĠMelodie
avier
ĠLoren
skrank
Ġieen
Ġislamischen
eith
ĠSpruch
221
angehÃ¶rigen
wappen
beutel
ĠWiedervereinigung
wÃ¤rtig
ĠAhr
ĠDoll
ĠEinwanderung
spannen
ĠParti
ĠGleichstellung
Ġbezwei
StraÃŁen
Ã¼le
etzug
ĠKÃ¤fer
ĠLegislaturperiode
ĠWirken
ĠAbteilungsleiter
Ġpubliziert
ĠMA
ĠKL
ĠEinheits
ĠStreitigkeiten
Ġenormen
Ġgesunden
ĠPartnerschaften
ĠAsh
ĠTopf
Inseln
Ġmechanische
ĠberÃ¼hren
ĠGeheimdienst
Ġeffiziente
Tod
ĠKreistag
deter
ĠMehrzahl
ĠFSV
stitel
weils
Ã¤lle
ĠHerstellern
Ġeignen
ĠbesaÃŁen
ĠMelbourne
ĠSendungen
obal
Ã¼ttet
ĠCheftrainer
ĠrÃ¼ckt
kompetenz
ROM
zigen
spunkten
Ġvorherige
Ġbrennt
ĠNigeria
ĠRost
ĠKindertages
Ġhung
baidsch
ĠFeldern
ĠGesamts
Ġzugeschnitten
ĠDax
Ġeiw
fliegen
Entschuldige
ĠKabinen
jv
ĠÃ¤sthet
ĠzerstÃ¶rte
ĠKommunisten
ĠUnterschriften
ĠGroÃŁstadt
Ġdele
ĠMaterie
ĠVirt
arren
schutzgebiet
worter
ĠWertpap
Ġjeglicher
zenden
AktivitÃ¤ten
arium
ĠKaka
Ġwunderbare
videos
ĠstÃ¤rkste
ĠLÃ¤ngen
wÃ¤hrung
ĠRiga
angriffe
ĠMorris
eichef
ĠWartungs
rose
imi
Ġauszur
omotiven
ĠDreier
Ġamtierenden
zweigen
verkauft
werbes
Ġencounter
px
Ġklarer
American
ĠRib
tiker
ĠHarb
ĠZufrieden
ynamik
ĠAufregung
RECH
Punkte
ĠkÃ¼nstliche
ĠWarten
google
ĠFotografen
Vis
ĠBac
Ġbenutzte
ĠLebensdauer
vielfalt
ĠdenkmalgeschÃ¼tzten
kalender
Ġverwandeln
Ġwestlicher
ĠKriminalitÃ¤t
Ġgesteuert
ĠPut
blingen
ĠOrtsteilen
ĠStudierende
ĠWirtschaftswachstum
ĠGuy
Tore
Ġinto
menten
Schloss
anstieg
ĠValentin
ĠBologna
ĠTochtergesellschaft
vertrags
ĠAnreise
Ġeurostat
zubeh
ĠBerÃ¼hrung
ĠGy
ĠGewerbegebiet
Einwohner
hcn
Ã¼nster
ĠProzentsatz
ĠBÃ¼rgermeisters
ĠVall
ĠGranit
essions
ifa
dampf
parlament
ĠBrÃ¤
ĠÅ½
Ġerhob
werter
dress
aschine
Ġ294
ĠBesiedlung
Ġnachgedacht
Ġverankert
ĠSympath
Ġopp
ĠYacht
Metal
Ġlast
stufung
assel
ĠAbgrenzung
utions
ĠStiftungs
Ġbrasilianischen
ases
reffer
119
Lev
Ã¼ndigt
ĠKuppel
Ġkoordiniert
ĠLandesstraÃŁe
ĠBegrÃ¼ÃŁ
ĠChÃ¢
Forschungs
ĠDimensionen
ĠCommon
ungssystem
ĠStaatlichen
ĠverkÃ¶rp
ĠvorlÃ¤ufige
Stern
chlor
ĠRuhm
ĠConn
Ġauftritt
");
Ġenergie
ĠUniversum
Ġfreiwilligen
Ġkochen
beob
damm
Ġsetze
ĠKob
ignon
ĠMeldungen
ĠprimÃ¤r
arme
ĠReim
ĠLÃ¼gen
gewÃ¶lbe
ĠJahresbericht
qly
Ġaugen
Kranken
ĠSN
ikate
gebogen
self
Ġlitt
verm
Ġdurchzusetzen
ĠKonsequenz
ĠStaatsbÃ¼rgerschaft
ĠServic
strategien
Ġbesprochen
Ġamtierende
ĠGroÃŁherzogt
Ã¤qu
fahrern
ĠManhattan
Neues
Studie
ĠCannabis
âĸº
ĠUmgestaltung
Ġagain
ĠSco
feder
gegner
Ġenerg
unus
gebrauch
EUTSCH
oly
ĠHerzens
ĠCottbus
ĠFreizÃ¼gigkeit
normen
XX
ĠNiederlassung
ĠGleise
TEIL
Ġrussisch
spitzen
usser
ichtigte
ules
Ġgeflogen
Ġerwartete
jes
ĠMaaÃŁen
Ġgekr
ĠGerichtshofs
Ġvereinigt
Ã¤rchen
rog
Ġunwahrscheinlich
sprit
Ġkauft
wollen
ĠbeeintrÃ¤chtigen
ĠKunstwerke
ĠGonz
Ġsozio
altern
VS
Ġverantworten
olds
ĠSeiden
Ġschwerwie
ĠVermeidung
Ġseparate
ĠSozialistischen
ĠRuth
ĠSchnittstelle
KO
Ġbewal
plung
ĠmÃ¤
ĠColorado
Ġdaheim
ĠgekÃ¤mpft
ĠImp
ĠGebietes
ĠSchaff
ĠWortes
ĠKonsumenten
steigt
ĠEmail
ĠLena
eidigung
ĠabschlieÃŁen
ĠFreilassung
ĠerÃ¶ffneten
Ġdiagnost
Ġfehlten
Ġmillion
Ġeinbringen
Ġtoten
ĠErlass
rumpf
ashion
Ġerstaunlich
;,
rac
Englisch
oine
freundliche
Ġspannende
qx
Ġsy
Ze
[...]
