#version: 0.2
e r
e n
c h
Ġ d
e i
i e
u n
s t
i n
a n
e s
ei n
Ġ s
o n
Ġ a
Ġ w
i ch
Ã ¼
Ġ S
t e
g e
Ġd er
un d
Ã ¤
s ch
Ġd ie
a r
un g
Ġ v
o r
i t
Ġ und
l l
u r
a s
Ġ b
a t
Ġ ein
Ġ A
Ġ i
Ġ m
h r
Ġ z
Ġ B
e m
Ġ n
a l
u s
Ġ in
t en
Ġ M
g en
d e
t er
Ġ h
Ġ E
Ġ K
Ġ f
Ġ G
d er
u f
Ġ F
Ġ 1
d en
Ġ P
Ġ D
Ã ¶
e l
e t
r a
b er
i s
Ġ er
i r
u m
Ġ W
Ġ R
t i
Ġ k
Ġ H
l ich
Ġ T
a m
a ch
Ã¼ r
Ġd en
i sch
Ġ V
o m
ei t
Ġ ge
Ġ L
Ġv on
i er
Ġd as
Ġ g
Ã Ł
o l
r e
Ġ 2
r o
Ġz u
c k
Ġ an
Ġ (
b en
ich t
u t
Ġm it
u ch
i g
Ġ N
Ġ I
Ġi st
Ġa uf
an d
Ġ J
e h
i on
i l
Ġd es
Ġi m
Ġv er
en t
Ġ l
r ei
Ġf Ã¼r
s en
l s
an n
Ġ Z
ĠS t
s e
Ġ U
a hr
a f
st e
m en
a u
l e
a g
0 0
Ġb e
Ġd em
a h
ĠV er
â Ģ
Ġs ich
Ġ C
Ġ "
ĠS ch
Ġn icht
Ġ t
Ġ o
Ġ un
Ġa us
Ġ1 9
Ġein e
isch en
Ġs o
a b
Ã¤ n
o ch
i k
D ie
Ġw ir
i en
f f
ung en
k t
e u
s p
Ġa ls
Ġ O
Ã¼ ber
Ġw ur
n en
e hr
in d
Ġb ei
ie l
Ġw ar
w ei
Ġ es
ĠA n
v er
Ġs ein
st en
Ġs ch
0 1
s er
g er
a d
et z
sch af
Ġ p
at ion
ei ch
ĠI n
. .
ll e
h e
Ġ Ã¼ber
Ġ st
es ch
Ġ -
Ġs ie
Ġh at
Ġw er
er n
e d
Ġa uch
e g
r i
ei l
o s
h n
t s
in g
u l
a us
Ġ j
o p
ĠE r
Ġwur de
ung s
i m
o t
Ã¼ n
ĠJ ahr
e st
ll en
Ġn ach
Ġv or
Ġw ie
Ġ um
ur ch
Ġwer den
Ġa m
r ie
ĠS ie
Ġs ind
or t
r u
m er
l ie
an g
Ġi hr
Ġ âĢ
i st
g t
Ġz ur
Ã¶ n
en n
Ã¶ r
ĠU n
l a
b e
ĠA r
a ll
ĠS p
en d
isch e
Ã¤ r
Ġein er
schaf t
Ġwir d
Ġ e
Ã¤ t
a ben
Ġ2 01
ĠP ro
r Ã¤
Ġ 3
Ġdas s
Ġb is
ch en
an z
n e
Ġ ich
h al
Ġd urch
Ġz um
h t
Ġ r
h l
Ġun ter
w er
Ã¼ ck
ti g
ĠE in
ĠE n
te t
Ġo der
Ġein en
e ch
ĠG e
D as
u g
f t
Ġ ent
ĠD ie
Ġein em
lich en
i gen
k ti
Ġa b
Ġd a
st er
te l
p p
ei ter
ste ll
i ll
I ch
ĠA us
ter n
Ã¼ hr
ĠB e
ein e
ge l
om m
D er
ar t
ĠM it
r an
a uf
ier t
Ġs p
z en
n er
us s
Ġ2 00
i v
i ge
Ġ Ã
b t
i ck
o g
ah l
ge b
ch e
Ã¤ hr
ĠB er
om men
er s
e ut
Ġn och
eh en
u ÃŁ
er t
b l
Ġh aben
p f
r it
f or
at z
lich e
i z
i c
h er
ei ten
sch en
I n
el t
g es
eit s
h en
Ġa ll
as s
Ġ re
m e
Ġn ur
Ġw o
or d
z u
ĠA b
Ġk Ã¶n
Ġm ehr
" ,
k en
sch l
ĠV or
l in
at en
ĠM a
Ġan der
a st
ch t
f en
a p
Ġa ber
es s
ĠR e
r Ã¼
u st
ĠE ur
Ġ1 8
Ġ 4
etz t
de t
t ra
Ġv om
ĠâĢ ŀ
âĢ ľ
Ġz wei
g r
Ġdie s
ab e
ĠA uf
Ġd u
b ar
u d
e ben
ad t
der n
Â Ń
Ġ 0
ar b
h o
z e
Ġ 5
l er
ĠG r
k eit
Ã¤ ch
w ie
m al
l ei
Ġk ann
p l
.. .
Ġn eu
o hn
k e
o b
U n
u e
Ġb er
al t
o ll
ro ÃŁ
i a
i d
ach t
o k
n is
Ġz w
Ġm an
e b
E in
l t
an t
ier en
kti on
Ġd ar
Ġw as
ĠK on
Ġge w
s s
1 9
S ie
is s
f ahr
ĠO r
Ġ c
im m
l eich
) .
k l
il d
Ġge gen
ĠH er
rei ch
Â ł
Ġw eiter
eh men
ĠM ar
w w
h eit
o w
Ġ et
ĠL and
as sen
ĠG em
ĠZ eit
) ,
e kt
Ġso ll
Ġ 7
a k
f Ã¼hr
i al
E r
n ah
E s
Ġl ie
Ġb es
a y
f er
b ur
ĠEn t
e ll
ĠF ra
Ġg es
ut z
f l
Ã¼ t
ĠAr b
Ġwur den
am men
g lich
f ol
m it
o v
ĠkÃ¶n nen
ier ung
a ge
d u
Ġ gen
ff en
Ġ 6
Ġ19 9
Ġwie der
it z
ĠGem ein
Ġh in
an de
at t
Ġk on
ĠS e
ĠF l
Ġbe st
b st
o d
ĠC h
Ġhat te
ĠA l
f e
m m
" .
ei gen
und en
t p
v or
us ammen
d em
Ġh ier
p er
sch ie
r in
Ġk l
ĠN ach
t eil
Ġb et
l and
p t
ei ÃŁ
/ /
a gen
W ir
Ġdie ser
ar d
rei s
ĠG es
g lie
Ġh er
ation al
Ã¤n d
ier te
ĠSt adt
ĠEur op
Ġet w
g an
lie ÃŁ
ei d
ol it
n ung
m a
Ġein es
Ġw enn
: //
Ġso wie
r at
e z
Ġdie se
el d
isch er
l ung
n et
ig er
ĠR eg
w e
Ġsein e
ĠU m
ĠUn ter
s am
ar k
ei m
Ã¼ s
for m
w ick
n t
S t
Ġh abe
ĠK l
m ein
ĠK omm
ľ ber
i o
Ã¶ ff
Ġ 8
et t
ĠP l
it Ã¤t
z eit
g esch
Ġzw ischen
Ġg roÃŁ
i bt
ie le
k te
h m
s i
Ġj e
I m
ah n
c e
ei te
Ġun s
ĠD er
ĠD eut
sch e
l os
a te
S ch
Ġ 9
2 01
r ich
on der
A n
ĠF or
k ommen
Ġd ann
z eu
Ġs ei
Ġ1 0
Ġsein er
Ġ1 5
ĠJahr e
u b
gen d
ĠR o
Ġs ag
bur g
q u
or en
s el
ĠJahr en
is sen
Ġwar en
Ġin s
f in
ĠH o
ir t
a ut
Ġ .
Ġge h
eu te
r en
Ġd eut
ĠG esch
ĠM en
1 0
it ion
n te
ti gen
em ber
Ġihr e
l au
Ġsch on
Un d
Ġm ir
f Ã¼
ei ster
ein en
on t
at er
k el
ÃŁ e
h aus
Ġ1 7
te m
z eich
Ã¤ hl
l o
Ġ1 2
in der
stell t
iss ion
Ġ19 8
Ġd am
b au
o ur
Ġg ibt
hal ten
Ġs el
Ã¶ glich
ĠS te
ru pp
Ġm ich
al e
g ra
Ġ2 0
or den
eh t
h nen
ach en
00 0
ĠB r
Ġf in
w ar
Ġj ed
Ġa lle
p h
am t
p r
ti on
Ġv iel
am en
Ġun ser
Ġd rei
a at
f all
ann t
ver s
Ġs eit
p ro
z ent
Ġg er
ĠMit glie
m in
Ġs ehr
Ġ Q
ĠÃ ľber
ar l
Ġim mer
ĠI m
ie der
Ġda ÃŁ
i an
ĠS o
ĠâĢ ĵ
ber g
a v
Ġ1 6
Ã¤n der
sp iel
ĠA m
Ġk eine
st and
ĠT eil
ĠSp iel
ation en
Ġg esch
1 2
ge ben
Ã¼ d
s atz
ĠI hr
wei se
s k
i um
Ġt he
Ġg r
Ġan ge
uch t
i f
ĠK o
Ã¶ l
ĠW elt
Ġzur Ã¼ck
ĠD as
al d
ie t
ĠH aus
b es
hn e
ck en
e ter
y st
ĠU hr
ĠT h
an k
ers on
Ġdies em
M it
m ann
ei st
Ġi hn
in e
at ur
r icht
Ġaus ge
tra g
k ehr
Ġbe g
V er
ĠGe b
ol og
ran k
Ġf ol
er en
b r
ĠB et
Ġm Ã¼s
Ġo f
ĠL eben
ĠSt ra
Ġbei m
Ġd e
Ã ©
am m
Ã¤ l
Ġ eigen
Ġ1 4
Ġer st
ĠFra u
Ġ en
Ġander en
in n
st ag
ht tp
yst em
ĠR ech
ÃŁ en
ti ge
Ġg anz
au pt
ch te
E R
hal b
k s
Ã¼n f
l Ã¤
Ġer sten
und es
an den
am il
om p
e w
Ġd ir
ich er
ĠM in
Ġ19 7
ĠZ u
Ã¤ f
ĠB ei
ich te
rie b
a c
tern ehmen
Ġp ro
W as
Ġ1 3
a de
Ã¶ s
r um
h Ã¤
Ġ1 1
z t
es en
Ã¤hr end
iv e
Ġw en
a um
ĠGr und
Ġge b
ĠM us
e gen
uÃŁ er
ĠG er
an der
Ã¤ ter
Ġw ill
al en
o st
ĠW as
ste llen
la ge
ul t
ĠM ann
ĠB l
ĠM on
u ten
i p
Ã¤ d
Ġbe k
Ġg ut
N ach
1 8
ab ei
ĠKomm ission
2 0
Ġgeh Ã¶r
f ra
Ġb esch
Ġm ein
kti v
schaf ts
fahr en
Ã¶ff ent
z ie
ĠT e
a is
ww w
schl and
ĠP ol
k er
1 1
o ff
ig keit
ĠF r
Ġa r
Ġg leich
ĠU S
iel t
ĠR at
Ã¤ ischen
o h
Ġi hm
z ial
b ild
g ung
2 00
st ra
Ġver l
â Ĥ
Ġjed och
a ck
e k
ot t
âĤ ¬
ing s
Ġf Ã¼hr
schaf ten
lich er
ĠMen schen
an ge
Ġdam it
u er
i ff
ĠW er
t re
ĠA ut
mit tel
or f
ĠB au
Ġ Â
1 7
re ch
ion en
3 0
f ach
Ġber eits
und e
Ġsel bst
Ġs on
u te
1 6
z ahl
ĠMitglie d
ĠSch l
ĠArb eit
schie den
en de
Ġge f
c om
al s
Ġihr er
olit ik
ĠB es
o ber
ier ten
in gen
ich tig
Ġge l
ĠP erson
ĠB o
Ġ /
Ġb in
stell ung
Ġm uss
ra d
ĠM Ã¤r
ist er
Ġetw a
un kt
o hl
Ġf or
er e
5 0
Ġsein en
Ġ201 6
fol g
f s
Ġz usammen
E N
w end
Ã¤ m
h a
s etz
Ġw Ã¼r
z el
la gen
ĠJ un
w alt
en den
Ã¶ ÃŁ
hal t
en s
i sten
g ar
Ġge ht
Ã¼r ger
ĠmÃ¼s sen
Ġneu e
an s
au er
y m
ien st
w eg
si den
rit t
D u
ri ff
a z
ĠVer ein
Ġver b
Ġk omm
ĠA ug
ir k
uch en
rÃ¤ siden
b ei
g l
r on
ĠE s
u le
il m
Ġ u
ĠEur o
a aten
uf t
g ang
ĠP art
ĠÃ ĸ
nah me
Ġ on
m us
st Ã¤nd
ĠUn ternehmen
d r
ĠDeut schland
kl Ã¤r
ĠB undes
o gen
ĠPro du
Ġh eute
ĠF amil
Ġsein em
ĠM o
Ġj etzt
Ġd och
h in
ĠK inder
ĠF ahr
i te
z w
n a
ĠEn de
s o
y p
1 5
ĠQ u
Ġein ge
ĠL e
W ie
nah men
sch lieÃŁ
ĠT ag
Ġ19 6
ru ck
ĠG en
Ġd ich
t a
.. ..
ĠK ir
z ei
Ġ Y
h ol
Ġe ben
h il
in nen
ra ch
ĠE x
Ġl etz
as se
en z
es sen
re u
ĠSch w
Ġn ie
i b
ĠMÃ¤r z
m Ã¤
ur op
on d
Ġa l
Ġ3 0
ĠB esch
nis se
ĠVer b
ĠJ ul
A ber
ĠE l
k eiten
e c
Ġdies es
ĠJ an
Ã¤n ger
C H
Ã¼n d
i vers
A m
ur z
ig ung
ĠE U
ĠOr t
Ġo hne
W enn
e f
ĠZ usammen
Ġsp Ã¤ter
ĠM ill
Ġihr en
arb eit
un ter
B ei
Ġetw as
o u
ge mein
Ġlie gt
eich t
n it
m eister
Ġ19 4
Ġ eh
o ten
v on
Ġan d
Ġneu en
Ġk ommen
ra g
ĠÃ Ħ
ck e
A uf
an gen
bl em
k on
ĠEnt wick
Ġk ein
Ġver w
Ġ ,
Ġn un
ge w
ti kel
sp r
A ls
im mer
rie g
Ġall er
Ġv ier
Ġf est
h af
Ġw eiÃŁ
Ġf r
f te
Ġd ort
s icht
ĠS on
u bl
Ġw orden
y s
Ã¤n g
m ar
ig t
ĠN eu
tern ational
S o
ĠP f
Ġander e
Ġge st
g leich
Ġn ah
ĠS ti
am e
gra mm
ho f
ĠO ber
Ġw el
am p
m an
2 2
gan gen
z ug
Ġ %
ĠN ov
Ġm us
ĠH aupt
Ġo b
rupp e
st adt
ik an
f Ã¤
Ġm achen
Ġge mein
Ġver s
ro t
ie ll
es se
ĠR ei
Ã¶n ig
am ent
Ġkon nte
ĠArb eits
ĠF in
or g
u ar
wer k
ation s
2 5
Ġ2 5
gr und
o sten
irt schaft
Ġfol gen
k auf
re chen
Ã¤ u
fall s
F Ã¼r
s a
le gen
1 4
ĠBer lin
st Ã¼t
ĠT ra
ĠSe p
Ġgr Ã¶ÃŁ
âĢ ĵ
Ġv iele
Ġbei den
it zen
tem ber
h Ã¶
Ã¤ re
ĠC o
ĠF re
Ã¤ tig
ĠK ar
Ġsag te
ĠJun i
Ġw Ã¤hrend
kt ur
s b
Ġver schieden
Ġer ste
g aben
ol d
ch n
in ter
ĠBer eich
h und
el n
m ent
v en
z er
Ġk am
Ein e
zeu g
Ġden n
w ohn
gan is
' s
Ã¼n st
kt ober
Ġall em
ĠM al
1 3
Ġt eil
Ġd abei
ĠSt aat
ĠEurop Ã¤ischen
ĠH and
Ġst eht
ĠJ u
Ġi s
Ġm al
ĠW och
S p
ĠM e
t h
g ie
Ġm Ã¶
b all
ĠMit tel
a den
Ġson dern
ĠW ei
Ġ2 2
rÃ¤siden t
eh n
ult ur
ĠG roÃŁ
ĠB ild
f ang
Ġe x
al ien
ĠC hr
ĠGemein de
in a
ing t
ĠH Ã¶
ĠWas ser
fÃ¼hr t
ti er
Ã¶r der
Ġall es
ĠAug ust
ĠIn d
sch eid
Ġdie sen
ĠU r
al ten
t r
ez ember
Ġg ab
ĠSch ul
ĠA pr
ier e
ĠIn form
ti gt
al is
ll er
rei chen
ande l
Ġsag t
t w
ĠF rank
ei den
for der
ĠF rei
Ġsoll te
Ã¤t z
Ġst att
uf en
eu er
hÃ¤ lt
sch er
ĠL ie
0 3
d i
ĠUn ivers
ei g
ĠB eg
D a
Ġf rÃ¼
A uch
ĠSep tember
iz ei
ĠD e
Ġden en
ĠO ktober
k un
it Ã¤
Ġbes onder
ĠR Ã¼ck
Ġb ra
ĠP ar
0 7
ĠJul i
mÃ¤ ÃŁ
ĠB Ã¼rger
at iv
ĠMa i
rin gen
Ġ te
Ã¤n de
Ġ2 1
ĠR icht
n eh
ĠK Ã¶nig
te te
Ã¶ffent lich
ĠNov ember
ht m
o ck
t ag
rie ben
ĠW ohn
ĠIn ter
ĠHer r
Ġbe f
Ġh Ã¤t
0 8
ĠW ar
imm t
or e
de ut
ĠG ra
ĠJan uar
at s
ĠVer s
T he
Ġl ang
Ġt o
ord nung
Ġ +
Ġw eil
Ġge m
Ġb el
Ġein fach
f ern
de l
en k
h eim
ĠT he
Ġ2 3
ĠD ezember
icht s
0 4
ie s
gen ommen
ĠMus ik
or gen
Ġf Ã¼nf
Ġ2 4
B l
Die se
f ten
Ã¤ch st
Ġsp iel
Ġauf ge
a ar
ĠPl atz
Ġs ehen
0 5
a llen
ĠG l
j Ã¤hr
0 2
Ġver st
ĠApr il
ĠD urch
c o
ĠN ord
Ġb en
wer t
Ã¤n dern
Ġbe fin
ĠV ol
ĠPro zent
ra ft
p unkt
ach e
r om
j ekt
rie d
ais on
Ġent sp
ĠAr tikel
in er
J a
ĠM an
Ġh t
ĠL in
ĠPro blem
i de
j ahr
Ġ Ã¤
Ġm Ã¶glich
Ġkomm t
am er
ra um
ĠS Ã¼d
a x
Ġfin den
p rÃ¤
sch ri
a i
Ġda zu
le gt
ĠM ed
Ġb eh
ĠF ilm
er v
u p
b o
n ten
Ġ &
st ein
ri v
em en
2 4
er r
Ġnicht s
Ġdar auf
arl ament
Ġ19 5
f o
Ġhat ten
s st
0 6
it u
Ġ19 3
Ġb lei
Ġz un
Ġr und
19 9
ag er
los sen
ah men
Ġgemein sam
ster reich
af Ã¼r
ar ten
Ġj a
P ro
A us
ĠwÃ¼r de
Ã¤hl t
Ġf rei
ĠJahr hund
ĠI hnen
un st
ĠEntwick lung
Ġb ie
eit ung
ust rie
w ohl
ob il
0 9
d ings
Ġweiter e
ĠâĢ Ķ
op p
ech sel
V or
ĠSt ud
g abe
ell schaft
in de
enn t
Ġ( *
y n
ei le
ĠN amen
ĠPerson en
Ġ201 5
f r
Ġht tp
ch er
mal s
Ġh o
ĠH och
b ach
ĠAr t
Ġer sch
Ġl assen
sch utz
b ung
um en
un ktion
er k
ĠIn st
eh l
fÃ¼hr ung
ĠN r
A r
Ġ :
Ġs ol
ĠR ahmen
eb ru
f eld
ut ter
ĠI ch
i tel
ru ktur
b et
w elt
it te
an st
af fen
ach sen
t ro
ebru ar
Ġ ch
ie g
V on
Ġder en
ver b
sch nit
ti ert
k ten
ĠGemein schaft
le x
ig a
Ġwo ll
or n
Ġh Ã¶
b ahn
ste d
ĠLand es
Ġ em
bild ung
Ġals o
re g
Ġm eine
rupp en
ra cht
Ġer folg
ĠB est
Ġv oll
schie d
ĠPol izei
it y
lei st
ĠL i
ar r
Ġar b
ri st
e y
Ġw egen
h eits
el s
. )
is k
ic e
ĠF uÃŁ
ĠGe w
ÃŁ nahmen
as st
ĠS eite
Ġein z
ĠB ed
ann te
2 3
gr Ã¼n
Ġsch w
ubl ik
in en
j e
ĠM Ã¼n
ech n
stra ÃŁe
Ġletz ten
Ġn ot
ech s
Ġsich er
e x
ĠF est
ĠP arlament
Ġa uÃŁer
ĠD aten
Ġst ehen
ĠFor m
Ġ Ã¼
Ġwer de
a ur
Ã¤ch te
zeich net
Ġw issen
ĠFrau en
Ġ2 8
om mer
A b
pl atz
ĠSt and
Ġt h
Ġwo llen
ĠG ott
tre ten
ges amt
ĠF ebruar
ge gen
Ġer klÃ¤r
ĠN ieder
o se
wer b
ar m
ĠgroÃŁ en
e p
Ġ201 8
ĠGe gen
ĠLeben s
ber t
c t
schl ag
olog ie
ĠP r
Ġda von
Ġein ige
Ġge hen
Ã¤t ze
W G
ges etzt
ĠS icher
2 6
h and
ĠMill ionen
Ġa llen
Ġ2 7
at or
ĠZ ahl
Ã ¡
ich ten
z ung
ĠF ol
on s
ĠReg ion
er st
ĠgroÃŁ e
Ġer z
de te
Ġl Ã¤
ĠF all
w irtschaft
2 1
st aaten
Ġ201 0
a ÃŁ
ĠW ahl
Ġ or
ck t
Ġt ra
Ġdes sen
Ġsch ne
ĠS aison
Ġein mal
ĠW e
ag t
al b
Ġh ast
Ġ el
uÃŁ en
ĠK ap
ol f
ĠEnt scheid
en nen
ra uch
Ġso llen
l ungen
ĠÂ »
ĠN Ã¤chte
at h
Ã¶ st
sch w
kun ft
ĠFl ug
ĠW eg
Ġ2 9
ur s
Ġihr em
og ra
ge stellt
w ort
2 8
er in
Ġz ahl
o c
ĠB eh
Ġ2 6
ĠRech ts
s h
ĠB uch
ĠZ wei
u hr
Ġer w
Ġo ffen
zie h
ann ten
ĠA d
re d
ein ander
t t
Ġd afÃ¼r
la uf
schl uss
Die s
E S
ĠkÃ¶n nte
st off
ĠK unst
a in
ĠH il
ĠJu gend
ĠL u
ber eich
" )
at Ã¼r
is mus
m o
ĠA ll
Ġw Ã¤re
ĠB ar
Ġp olit
sten s
Ġbes ser
2 7
Ġk urz
am pf
Ġh Ã¤
on e
Ã¼ hl
q ue
ik a
t lich
Ġt un
ĠMar kt
Ġ [
sp ro
o te
Ġent wick
min ister
e lle
Ġer h
ĠChr ist
in ger
Ġ ra
ande lt
ass ung
re cht
Ġver m
l i
Ġi hnen
ĠB el
sch ule
2 9
Ġ ...
Ġin ternational
E I
ch ten
r Ã¤n
A N
ĠEurop a
Ġin ner
est er
r eit
ig ten
Ġe urop
Ġsch wer
ig n
ĠG eld
Ã¼ ss
ĠZ ug
ĠgehÃ¶r t
ĠJahr es
Ġbek annt
sch ul
Ġ200 8
ĠFamil ie
anz Ã¶s
Ġer halten
ar e
ĠE is
n ehmen
ei tet
irt schafts
Ġbe de
ĠIhr e
onder e
h eiten
z ogen
os ition
isch es
ur t
ĠN ational
al ter
ur e
as e
ich tet
u ter
Ġeben falls
Ġ1 00
ĠVer l
arb eiter
en det
ĠE m
w ahl
ĠS k
M an
Ġ201 1
Ġab ge
B er
u ll
re ffen
s ol
a il
lich keit
Ġs agen
Ġw ichtig
Ġ200 9
Ġh eiÃŁ
v e
ach te
Ġwir k
Ġl ange
ĠFin anz
k reis
v o
Ġg ing
N ein
ent r
Ġk m
ĠGen er
rit ten
Ġ ed
Ã¶l ker
ĠL ehr
Ġw eit
ĠH in
U m
ie d
s on
l an
v est
ĠB ahn
ĠD u
ĠM et
ĠD ienst
ĠZ iel
ll t
em a
o f
sch ung
Ġd ah
ck er
ĠS u
Ã¤n ge
Ġ201 4
ĠA u
Ġ it
Ġl e
ĠS ystem
ĠEr geb
ĠN ew
ĠP olitik
Ġ5 0
ist or
uch e
al itÃ¤t
ĠD on
w eit
W er
ge hen
e um
âĢ Ļ
bes ondere
op f
ei gt
em al
f el
ĠKir che
Ġi r
Ġer n
s l
at ive
ff iz
tra gen
Ġunser e
ei sten
ĠI I
Ġdeut schen
Ġje wei
Ġ200 7
Ġ( "
Ġsch lieÃŁ
Ġge ben
ĠS ohn
Ġbe w
Ġg lau
Ġin ter
pp en
b el
ĠT echn
Ġher aus
Ġ x
ie w
ĠSp ort
Ġ X
Ġ201 3
Ã¤u de
ĠP rÃ¤sident
H ier
lich t
Ġ y
r es
Ġzun Ã¤chst
sch ein
ran ken
iell eicht
Ġ201 2
rÃ¤ ge
Ġb zw
ein er
neh mer
g n
g te
ĠVer kehr
I hr
i der
setz ung
Ã¼ l
Ġander em
Ġm acht
rei se
Ġn e
Ġent st
ĠP h
wend ung
il t
ste lle
Ġwo hl
ĠEin satz
E WG
os s
ĠSch wei
4 9
Ġn Ã¤ch
a kt
et te
Ġhin ter
ĠB ay
Ġ3 1
Ġh och
ut t
ĠA t
ĠG el
ĠTe am
an ten
ĠM Ã¤n
ie ls
mar kt
ĠB ur
Ġaller dings
ĠN atur
ĠF ern
Ã¤m pf
ĠGesch Ã¤f
4 5
U N
Ġbefin det
ĠRe gel
ĠH ol
Ġwoll te
d ie
lin ie
Ġgem acht
ne te
Ã¤ ische
ĠS an
k r
ĠSo zial
ĠO l
Ġzwei ten
f ung
s itzen
Ġ #
b ed
s y
geb iet
c a
ĠBei spiel
Ġb ist
ĠReg ierung
sch uss
alt ung
ĠS al
ti m
rot z
Ġre g
_ _
ĠWoch en
on nen
Ġn eben
ier ungs
ue lle
l y
ĠVer walt
Ġso zial
teil ung
Ġf ast
ĠS er
ĠFra ge
Ġeh emal
er gie
ĠK rieg
rei che
ĠS am
h Ã¤ng
ĠPart ei
ein t
W ar
st Ã¼ck
i x
k a
in ner
ver kehr
ĠRe p
ĠK ultur
Ġeigen en
Ġ ur
ĠM Ã¶glich
w ehr
ĠT od
ĠFamil ien
ben d
oh ann
a lle
Ã¤r en
ĠMitglied staaten
ĠPro f
ande ls
is e
ach ten
ĠJ a
ĠL uft
Ġh ab
ĠUn ion
or k
bes ser
rei cht
ĠF Ã¼r
Ġger ade
al er
Ġgegen Ã¼ber
Ġb il
Ġ200 6
ĠhÃ¤t te
Ġver fÃ¼
Ã¤f tig
ĠP at
ĠW irtschafts
ĠInform ationen
Z u
Ġp er
il der
ĠD an
3 4
ĠT ur
e der
Ġ âĤ¬
ĠUS A
itÃ¤ ten
ti eren
ett be
Ġwel che
ĠGesch ichte
ĠK reis
etz en
a w
z ess
d ruck
r ik
ĠA ls
wohn er
Ġl eben
ĠAn t
ĠI t
ĠPro gramm
Ã¤ che
ĠF ir
ĠRat es
l ang
ĠM il
Ġbest eht
Ġsoll ten
nt ag
* *
ĠmÃ¶ chte
p a
Ġzw ar
Ã¶r per
ĠT el
ĠT ran
Ġa kt
ĠGr Ã¼n
ĠHo tel
d orf
ĠBet rieb
rei ben
ĠR ad
ĠW est
Ġd Ã¼r
Ã¶r t
uch s
Ġwen iger
Ġs echs
ĠP M
ĠV ater
Ġerh ielt
Ġein zel
ĠH am
Ġw ahr
st aat
ĠB as
et ten
ur en
3 5
& #
Ġs Ã¼d
ĠEntscheid ung
Ġbest imm
ind ung
ik er
i pp
te ls
ar i
4 0
ra che
Ġg ilt
Ġo ft
p en
b eh
h el
Ġg ar
ĠT or
h le
ĠL eist
ĠBer g
Ġd an
ĠK n
teil t
ekt or
ĠS ommer
et s
Ġ stell
ĠT itel
ĠR om
g lichen
ĠH eim
et ter
h ang
c l
wei s
I S
e v
ge f
sp ort
Ġverschieden en
u en
ĠM utter
schnit t
ĠK at
sch t
ig es
ĠR eich
ĠBer uf
Ġbeg ann
ĠP reis
Ġgen au
ĠF euer
ant wort
ir e
Ġ201 7
D och
ĠB and
ĠTe x
3 3
in s
ĠD em
Ġunter stÃ¼t
Ġum f
atÃ¼r lich
e llen
Ġins besondere
ĠWer k
Ġviel en
ĠN acht
ĠUnivers itÃ¤t
Ġst ar
ĠPro jekt
lin e
ĠD i
ĠAn g
eite te
d re
Ġwen ig
ĠStra ÃŁe
los s
ĠStaat s
w as
Ġje der
m Ã¶glich
ĠB Ã¼
S eit
n der
Ġz ehn
ĠAn fang
ge h
h ein
l ungs
Ġ '
ĠC l
Ġ Ã¶ffent
d ienst
f rei
ĠB en
ĠBes uch
un kte
ktion en
Ġso gar
Ġmehr ere
it er
e e
ĠPl an
Ġschne ll
ĠE igen
Ġk einen
Ġsei en
Ġbesonder s
Ġins gesamt
il om
p art
ien en
o der
ĠV on
Ġkl ar
T h
ĠMa ÃŁnahmen
le ben
lie gen
Ġge t
I N
Ġbis her
z Ã¼
ĠHÃ¶ he
os sen
ĠK om
r Ã¼ck
Ġfr anzÃ¶s
ĠF ried
Ġw ich
k o
Ġmus ste
v Ã¶lker
Ã¶r en
ĠF ach
it i
o ol
ĠM ont
Ġ200 5
ĠW ien
ĠW issen
ĠR es
au l
bl ick
Ġn ational
Ġgew esen
op h
d es
ot o
E L
Ġz ie
Ġk om
ĠT our
Ġre cht
ĠAl ter
ĠT Ã¼r
st at
etz te
ĠFuÃŁ ball
ri gen
ĠS itz
w Ã¤r
ie f
P D
Ġinner halb
ĠG eh
ĠSt re
âĢ ŀ
um s
t ler
k ir
Ġver Ã¶ffentlich
ĠF er
rich ten
A ll
f ort
. "
Ġbie tet
ti ger
zei tig
uch te
ĠR u
us Ã¤tz
Ġwirk lich
ĠH e
Ġd i
3 6
utz t
richt ung
it ter
ĠW ie
ĠGeschÃ¤f ts
Ġ ro
Ġ end
z immer
ĠS el
A l
s ie
ver ein
ei er
ĠR aum
r t
rie den
n ach
ĠK Ã¼
ĠI s
us e
Ġst ark
K omm
un t
ĠGes amt
d a
ĠM ich
Ġsp ez
Ġnah m
Ġer g
4 8
3 9
an ce
ĠD ar
ĠG ruppe
ĠF Ã¤
Ġges am
ĠRo lle
Un ter
ern e
ĠL a
h ei
Ġbe d
ĠDie se
ĠfrÃ¼ her
ĠFre und
s ehen
fra ge
J Ã¤hr
Ã ľber
ĠF rÃ¼
ĠP ark
schri ften
gangen en
ĠO b
ĠN e
Ġb r
ĠUm welt
ing ungen
ĠK omp
Ã¤nder t
arb eiten
Ġ4 0
an ken
âĢľ .
P o
or ten
ettbe werb
Ġsch Ã¶n
ul a
ĠFrank reich
ra gen
w and
ĠC ar
ĠG ast
at ten
ĠDeut schen
ue ll
ĠRech t
Ġ qu
t schaft
ĠProdu ktion
ĠEn ergie
Ġsein es
Ġe uch
s ystem
Ġdeut lich
ich ter
ĠÃĸ sterreich
Ġem pf
uf e
19 8
ĠJahrhund ert
ĠT r
Ġsch l
ĠAr ch
ges ehen
ĠO st
ĠP er
K l
âĢľ ,
Ġte chn
or te
Â «
Ġweiter en
Ġ Ã¶
w agen
ĠJ ohann
ut zen
v oll
rei fen
3 1
Ġfin det
ĠZ w
lau b
lich es
stell er
Ġz eigt
ĠAut o
ĠIn tern
Ġlie gen
M ar
ue llen
Ġm eisten
ĠVer trag
ach st
k rieg
ĠD a
rit te
ĠMin uten
p iel
ĠAn ge
ner stag
. ,
j a
sch eiden
Ġsie ht
anz en
an c
U S
ĠW eiter
3 8
ĠEin zel
Ġst and
Ġ200 0
Ã¼nst ler
sp l
ne ten
ym p
wie sen
Ġunter schied
st re
3 7
m b
s n
D ann
it al
a el
ĠGeb iet
O N
ĠheiÃŁ t
ĠZusammen arbeit
s uch
ĠP hil
ĠTh ema
Ã¤ um
en zen
o ti
Ġin d
ĠN or
Ġp rÃ¤
r y
eit ag
ĠW ert
rad ition
ĠMit arbeiter
Ġg l
ĠP ort
ĠR est
ĠâĢ ł
z ip
ĠM ehr
on g
Ġhin aus
A T
ĠVer fÃ¼
o de
Ġb lie
Ġkon nten
E nt
ers Ã¶n
ĠStra ÃŁen
ot or
Ã¤ch lich
um mer
ĠA lt
Ġ200 4
ater ial
Ã¤hl en
Ġge grÃ¼n
ĠS eiten
och ter
Ġunser er
m el
ow n
Ġw eg
fÃ¤ h
Ġl os
ĠL auf
ĠÃ¼ b
ĠB ru
ĠHer z
ĠRicht ung
au en
v in
ĠfÃ¼hr t
au p
ĠT age
ĠIt alien
ĠSte ll
ĠK in
Ġauf grund
E G
ist ischen
w irk
ĠS en
ge ber
ĠOr ganis
ig te
ĠSch utz
ĠS h
Ã ĸ
D an
ĠVer fahren
Ã¼ ler
A R
hal ts
ĠÃĦ nder
om it
Ġn ehmen
ĠVol ks
ĠMÃ¼n chen
B e
eh m
Ġbe vor
ge ord
3 2
ĠSt at
g ten
und er
wei ter
ĠM eter
Ġdar Ã¼ber
an ien
D enn
ĠBe deut
ri ft
ĠL age
Ġgew ann
ig keiten
ĠR a
is se
l en
Ġge geben
nah m
ĠHil fe
ĠVer t
Ã Ħ
Ġje den
UN G
ĠP ap
ĠW eb
Ã Ń
an a
w ig
ĠA bend
ĠKomm un
rÃ¤ gt
Ġkl einen
Ġdir ekt
ĠD orf
ie ten
Ġ ei
ĠF Ã¶rder
ĠInd ustrie
ĠWoch e
ĠBe vÃ¶lker
u k
ĠM eister
g ruppe
Ġf and
y r
I t
ĠZ immer
h ard
ĠSt aaten
we gen
Ġblei ben
Ġ18 9
ĠAl b
ilom eter
k m
k rÃ¤
ĠSch iff
Ġan geb
ĠD ien
Ġfor m
ĠN ame
ĠB eit
5 5
ĠwÃ¼r den
ru g
j p
Ġfin anz
ĠUnter stÃ¼t
bur ger
uÃŁer dem
on en
du z
o e
ei ger
ĠSt r
ĠF C
ĠW ald
st ieg
m Ã¶
ĠB ad
age ment
4 6
ge m
ĠM ag
st r
Ġer war
ĠK an
Ġkl eine
ĠB ra
om e
ĠKo sten
8 0
Ġver gangenen
ĠK ind
u h
ĠMar k
Ġkl ein
ĠBedeut ung
al if
ĠlÃ¤ sst
T C
ĠN Ã¤
Ġr el
uf ig
fahr t
ĠP eter
ri d
ĠK raft
ĠGeb Ã¤ude
om in
W o
am mer
w esen
hr en
ĠI de
wei sen
at te
gel n
imm ung
Ġerst mals
on n
ĠIn sel
4 7
Ġdah er
ok rat
it Ã¤r
ĠMit te
schl Ã¤
sch inen
ĠGes etz
ar f
Ġges agt
haus en
de ten
S T
un k
ĠschlieÃŁ lich
h aupt
ur r
reu z
Ġwir tschaft
ut h
E n
p ar
am it
al y
ĠW ieder
z uf
ĠL ei
Ġher vor
eh e
ĠB i
w Ã¼r
auf en
Ã¶s ung
ben e
c i
Ġso wohl
Ġfolgen den
ĠF Ã¼hr
R L
bar en
l iga
ĠFol ge
spr Ã¼n
Ã¼nd ung
ĠE le
Ġ stellt
f est
ĠH el
ĠMin ister
ĠL Ã¤ndern
Ġa t
ĠA ust
pf er
gesch lossen
u tet
Ġl in
p rÃ¼
5 9
Ã¶ t
g or
Ġp ass
ĠK unden
ĠMitglie der
ĠIn vest
Ġh eu
es ent
ikan ischen
Â °
it t
opp el
6 0
Ġ 01
Ġ Ã¤l
em ent
ĠSon ntag
ĠMÃ¤n ner
ativ en
Ġspiel te
Ġb itte
A lle
201 5
ĠL Ã¤nder
ĠSt ein
ahr en
ĠSt unden
Ġdeut sche
w issen
fol ge
ĠEn g
ĠT ochter
ĠnÃ¤ch sten
ĠVer anst
4 4
Ġbest ehen
Ġent fern
sp iels
tw och
ĠAm t
Â ²
ĠN utz
k n
m me
Ġf ort
ĠfÃ¼hr te
pl an
Ġg ute
ĠEin e
ur f
f urt
ĠBesch Ã¤ftig
ĠVerfÃ¼ gung
is h
ĠM er
Ġ ÂŃ
ĠW il
ĠP o
N icht
Ġverw endet
Ġentsp rechen
te gr
zie hen
Ġ0 9
ĠH af
Ġa ktiv
w o
D en
Ġz usÃ¤tz
ap an
Ġgef unden
je kte
ĠGes ellschaft
p olitik
4 3
Ġbe zeichnet
I st
Ġd ein
Ġb ringen
Ġwo bei
schlieÃŁ end
Ġ stellen
Ġj em
ĠAu gen
5 6
m et
Ã¼ck e
ĠS Ã¼
Ġjewei ls
7 6
ĠSicher heit
ĠT em
b est
fÃ¼hr er
war e
it ze
ĠFr eitag
schri ft
bar e
ĠEr folg
ĠA uch
k omm
ĠS ol
Z um
4 1
Ġth is
p s
v ol
Ġ0 8
rÃ¤ ger
Ġk osten
s eite
ĠFra gen
ĠIn nen
ab el
Ġl eg
a e
âĢ Ķ
Ġ199 0
Ġh el
O h
Ġst ud
ĠM art
ion s
ab il
C h
Ġa cht
ik en
Ġre ch
um ent
Ã¤n den
er ts
ar ch
Ġ 000
ĠEl tern
ĠGes und
G r
Ġz uf
b uch
f uhr
ĠW inter
ĠMo de
ag es
ĠW ir
Ġp l
p ort
st att
ten s
ĠK r
ab hÃ¤ng
ĠD es
Ã¤t zen
z te
ne ut
ĠF unktion
in ge
pro du
ĠSch ule
om at
i as
Po sted
ik ation
ar en
v an
ĠP rÃ¤
Ġf l
Ġer reich
it h
ĠFl Ã¼
ur m
ĠD r
Ġver kauf
iz in
Ġal ten
ĠD ir
Ã¤ hn
sam m
ad em
- /
Ġeurop Ã¤ischen
Ġw elt
ĠEU R
ar s
B is
zeich nung
na pp
ĠP la
D urch
Ġsie ben
Ġgen annt
ĠG Ã¤
ĠA k
.... ....
Ġsch le
ĠN etz
Ġs er
ĠA Bl
Ġein igen
g ien
zent rum
5 7
Ġdam als
ĠBo den
ĠhÃ¤t ten
fol gt
Ġm uÃŁ
leist ungen
Ġver t
zeu ge
ro p
ll ig
Ã¶ hn
201 6
was ser
ond s
ĠEr d
R e
ei en
tre ter
ĠhÃ¶ ch
ĠMann schaft
ĠUnterstÃ¼t zung
Ġab sol
ĠT er
itÃ¤ ts
ĠG o
ĠH ei
D ar
ĠGe f
ĠL eute
ĠÃ¤ hn
ĠhÃ¶ her
Ġ0 7
ĠfÃ¼hr en
ĠNÃ¤ he
schlieÃŁ lich
b in
w ir
ĠBer icht
s eh
ĠSam stag
ĠW ind
Ġver d
Ġ6 0
Ġzwei te
Ġ200 3
l assen
Ġw echsel
ĠB ank
ĠKir chen
or ge
ĠN ot
rei ten
Ġl aut
ĠIntern et
ĠW ort
ie lle
un ge
Ã¤ te
ĠZu kunft
us er
ier ungen
ĠC on
g o
st ruktur
Ġh alten
ra kti
) :
ĠVer ordnung
ĠT a
ĠS eit
Ġges ehen
G en
ver fahren
ra m
I T
stÃ¤nd ig
Ġblei bt
Ġn ieder
ĠW irk
v ent
ĠH eil
ĠH andels
ĠO n
om as
ĠU N
ĠHol z
is ierung
ĠM Ã¼
ĠPar is
etz ung
Ġp riv
ĠC omp
F or
it ut
l ag
5 8
fer enz
te ten
ĠS c
ĠMa y
spiels weise
aus piel
ĠE G
ges etz
ĠIn ternational
" :
is iert
ho w
jp g
al k
ĠZ ust
Ġdar f
ge fÃ¼hrt
ĠF ran
Ġa lt
ĠF ort
Ġbei de
or s
ge legt
la den
ĠK rit
i us
ĠK opf
mÃ¤ÃŁ ig
A L
I I
ĠK Ã¶l
Ã¼s se
Ġnah e
im men
ĠAn geb
ĠP al
Ġspiel en
h c
ĠKl ein
ĠgehÃ¶r en
7 7
ĠVor sitzen
ĠC he
Ġv ielleicht
ze pt
ĠD ruck
in o
ĠSpiel er
ĠSch Ã¼ler
se e
ĠerklÃ¤r t
N ur
ĠBeg inn
ĠA uÃŁen
re ff
Ġh andelt
ĠK ranken
Ã¶ff net
Ġbet eil
u ck
Ã¼t zen
Ġer neut
ie ÃŁ
ĠGener al
b s
Ġ ru
ĠF il
Ã¤d chen
be k
Ġverschieden e
ĠBay ern
ĠPart ner
ĠB us
itu ation
op er
Ġdar an
es e
Ã¤n gen
ĠA M
ĠS il
t in
Ã¤ ft
Ġbe sten
Ġer forder
ĠW ein
ĠW irtschaft
ĠkÃ¶n nten
hil fe
Ã ³
te st
zent r
Ġt rat
Ġer k
ĠAn gaben
h ung
Ġn atÃ¼rlich
Un ser
z ig
Ġd re
n ungen
ze p
ĠK ilometer
Ġganz e
ĠMÃ¶glich keit
ph p
Ġlie ÃŁ
ar a
ent rum
ĠRicht linie
i ver
n o
d ung
rei sen
ad urch
ĠH a
pp e
ĠgehÃ¶r te
ĠEr fahr
sp rech
Ġgr Ã¼n
st o
om en
ch es
Ã¶ m
ĠBÃ¼rger meister
nis sen
9 0
ig ht
mer k
ĠP rin
ĠEurop Ã¤ische
ĠKon tro
i lle
ĠProblem e
Ġst Ã¤r
Ġ >
ĠCh ar
ĠR uss
o und
l Ã¤nd
ĠSte uer
ĠM ein
Ã¤tig keit
ber ger
Ġentfern t
Ġall ein
ĠMe er
ic a
Ġt rotz
ĠSch m
Ã ĥ
ĠSel bst
War um
k ur
ti schen
ak ter
n ei
Ġeigen e
ĠBl ick
te chn
Ġh istor
lÃ¤ ss
os it
Ġblie b
ĠUn d
ĠU TC
S V
l ad
Ġdes halb
n u
f re
ie llen
ĠV ort
Â ¨
8 8
Ġir gend
rei bt
Ġdeut scher
ĠC D
rÃ¤ um
ĠDie s
Ġzu dem
ra u
- ,
Ġb rit
ti f
ĠK ur
sy ch
t or
Ġber eit
ĠTag es
ĠS a
o ster
eich en
Ġinter ess
u tion
jÃ¤hr ige
A Bl
ĠG ar
ĠV ier
htm l
ĠEis en
4 2
au sch
Ġzu vor
Ġt Ã¤tig
ĠO p
stell ungen
af fe
ĠRei he
ĠEr n
ĠWei se
Ġb l
ĠP riv
Ġson st
ĠW ill
ĠSt Ã¤d
Ġz eit
Ġer rich
Ġp aar
Ã¼hr en
Ġarb eiten
ra chen
us st
fol gen
ĠN eben
ĠEin wohner
ĠH inter
ĠM r
ĠW ettbewerb
Ġ200 2
b eg
ĠEr w
ĠG ed
u a
fl Ã¤che
o x
glie der
Ġn i
ge t
richt ungen
Ã¼ck s
tier te
al tet
z i
Ġz eigen
Ġi de
f assung
Ġer reicht
haf t
en ze
ch ter
Ã¤ chen
ĠY ork
r aten
Ġc a
ĠParlament s
S te
Ġl eicht
5 2
A S
haf en
ĠF ar
f Ã¼r
ste uer
Ġ200 1
ed ig
as h
5 4
ĠB ern
ĠBevÃ¶lker ung
Ġer reichen
sicht lich
Ġgew orden
ĠFrÃ¼ h
ond on
l ing
Ġ0 4
k ay
Ġ ung
ĠFried rich
is ion
Ġp ersÃ¶n
p or
ge st
fl uss
ĠH ein
5 1
in st
Ġhel fen
ĠB rÃ¼
T el
ist ische
Ġge k
verb and
b y
ĠAus bildung
Ã¶r d
ick en
Ġbe kommen
ĠJ ohn
ĠKo lle
7 0
ĠA mer
sch ungs
D es
ĠBur g
eil en
Ġb y
Ġw est
O b
Ġletz te
mb H
ĠV ide
W eiter
G es
geb ung
n n
sk i
z us
ta kt
ĠE d
or ben
Die ser
ol e
il e
Ġur sprÃ¼n
Ġm achte
8 9
J etzt
Ġn or
Ġre gel
f j
ĠV o
Ġk aum
Ġm einen
ĠB ro
ĠWar en
M ehr
en e
ĠD re
Ġ0 6
Ġf re
Ġges p
ĠJahrhund erts
ĠSte lle
st ehen
ĠLand kreis
N un
geb aut
Z ur
ot he
Ã¶ ÃŁe
ĠA ss
s c
ĠH alb
au ern
mit t
ĠÃ¶ffent lichen
ĠD at
ĠHeim at
O M
ĠEr st
Ġso gen
D abei
ĠFr anz
y l
Ã ľ
ĠK Ã¶rper
zeu gen
Ġk amen
arb eitet
Ġer hÃ¶
ĠHo f
Ġm eist
Ġd eine
p e
ĠMich ael
ei ls
urr ent
Als o
Ġbei spielsweise
Ġw ei
Ã¼ ter
ĠVerein igten
al i
Ġmit tler
Ġeh er
ĠB aum
itz t
ĠVerwalt ungs
ĠMed ien
Ġo ben
in den
i ar
ech t
G e
j f
setz en
hel m
pro chen
Ã¶r den
st ru
he b
8 7
ess or
B I
kt or
K on
halt ung
p ark
ĠBe z
hand lungen
Ġkom pl
ĠAm ts
jÃ¤hr igen
ĠG ruppen
Ġf er
spiel er
ĠBe zieh
ĠG u
y d
ĠD ort
Ġeinzel nen
ĠgegrÃ¼n det
ate gor
ĠUnter such
ĠR en
eh ler
ĠFor schung
Ġein gesetzt
Ġ199 9
Ġ )
E U
ĠD o
ĠD isk
ie gel
a sch
c on
aben d
Ġa d
5 3
ĠK ampf
ogra f
Ġgel ang
u alis
ĠG mbH
Ġinternational en
Ġstell te
ar te
ĠRep ublik
ien ten
ser v
riff t
as en
ĠBes itz
zw ischen
O R
Ġarb eitete
W Ã¤hrend
ĠM Ã¤dchen
ĠE he
8 6
Ã¶ sen
Ġgleich en
ist ik
tion en
and id
ĠK or
Ġweiter hin
ĠOr d
Ġver sch
Ã¶ pf
w est
re ten
ĠMus eum
R eg
m and
ĠD ok
u den
pr ess
amm t
lin gen
rie f
om ent
ĠN ein
ĠErgeb nisse
ie te
ĠR el
Ġdan ach
Ġs e
Ġsol che
et h
Ġall gemein
ĠA pp
iv en
iel en
ĠDon nerstag
r n
b esch
ĠgrÃ¶ÃŁ ten
Ġgeb oren
Ġl ag
ti c
am ar
ig h
ĠSt ruktur
in ne
it en
7 9
Ġerfolg reich
ĠR ed
b te
" -
ik o
sp e
ĠG ut
i den
ĠP ost
k eits
im a
ĠT ier
Ġent scheiden
a ktion
am a
ĠBru der
m ed
ĠA bt
ĠMont ag
ĠG i
ĠZusammen hang
sp iele
z lich
Ġverb unden
Ġr ein
ĠP osition
p o
on a
in nt
ĠP ass
rÃ¤siden ten
ĠK ais
s ei
Ġgew Ã¤hlt
Ġj Ã¼n
b i
Ġo p
klÃ¤r ung
fol ger
ĠD av
. âĢľ
ie gen
t ur
u x
ot os
t ritt
ell er
ĠSch auspiel
n ungs
Ġform ula
ĠT ri
Ġnot wend
Ġ0 5
ĠI r
H er
D R
ĠLi ste
Ġentwick elt
Ġ0 3
ĠhÃ¤ ufig
Ġ 00
Ġunser en
ro ffen
ĠTra iner
ĠB re
ĠN orden
Ġ8 0
Ġb em
tig keit
7 5
au st
kr et
f rist
. :
k raft
ĠAn wendung
Ġa ut
ĠL ondon
ĠKon z
an lage
all o
g u
per atur
ĠHaus e
ium s
ĠR hein
Ġvor h
Ġbefin den
ĠWelt krieg
Ġ us
ĠSt Ã¼ck
Ġr ichtig
ĠW ahr
J ahr
Ġeben so
ĠM io
ĠHo tels
ĠB Ã¼r
o ver
Ġk ennen
Ġge legen
ĠE C
ĠRei se
wert ung
l etzt
ĠI mm
Ġmein er
JÃ¤hr ige
ĠR ot
Ġw esent
Ġgel ten
Ġzahl reiche
ĠSchwei z
ĠK u
ti me
O r
m ut
war z
an te
Ġihr es
Ã¤ s
um m
es ser
w ind
Ġder zeit
ad a
s itz
Ġ199 8
ĠÃĸ ff
ĠP rÃ¼
ĠOr ts
inde stens
ĠIn n
ĠKÃ¶nig reich
br uch
ef on
ĠZ entrum
ĠLu x
ĠMa x
7 8
Ġverl oren
Ġh al
ĠPro vin
Ġo ffiz
Ġen g
ĠS PD
Ġein ger
Ġbede utet
Ġ198 0
Ġel ekt
ĠG leich
Ġb ald
ĠSt art
er nen
ok al
Ġo ber
andel n
Ġbie ten
Ġm oder
ĠEle kt
Ġs ah
Ã¤n gt
Ġnach dem
Ġgew Ã¤hr
ĠU RL
iz iert
Ġdar unter
ĠA lex
9 9
an e
ĠG old
o y
ĠVer gleich
spr uch
de ck
ĠM or
wick lung
Ġpolit ischen
I E
ĠF eld
un sch
ĠOl ymp
ĠArb eiten
ern er
ĠP ri
rei bung
ĠK Ã¼nstler
st Ã¤t
Ġauf genommen
I D
ĠThe ater
b a
arbeit ung
ate d
ĠH Ã¤
ĠStell ung
p el
enn ung
s etzt
Ġneu er
ĠSp anien
an ischen
s ent
T S
ud em
geh end
Ġ tim
ĠProdu kte
uf er
ĠVerb indung
Ġstud ierte
Ġc urrent
ĠBe k
ĠL icht
am es
Ġge kommen
Ġun ver
ĠD eb
Ġor ganis
f an
Ġf ound
Ġl Ã¤nger
Ġeigen tlich
ĠL Ã¶
ĠW o
Ġk ur
ĠH ier
B r
ĠK arl
8 5
ti k
Ġ199 4
l es
Ã ¨
Ġver ein
Ġ18 6
ĠVerkehr s
ges ellschaft
Ġ199 2
G er
ĠAb satz
Ġgeb racht
Ġge pl
d urch
ĠGes prÃ¤
ĠRe gen
Ġk napp
c c
Ġl and
Ġfolgen de
Ġer ster
ĠGer ichts
Ġentst anden
Ġsp ielt
b ringen
ĠHam burg
Ã¤l fte
ĠE ing
Ġho hen
im e
ition en
ĠMart in
Ġc m
ĠGÃ¤ ste
ĠFeuer wehr
v ier
ĠH ar
w ald
e an
ĠA ktiv
w a
och en
el te
Ġ199 6
lo sen
ogra ph
Ġbede uten
ĠT yp
our n
Ġ =
w ill
ĠErgeb nis
ĠBr and
Ġcurrent ly
Ġehemal igen
Ġge stellt
ĠD en
ĠauÃŁer dem
kir che
sp olitik
Ġ199 5
A M
ek ten
Ġver z
h aben
ĠN icht
ĠMit twoch
ĠSp iele
Ġr es
mittel n
ĠAn zahl
l eiter
Ġ9 0
ĠTh omas
Ġver besser
Ġal te
le gung
Ġne un
ĠG est
Ġn immt
ĠJ ose
Ġso fort
krÃ¤ fte
ĠSch rift
schul d
Ġh ol
ĠD rei
g s
z eiten
ul d
i am
le ge
ĠAn dre
M ein
ĠP fl
ĠAuf trag
n s
oll ar
ĠZ iff
c y
glie d
Ġa k
Ġje de
Ġm indestens
ĠG ro
ĠDien stag
ill a
p reis
ĠverÃ¶ffentlich t
ĠNieder l
dr Ã¼ck
ĠBeruf s
Ġ199 7
Ġser ver
ri min
ĠSie g
ĠMon ate
ĠGe bur
ĠÃ¼ber n
Ġn Ã¶rd
Ġ7 0
Ġj Ã¤hr
ĠSÃ¼ den
e ck
Dies es
ĠT agen
Ġra us
m ehr
ra el
Ġl ei
ĠS ituation
ĠArch ite
ĠBesuch er
ĠL iter
hÃ¤lt nis
Ġeinz ige
Ġzu letzt
hal te
samm lung
Ġd ritten
ĠM otor
ĠVol k
âĢ ¢
ĠPriv at
n ern
D amit
ĠH ans
ĠZw ischen
or ganis
Ġerfolg te
tig ung
Ġganz en
Ġt ats
ĠL eiter
ĠVerb rauch
que sted
Ġk rit
zei gt
o ok
un n
Ġz eig
ĠEr z
t o
b il
Ġander s
ĠEm pf
gr ess
r ang
Ġh ei
erv ice
Ġre quested
Ġ199 3
ĠdÃ¼r fen
Ġs omit
ĠO sten
Ġ0 2
ĠSch wer
ĠD el
e ten
ĠFir ma
ĠRest aur
l d
ĠK a
af f
8 2
ĠhÃ¤ lt
ĠP aul
Ã¼t z
zu stellen
ĠP unkt
b ank
weg ung
ĠBesch l
l ow
it ten
ak te
ft ware
g i
ĠGott es
ft ung
ĠSch we
ĠSe e
Ġit alien
ĠG arten
Ġreg ion
Ã¤ llt
Ġg erne
Ġvorh anden
Ġmehr eren
ĠB all
riff e
sch iff
F F
Ġzu g
s burg
V ert
ĠA G
z a
ĠA ktion
ver t
ho ben
ri ffen
uch ten
gemein schaft
Ġ3 5
forder ungen
ĠP ublik
ĠT ro
ĠD oppel
le y
k osten
ĠK reuz
g liche
n ier
ĠSch loss
pl y
icher ung
isch of
m men
Ġp osit
or gt
Ġent stand
Ġheu tigen
A uÃŁerdem
ĠK ol
d o
ĠSp rache
Â »
la st
f allen
ĠPf arr
St and
ger icht
ĠVor schlag
Ġglau be
D eut
D at
ĠProdu kt
ro h
entr al
Ġz og
L and
Ġn ord
un ternehmen
ĠF ischer
fahr er
v iew
L e
Ġgen ommen
Ġan zu
hr e
N eu
ik t
Ġt ut
f il
edig lich
w urf
ud wig
rei b
Ġfor der
zahl en
wer ke
hl en
ti l
Ġf unktion
ĠZwei ten
F l
ĠMa in
ĠB und
Ġa s
Ġjem and
D E
Ġer f
Ġsp rach
Ġin dem
ĠFor schungs
Ġjed em
lo se
Ġerreich te
Ġt ot
ĠKÃ¶l n
ĠT on
Ã¼ b
g art
ehl en
ach er
ĠAn teil
Ġen gl
ĠT at
? ?
an ger
ĠD is
Ġvor her
schein lich
Ġgesam ten
zeich en
Ġam er
Ġan ges
Ġm ed
Ġjed es
ĠHerr n
Ġ3 6
ĠNach bar
g ruppen
Ġho he
k i
pf lich
ĠBe f
ti sch
Ġr uss
C D
ichte te
9 5
ĠA ir
lin ien
g a
ĠRuss land
ĠAn tw
Ġgef Ã¤hr
me e
rum p
Ã¼ m
G em
N eben
ĠW or
ĠS ein
y er
ĠG rie
ĠKl oster
ĠP unkte
Ġk omp
der s
Ã¶l f
ĠerklÃ¤r te
ĠMon aten
ĠM aterial
ĠRe ply
Ġsp rechen
schuss es
ĠA f
E x
ĠAus sch
in t
w or
ĠÃ¼ber nahm
ĠTh emen
Ġein st
ĠW eiÃŁ
ĠWei hn
ĠS eine
Ã¼ gen
ĠH ann
Ġteil weise
in al
la ufen
v el
Z wei
Ã ¿
den k
ĠWe sten
Ġl a
9 6
in es
Ġfer tig
Ġd un
ĠIhr en
ind ustrie
Ġdar in
ag s
S on
el e
bar keit
ĠH Ã¤lfte
__ __
ĠT abe
neh m
ÃŁ t
E T
B itte
t liche
ĠW olf
ĠT al
ĠB ran
mal e
mit tag
w en
Ġg uten
em at
H o
ti sche
ĠSal z
ord in
ĠGemein schafts
l ass
Ġ199 1
Ġt Ã¤
au ber
Ġz erst
ĠMen sch
Ġsozial en
ik e
o lle
Ġge be
n d
ren z
Ġm ag
Ġgen utzt
E urop
ĠBild ung
a uch
as ste
geb racht
ĠZeit punkt
Ġvor gesehen
ĠB al
le d
ĠStud ien
ĠFrank furt
ĠL ang
ĠS amm
schlÃ¤ ge
Ġ5 00
Th is
Ġ197 0
d ay
ie ÃŁen
k Ã¼nf
Ġwissen schaft
gesch ichte
Ġent halten
Ġl eb
n i
ann e
ĠIn iti
ik al
ĠH or
ĠS and
ĠWissen schaft
or gung
ag o
ĠSe k
ĠÃ¤l ter
Ġd ra
ĠInter esse
gemein de
w echsel
n as
ur g
van gel
Ġge mÃ¤ÃŁ
Ġerw Ã¤hn
ĠVerwalt ung
Ġm en
ĠEC U
si te
Ġer fÃ¼
un kten
sch au
b ie
Ġda gegen
Ġm m
ĠSicher heits
ang s
Ã¼r f
ĠW ol
ĠEn gl
d ien
7 1
Ġsch affen
s eiten
ĠZ we
ĠfranzÃ¶s ischen
ĠEn d
ĠunterstÃ¼t zt
ĠT est
Ġs etzte
Ã¶st lich
u z
rei te
ĠB is
ra x
ver walt
Ġpass iert
a ir
Ġwechsel te
l eitung
Dan ke
ĠK auf
Ġgesch lossen
at hol
Ġver lie
ĠKin dern
Ġ194 5
sp rache
ĠkÃ¶n ne
er weise
ourn al
Ġver f
ĠgroÃŁ er
ĠM acht
sch ei
Ġj unge
à ¸
E M
j o
u c
ĠMa ÃŁ
b and
g ut
Ġer hÃ¤lt
Ġtra gen
ĠHer aus
ĠSt utt
9 4
Ġwar um
ĠF rieden
iv id
Ġ198 9
aup ts
Ġvor bei
ĠSu per
Das s
Ġgr und
ĠCh ina
ĠB ilder
ĠUnternehmen s
ĠW Ã¤hrend
ĠS onder
lin ge
l ig
fÃ¤ lle
Ġgen ug
ĠL es
ĠBas is
Ġbest immt
Ġer inner
ken nen
ro chen
Ġin form
7 2
Ġst arb
ar y
200 9
ra b
fl ug
Ã¤m lich
ĠCh em
ien s
ĠS ache
os k
Ġver k
j et
Ġverl assen
ĠReg ionen
sp art
ĠFern seh
de ckt
ĠGe org
ge geben
Ġt radition
d acht
iel ten
201 2
gef Ã¤hr
Ġnational en
201 3
P l
ĠBerlin er
z ul
j en
ĠgrÃ¶ÃŁ te
Ġk Ã¼nf
z y
Ġerrich tet
ra te
Ġbra uchen
l igen
f ert
imm ungen
D on
n ame
weg s
ĠC or
ĠG et
sp rach
c el
h am
ĠSt ahl
ĠR is
ges sen
rie be
ĠAlb um
ĠD ach
ro s
ĠB ot
ĠVer treter
s Ã¤tze
ĠZu sch
Ġander er
ĠDeut sche
ĠKar r
ten t
ĠM ad
Ġfolgen der
inde st
ĠHaus halts
ĠO per
ĠEr k
ĠLin ie
ĠQu alitÃ¤t
Ġst aat
ĠSch ne
Ġsel ten
ĠSt ar
Ġv Ã¶
ĠFÃ¶rder ung
o ut
lei sch
ĠT V
ĠBl ut
ĠAr ten
Ġben Ã¶
A P
at a
Ġhin zu
ĠB or
ĠProvin z
ĠprÃ¤ sen
ĠB ull
Ã¼ss el
Ġmein em
ĠD ro
Ġpro duz
stell ten
ikan ische
sch ine
ver l
201 8
Ġent hÃ¤lt
ĠT err
Ġ *
Ġver h
ag ue
Ġp ar
lo ck
Ġ eg
i llen
Ġs etzt
s gesamt
ĠTex t
Ġd adurch
tr em
ĠGer icht
ri c
ĠAuf gabe
ĠW ider
ĠAb st
w ard
8 4
Ġr ich
olog ischen
ick t
Ġ ie
Ġf al
Ġpolit ische
! !
ĠSchwei zer
ĠV oll
k ap
ĠÃ¼ber haupt
Ã ½
ĠUnivers ity
ĠE bene
lau ben
ĠJ o
Ġp ol
ĠLie be
ĠV iel
ĠZ oll
9 2
ĠK er
Ġgleich zeitig
ĠWil helm
ha lle
ĠVer antwort
fÃ¼ hl
wirk ungen
ieren den
v a
ma ÃŁnahmen
8 1
l ern
Ġf ahren
ĠF en
bild ungs
ĠTeil nehmer
âĢ Ŀ
Ġl au
Ã¤n e
gra mme
ĠKon takt
Ã¼ ch
à¸ Ģ
Ġschw ier
Ġtim es
ĠKrieg s
ab l
W elt
and lung
Ġgesam te
Ġ ehr
d am
V ielleicht
alt ungen
ĠChrist ian
ier ter
7 4
ĠVer Ã¤nder
ent s
Ã¤hr ung
Ġbel ie
N a
Ġp m
p ol
A G
p d
ig ungs
S U
ĠVer wendung
8 3
Ġvers ucht
ach ts
Ġ ste
ĠWohn ung
201 4
Ġwich tige
ĠS icht
Ġg Ã¼nst
ĠSt rom
Ġbe ein
al z
ĠK urz
ĠUn fall
ller dings
ist r
ig ur
ĠIde e
rin ger
Ġbestimm ten
Ġn Ã¤mlich
Ġgemeinsam en
ĠGrund lage
ĠVer besser
Ã¶r de
fra gen
pro gramm
Ġt reffen
Ġrech ts
H ey
kommen s
Ġersch ien
ol a
Ġneu es
201 1
ĠZ eu
i h
ill as
ĠRu he
z wei
ĠOrd nung
B es
ĠMet ho
Ġbesch Ã¤f
D em
ez ial
Ġp rakti
ohl en
ĠMill iar
en a
h Ã¶r
stell te
ĠVer kauf
ĠK ern
Ġkann st
wissen schaft
ic o
bet rieb
ĠF el
Ã¼ ge
ĠLei p
vol ution
Ġl ediglich
iv al
ĠP re
Ġumf assen
a un
Ġaus zu
ĠGl Ã¼ck
zeug nisse
at oren
it a
sch ech
Ġsch rieb
Ġp h
imm el
ĠGra f
re chte
Ġsp richt
aly se
7 3
Ġge fÃ¼hrt
201 0
Ġt Ã¶
ass ungs
ĠPro zess
de st
n r
ĠAng st
ĠInst rum
Ġge eig
Ġh off
ĠT eile
stÃ¤nd igen
ĠM orgen
Ġj ungen
all s
ĠBet eil
kl us
land s
M us
ĠVor aus
Ġre d
Ġy ou
ĠGemein den
Ġ201 9
ĠIhr er
ĠR ein
ĠBeg riff
Ġpro f
Ġdurch gefÃ¼hrt
Ġun mittel
Ġ3 2
ĠL Ã¶sung
ĠK ant
ĠMar ia
ti v
All es
Ġsch eint
au b
Ġt ran
c en
Ã¿ Ã¿
ĠKais er
ĠL udwig
ĠBed ingungen
Ġwen ige
ĠFlÃ¼ cht
ĠJ apan
ien te
l Ã¤nder
w ach
rech ts
her ap
9 3
ĠL ager
ĠAngeb ot
ĠP il
6 6
ĠM el
f Ã¤l
u ster
Ġber uf
pf licht
ĠAb schluss
an lagen
ingt on
t on
Ġwelt weit
u el
Ġbestimm te
ers eits
stand s
i ste
V ers
ktiv e
9 1
Ġdam al
ĠSch Ã¶n
ĠO pfer
a ce
Ġw ider
ĠMa schinen
ĠMil itÃ¤r
Ġabsol v
etz ten
ĠVer Ã¶ffentlich
z ehn
L L
ĠVers ion
Ġs etzen
ĠS ach
rech er
ĠÃ¼b rigen
ĠZeit ung
Ġbeg innt
ĠFlug hafen
ven tion
D e
ĠÃ¶ sterreich
Ġl ok
Ġbel eg
mann schaft
ĠW Ã¼r
ĠEx per
ĠProf essor
ow s
aus e
Ġmus sten
ĠKarr iere
ĠE hren
ĠDeut sch
Ġ198 8
Ġ4 5
ĠW agen
ĠW achst
Ġ reich
Ġzun ehmen
ĠStand ard
ĠGl as
ym nas
ĠBahn hof
Ġn utzen
ĠR und
ha ber
ĠInst itut
ĠBeh Ã¶rden
ĠAuf gaben
ĠAb geord
rÃ¼ nen
Ġbr ingt
Ġver antwort
ĠPro t
Ġer mÃ¶glich
Ġgen er
Ġerz Ã¤hlt
ehr te
f ilm
ol z
ĠOrganis ation
Ã¼ gel
rei ber
Ã¼ck en
ĠAut or
z un
ĠÃ¤ uÃŁer
ĠZ ur
m i
pf el
ĠEs sen
Ġn Ã¤
ĠK re
h i
ĠHer ren
g Ã¤nger
k ampf
for men
ĠSer ie
stoff e
Ġsch af
et r
Ã ¥
Ġre den
Ġf Ã¼hl
wer be
ess ion
ĠFl uss
ter s
ĠB Ã¶
J e
rax is
Ġfol gte
ĠGesund heits
eil ung
al og
Ġbest Ã¤
ym b
teil en
bl i
S eine
spr ung
re p
ĠU l
ĠT o
Ġwichtig sten
Ġex ist
Ġ rei
Ġh Ã¶ren
ĠD inge
be z
gesch lagen
ĠW al
ĠL o
ĠC ol
Ġ3 00
gang s
gar ten
ĠLand wirtschaft
ol ge
ĠG eist
h an
ĠPr em
ĠStre cke
Ġgeb aut
B eim
Ġer heb
Ġbra chte
ĠJ ur
S tra
ĠArbeit spl
ĠCD U
fin den
x t
Ġunter s
ch mal
I CH
an walt
ĠPr esse
ir m
ĠÃĦnder ung
spiel en
T ra
m on
wei le
ĠR ich
Ġber ichtet
k ont
Ġin st
ĠLeist ung
olog ische
ĠLiter atur
ĠBild ungs
ĠL iga
Ġwel ches
ĠH al
ĠD enk
ĠMode ll
ĠBest and
red it
ge g
ĠZug ang
b us
Ġaus ger
k ei
r al
ech net
Ġverl etzt
Ã¤ ger
ec t
rie s
Ġzw Ã¶lf
ro lle
sp rÃ¼
ĠS im
ĠVer tra
Ġnor mal
ĠC omm
ech an
tro ffen
Ġfol gt
zeu gt
men s
ĠB il
A F
ĠÃ ľ
ĠTra in
z ur
ĠvÃ¶ llig
Ġ198 7
Ġ196 0
ĠKontro lle
S am
z ut
p ft
ĠHein rich
Weiter e
ĠFahr zeug
ĠÃĸff ent
ĠL eit
Ġbil den
ĠfrÃ¼ h
ain t
ĠNach richten
in i
h y
Ġent gegen
Ġver schw
ĠS inne
ol o
ĠPort ug
ad s
ĠT Ã¤tigkeit
T e
ĠMilliar den
Ġ198 5
F r
ĠD et
ĠHo ff
Ġan schlieÃŁend
Er st
ĠH andel
C hr
Ġd ei
ĠH en
gel t
Ġin zwischen
Ġbet roffen
9 7
= "
Ġs uchen
ĠAn trag
Ġer fahren
bei tet
Ġ â
M a
ĠF oto
f ast
ĠVide o
merk sam
w ay
ĠD abei
ĠAus s
Ã¤hl te
az z
le b
ĠK ategor
c n
Ġher r
Ã¤hr t
ĠSon nen
Ġw Ã¼n
ĠMÃ¶glich keiten
Ġkl ass
ĠSpiel en
M eine
Ġgew innen
C he
tag s
ĠA p
k ra
Ġkein er
Ġdar um
ĠGr Ã¼ndung
rach ten
el ten
ĠSchl uss
Ġun abhÃ¤ng
ĠB ab
eh nt
Ġer d
ĠA c
Ġ198 6
k an
fÃ¤h igkeit
âĢ ¦
Ġa re
ĠM ess
ĠPerson al
obil ien
Ġar beitet
6 4
Ã¼t zt
Ġmit tel
ĠSchl af
G esch
ĠRom an
Ihr e
Ġst Ã¤nd
ĠFer ien
ra tet
v is
Ã¼ss eld
ĠVerein s
ĠBe zug
st eh
ĠW etter
er ien
st Ã¤nde
m t
n g
Ġtats Ã¤chlich
w art
ĠArbeit nehmer
b ra
ĠSte llen
ic al
ĠSt uden
ĠF ehler
reg ierung
ĠS ir
Ġer folgt
arm on
ĠGer man
ei ert
ren nen
ĠverfÃ¼ g
S e
ĠSt amm
vor schriften
ĠlÃ¤ uft
ff e
ĠFol gen
ĠEin fÃ¼hrung
F ra
ĠUm gebung
m s
ĠP reise
alis ierung
ĠOn line
j u
ĠÃĦ r
ĠSch af
m at
der e
Ġunser em
Ã¤um e
ĠSch ritt
ĠC ity
ĠReg ierungs
gem eine
ĠM iss
Ġt rÃ¤gt
Ġget an
ĠunterstÃ¼t zen
ĠFÃ¼hr ung
c es
bed ingungen
G ut
Ġwill st
ĠCl ub
ri ck
ab rik
Ġbe ste
D ort
rei tet
ĠT rump
as il
ĠM at
ĠFÃ¤ llen
ĠS old
-/ -/
ĠT re
wie gend
ĠS ter
ei s
Ã¤mpf en
Ġerwar tet
iv il
h s
g Ã¼l
ĠLehr er
st eil
Ġdeut sch
wÃ¤r ts
Ġle bt
v ia
Ġjewei ligen
r uf
ehr t
w in
Ã¤ ten
os oph
ĠInform ation
ĠA ch
ax im
adem ie
it s
ĠComp uter
em in
ie fer
Ġver treten
gel assen
Ġbet rÃ¤gt
A C
T E
enn e
ĠGr enze
ĠJ es
Ġ Î
Ġvor aus
ĠR ang
Ã¶r m
c r
Ã¤s ser
Ġkommen den
m und
ah nen
lau bt
E l
ĠEigen t
ĠW echsel
ss el
ĠW affen
un e
9 8
Ġz entr
ach tet
ĠRo bert
ĠVert eid
ĠDie ser
u pp
ĠT iere
an o
- -
ig it
d y
P reis
ĠBeit rag
rat s
ĠW M
ĠSt ock
ĠHer bst
ĠGrie chen
den ken
k oh
Ġbest and
U R
) ;
ĠD ank
ĠGemein schaften
ĠPfl anzen
ĠC amp
ĠG re
ĠT op
Ġgew onnen
Ġd rin
wer te
ir ks
itz er
W ill
ĠD om
u ern
Ġb as
K eine
o o
setz ungen
ĠStutt gart
ĠC om
gel d
Ġbeteil igt
S ein
Ã¶rder t
ĠW a
kl asse
Ġl eich
Ġ eid
sp ar
Ġn ein
w ander
ĠMein ung
ĠFir men
b rit
V iele
bl att
ĠNutz ung
lie ben
ĠverfÃ¼ gt
b u
Ã¼ st
d pa
ĠSt ad
st ud
tier ten
ĠSchul en
isch em
Ġgen annten
h te
ĠS V
stÃ¤nd ige
S CH
Ġgemeinsam e
Ġab zu
rech end
ĠAn lage
Ġzahl reichen
ĠEr de
ĠPol en
verwalt ung
ĠK amer
Ġverst Ã¤r
ĠBereich en
den burg
ĠSo ftware
ĠM oment
ĠD ER
in k
ĠChe f
ri ge
1 00
ĠF e
ay er
reu en
Ġgesch affen
Ġu z
ah er
E D
ĠWer ke
ĠI S
mittel t
Ġehemal ige
ĠSie d
hÃ¤ user
Ġbra ucht
ĠV iz
H allo
Ġj en
W eil
h u
ĠS zen
on es
Ã¼cks ich
ĠL eitung
ĠSt reit
T I
s f
s ein
Ġf e
Ġ198 4
d ass
Ġzie hen
ĠDisk uss
sch te
fl Ã¤chen
Ġbe ob
Ã¼ hm
Ġbesonder e
ĠNach folger
k ung
ĠS ing
ĠCh ance
H err
Ġm il
Ġd achte
wohn ern
Ġkl einer
ĠM ik
he bung
ĠDav id
ma ÃŁ
ag n
Ġob wohl
ĠT radition
Ġm on
ĠJ ob
ĠGebur t
ĠMen ge
ĠR ie
ĠAr mee
Ġer b
ĠBezieh ungen
Ġr de
N och
Ġver pflich
M ail
ĠT ar
Ġw ith
anc en
meister schaft
ind ungen
ĠMon at
rie ges
ber icht
ende te
Ġumf asst
ĠP a
ĠEntwick lungs
ĠL og
minister ium
it ar
ĠZ us
Ġn Ã¶
b ad
O P
Ġzeig te
p unkte
il det
Ġde fin
Ġa g
B et
Ġentsp rechend
b is
Sch on
ĠAn schluss
W eiÃŁ
Q u
Ġfr om
al a
n am
ĠN ummer
ĠAus wahl
ĠKrit ik
be w
inde x
ĠZeit raum
ĠKl asse
Ġin tegr
ĠS at
w St
ĠBe am
Ã¼r k
rie ch
Ġl angen
B undes
ĠnÃ¤ch ste
r ing
ot h
Ġausge stat
Ġt yp
ĠPolitik er
ĠBe w
ĠInform ations
S h
geb Ã¤ude
ĠQu alif
Ġlin ks
i os
ieren de
den t
W est
Ġh il
ĠA s
i at
an ts
ĠLie fer
Ġf anden
ĠInter essen
ĠD ollar
d s
ĠSchwe den
bli othe
ĠFen ster
ĠursprÃ¼n glich
zun ehmen
Ġ ied
Ġun ten
B ild
U r
ul ar
Ġm orgen
ĠstÃ¤r ker
O der
H eute
Ġm el
b Ã¼
Ġinternational e
ĠM c
av e
200 8
en te
6 8
ĠTer min
ĠP op
Unser e
her r
te gie
Nach dem
L AN
ic s
Ver ordnung
ualis iert
ĠJ ournal
Ġver gleich
ĠerwÃ¤hn t
Ġed r
Ġangeb oten
Ġru h
fin ale
ed ia
ig ungen
wÃ¼r d
ĠRech te
ĠK ra
fra u
Ġst ammen
6 5
all y
B o
ĠE p
ĠZ iele
ĠAus wirkungen
Ġf allen
ĠmÃ¼s se
brit ann
Ġv iew
ĠZ eiten
Ġ198 3
ĠI st
ĠAuf ent
Ġm in
mÃ¶ gen
own lo
c m
ĠR ichter
leist ung
ĠP fer
Ġl eid
ĠB ach
Ġbet reffen
ei sen
Ġbek annte
ab le
O S
ĠA kt
ĠVerbesser ung
ĠIs rael
am in
Ġ19 50
ĠÃ¼ber ra
Ġ ?
Ã¼ ten
Ġauf zu
ĠSti l
ĠKranken haus
le g
Ã¼ hle
ist isch
ĠJ ust
fÃ¼hr en
ch ester
Ġer weiter
Ġst ammt
Ã¶ tt
ĠjÃ¼n g
ĠLeist ungen
m eld
d n
ĠAntw ort
ĠS Ã¤
ĠB ud
Ã¶ nen
Ġed i
ĠZahl en
o sen
ĠBetrieb s
ver stÃ¤nd
ĠArb eiter
Ġh ielt
ĠDok ument
ĠG as
kret Ã¤r
ĠL ab
ro w
ĠFl Ã¤che
ĠK ab
ĠLeip zig
u hl
ĠSchl ag
hol t
ĠVer f
ĠDurch fÃ¼hrung
ĠKolle gen
ab t
Ġt a
ĠJohann es
ĠFre unde
af r
ĠFra ktion
ĠVerb and
uf f
Ġge zeigt
Ġein zu
at ers
6 7
ĠDienst leistungen
ĠS atz
Ġz er
Ġd isk
sel ben
ĠR unde
Ġentst ehen
ĠTem peratur
v al
ĠSt unde
Ġ3 3
ĠAn ti
et a
d essen
ĠLe ague
Ã¶ der
ti ve
ĠP e
Ġab geschlossen
200 7
stre cke
Ġ198 2
Ġer Ã¶ffnet
Ġland wirtschaft
Ġgepl ant
Ġzum indest
em ann
ĠPro jekte
o in
am b
Ġver hei
ĠW ander
Ġn a
ite d
wind igkeit
ak fast
i j
Ġs org
Ġrel ativ
Ġan s
um b
zÃ¼ glich
m acht
Ġbes uchte
Gem ein
G eb
ĠRo ck
Ġverst ehen
lei tet
Ġb ein
ĠDre h
ver trag
k Ã¤
ĠP rÃ¤sidenten
ĠZu ge
ĠauÃŁer halb
ennt nis
ĠVier tel
ĠGe fahr
statt ung
Å ¡
ĠAus stellung
em burg
Ġg ra
S G
Ġn ew
ĠZ eichen
ĠStud ium
gew Ã¶hn
p u
ĠHaf en
Des halb
ĠKÃ¶nig s
ĠBer at
ĠStÃ¤d te
Ġber Ã¼cksich
Ġ198 1
I P
ĠgrÃ¶ÃŁ er
ĠD Ã¤n
ĠEin fluss
ol den
ĠD DR
ĠHaf t
f ried
ĠK rank
ĠAut ob
Ġer kennen
ĠmÃ¶ chten
or ie
Ġsol chen
ĠAb s
S P
Ġzw eit
Ġwoll ten
amar illas
Ġden ke
b n
gel Ã¶st
g as
ai lle
l Ã¤ndern
Ġbrit ischen
k or
. -
ĠII I
m ark
ĠKon s
an y
lich keiten
Ġregel mÃ¤ÃŁig
ĠTel efon
ĠGr enz
EI N
ĠD ial
ĠB u
k Ã¼nd
Ġerg Ã¤n
Ġnie mand
te ll
Ġf iel
bau en
T V
ĠGe walt
Ġ197 9
Ġnotwend ig
Da zu
Ġwahr scheinlich
Ġaus schlieÃŁlich
ĠGesprÃ¤ ch
ĠEx p
ĠH immel
ĠBau ern
al ition
ot te
ĠVer halten
ĠH und
ĠK la
200 6
ĠEng land
ĠS ervice
we sten
ĠR ett
Ġ( âĢŀ
Ġbis lang
d as
Ġunmittel bar
ĠB rief
ĠfrÃ¼ hen
ĠD Ã¼sseld
em ark
Ġbek omm
Ġver ab
Ġr Ã¼ck
Ġm i
ĠM obil
ĠSchw ester
Ġw us
Ġge troffen
ĠP an
ĠIhr em
Ġd pa
ĠGrÃ¼n den
6 9
Ġk ultur
itu tion
ĠImm obilien
n ess
ĠVorsitzen der
ĠKl ima
Ġerforder lich
we der
Ġausge w
ĠDem okrat
ĠM att
B esch
pl Ã¤tze
ed es
ĠT u
rÃ¤um e
Ġf Ã¤llt
be ck
af fel
o llen
Ã¼s sen
ĠWeb site
Z udem
ĠermÃ¶glich t
ĠCh or
C l
er ei
le bt
ĠT isch
ĠS achsen
ĠS Ã¤nger
zeich nete
H e
Ġsel ben
forder t
Ġbil det
ĠPat ienten
ĠGr Ã¶ÃŁe
Ġander es
ĠSch Ã¤
ad rat
ge wiesen
Ġbeg innen
Ġweiter er
ĠK andid
ĠTran sport
op en
ĠSti mm
Ġverantwort lich
ar ian
Ġverkauf t
auf trag
Ġn ow
fra struktur
Ġ {
25 2
gel be
ĠGes icht
rep ublik
ig ar
ĠTechn ik
S E
cke y
Ġmen sch
Ġwar ten
ien ce
I C
ali for
ĠBeschÃ¤ftig ung
iel te
sp lan
i ent
Ġ ud
ĠAnt on
ĠJ ung
Ġglau ben
ĠbeschÃ¤f tigt
Ġan genommen
ĠL Ã¤nge
Ar b
an geb
ĠIn tegr
ĠdÃ¼r fte
ĠR and
ĠPublik um
ir n
Ġwirtschaft lichen
ĠTÃ¼r kei
Ġwer t
ag d
Ġk o
f Ã¶rm
Ġvers uchen
aupts Ã¤chlich
ĠV en
un ion
........ ........
r is
ĠAlex ander
B ahn
Ġentsp richt
alifor n
ĠMin ute
am s
s Ã¤tz
ger n
ĠfranzÃ¶s ische
rei g
Ġwen igen
ĠErfahr ung
ĠF isch
ĠT im
O kay
anz ler
Ġzuf olge
Ġwieder um
Ġmus st
Ġallgemein en
Ġbes itzt
sp or
Ġsogen annten
Ã¼ h
Ġw or
ĠKo oper
ĠR um
ig inal
on te
n es
Ġh e
ĠK rÃ¤
ĠRe form
eu ten
ive au
lin ik
b Ã¼r
vor sitzen
Ã¤ ss
eh mer
g g
mus ik
Ġent lang
ĠPol iz
b le
h andel
Ġver gessen
Ġ197 5
ie ts
Ġwel cher
S el
ĠA uÃŁerdem
ĠMÃ¼ ller
ĠSp ezial
m u
Ġw ww
ĠÃ¼bern ommen
ĠR ennen
is ierte
ĠBe zeichnung
Ġr Ã¶m
Ġ197 8
Ġl etzt
ber eitung
ĠG eg
T ER
Ġm axim
emen te
Ġ4 00
ĠWeihn achts
end es
h or
Ġentwick elte
ĠSp aÃŁ
sch m
ĠVerbrauch er
ĠChar akter
Ġl esen
Ġg ern
ĠGesund heit
Ġh eim
Ġun er
ĠJ e
m Ã¤r
Ġsozial e
ymb ol
ĠF ot
britann ien
los igkeit
pf en
ff er
tem berg
ĠErn st
liegen den
Ġ3 4
ĠE t
f ts
ĠgrÃ¶ÃŁ ere
spro gramm
ĠFl or
Ġw eder
la y
Ġge he
ĠT ats
ĠB ett
in sel
b ack
ĠFort sch
c u
ĠW unsch
ĠW ild
ent wicklung
Ġk athol
ĠWien er
ĠGel egen
all er
hil fen
gr ar
A ut
r unde
Ġ15 0
Ã¤n n
Ã¼ ste
ĠFahr er
ĠAl ten
ĠO tt
ĠS uche
f ar
t temberg
ĠTran s
ĠVer hÃ¤ltnis
b Ã¼rger
O L
Ġlang sam
ĠZ um
Sp iel
P r
ĠCo unt
Ġgesch rieben
Ġp rom
all el
Ġk n
utz ung
Ġge halten
la ck
or fer
st Ã¤d
Ġeurop Ã¤ische
Ã¶ se
ein d
c s
ĠGegen satz
f red
ĠW h
tier ung
z ern
ĠN ahr
Ġakt uellen
ĠverÃ¶ffentlich te
ĠSil ber
âĢľ )
ĠK ron
ter t
Ġ $
L aut
ĠHaupt stadt
ĠVer br
ĠÂ °
Ġw under
Ã¶s ungen
ver sammlung
yn am
G roÃŁ
Ġent schieden
id a
ĠNach dem
Ã¤n glich
ĠEr sten
Ġ7 5
rÃ¤ gen
ĠSchl acht
n etz
ĠSti mmen
ikan ischer
gangen heit
ĠHann over
ĠF ac
ĠC ap
st Ã¤r
ĠM y
ĠâĢ ľ
mÃ¶ glichen
mÃ¶glich keiten
z Ã¤hl
le gten
Ġg ingen
ok oll
stra hl
ĠUN D
Â ¼
m lich
ĠAndre as
ĠA lle
im ent
P ar
Ġunter wegs
ĠJ er
ĠJ ack
Ġ3 8
p ack
Ġt r
Sie he
W Ã¼r
ĠB on
Ġkon zentr
l eit
di ent
Ã¤ st
Ġst ets
ĠAn gel
ĠB em
ĠBe wegung
ĠKonz ert
Ġausge zeichnet
T rotz
Ġl auf
ĠSch aden
Ġ197 2
6 3
vo lle
Ar tikel
Ġver tra
Ġdah in
her e
Ġver lÃ¤
ĠP u
ĠEisen bahn
Ġentsprechen den
W el
sp rechen
Ġwir st
ĠStand ort
ĠD ist
ĠMehr heit
ĠKon zept
ĠZ Ã¼r
Ġvoll stÃ¤ndig
un i
Ġbeg onnen
ĠGesch Ã¤ft
sie he
A U
schlieÃŁ en
ĠP aar
ĠStra f
f amil
ĠBÃ¼ hne
ktiv en
Ġbesch lossen
ĠP sych
N r
ĠG rad
techn ik
ĠAut om
w al
ĠGemein sam
ĠÃĸffent lichkeit
" ).
Ġw Ã¤ren
ĠFr em
m or
ir ol
Ġre ag
jen igen
w ischen
for schung
ĠE reig
Ġtechn ischen
ĠN ik
zuf Ã¼hren
rÃ¼ st
Ġaut omat
Ġ" (
ĠWirk ung
In sgesamt
gesch oss
ck s
ĠSt off
t es
ĠM ach
ti tel
Ġlie be
ver treten
Sch l
ĠM ig
ste chn
ĠT ruppen
ĠD auer
ĠAus gaben
ĠUm setzung
" ),
Ġh auptsÃ¤chlich
stÃ¤t te
ĠgrÃ¼n dete
Ġn atÃ¼r
gew icht
ĠÃ¶ffent liche
Ġind ivid
Ġend gÃ¼l
Sam stag
ĠGr enzen
Ġersch ienen
ĠS ow
ĠR os
Ġsp Ã¤t
ĠHer zen
sp ann
ĠzusÃ¤tz lich
an trag
ĠR ob
Ġ Ã¤ndern
ĠM Ã¶
Ġaus geb
ĠH istor
Ġsch loss
k w
ĠB ade
A llerdings
ĠCh amp
ĠDes ign
gr Ã¶ÃŁ
ĠEr weiter
ĠStuden ten
ĠSch n
ĠW enn
Ġeng ag
at es
u gen
ĠPhil ipp
Ġqu alif
ĠKon fl
) "
re e
ĠDir ektor
ĠErfahr ungen
zeu gung
ĠEr mitt
ĠVer gangenheit
Ġend lich
ĠS inn
Ġentwick eln
ĠK affe
Ġer laubt
utz er
Ġschle cht
lÃ¤nd ischen
Ġkompl ett
Ġd ritte
Ġge prÃ¤
A B
hin dern
Ġges etzt
ber eit
ĠD iv
c tion
G egen
Ġgesp ielt
o ts
ĠInn ov
Ġge tr
ĠV is
ĠD res
fra gt
Ġs orgen
Ġw achsen
ĠVor jahr
ĠP raxis
Ã¤hr ungs
Ã¶r dern
schul en
ĠL eg
ell schaften
ĠSp rach
Ġf uhr
t he
w n
k ord
ĠGriechen land
Ġerwar ten
en ter
Ġoffen bar
ĠLauf e
fÃ¼hr ten
D F
s al
Ġleg te
Z eit
ĠRe de
ĠUr s
ĠK lei
ne y
Ġ197 6
ĠBund est
or ien
f n
ĠD rit
ĠPartei en
Ġ6 5
ĠSold aten
ĠHer stellung
Ġj Ã¼d
Ġk Ã¼r
Ġ reicht
Ġkon tro
ĠfrÃ¼her en
ik ations
F rank
Ġmittler weile
reu de
s em
Ġst eigen
6 1
ov e
Ġhin gegen
ĠH alle
ĠAng riff
6 2
Ġ197 7
Ġverhei ratet
l as
ig i
ĠVeranst altung
u per
for d
ĠKl assen
ĠHaus halt
Ġs ec
au te
ĠZ uf
organis ation
ĠjÃ¤hr lich
Ġd ank
Ġverm ut
eh lt
ĠDro gen
Ġp age
ĠLeist ungs
Ġ197 4
ĠZ ul
ĠBr un
t lichen
sto ÃŁ
r hein
ĠGeh eim
g Ã¤nge
l ager
ren g
ĠEin richtungen
ĠÃ¼ber w
Ġunterschied lichen
Ã ¸
Ber lin
S ti
ta in
ĠG Ã¼ter
ĠAus druck
ĠB ischof
Ġst ieg
Ġre st
zieh ung
r et
Ġ197 3
Ġus w
Un ivers
haus es
imm obil
ĠAktiv itÃ¤ten
ĠCh arl
wend ungen
ĠweiÃŁ t
Ġ( )
Ã ĩ
ĠsÃ¼d lich
ĠBel gien
gesch rieben
ĠMed izin
ĠO ffen
as k
! "
ĠSchw ier
Ã¤nd ler
Ġer setzt
ĠBeh andlung
rit ts
T R
aÃŁ t
rei ter
Ã¶rder ung
ĠCo lle
ĠSp itzen
Pro du
zeich nen
Ġg riech
Ġvermut lich
ĠI N
um an
Ã¤ h
Ġl aufen
ĠH an
Ġbeg rÃ¼
Ġber Ã¼hm
Ã¼r n
sy l
ĠÃ¤l te
Ġbesch rieben
ĠB ill
li ste
ĠM ass
y a
ĠB ier
ĠÃĸ l
part ment
Ġ1 000
ĠSch war
f u
ĠP unkten
Ġerinner t
Ġges etz
ĠH aar
Ã §
kir chen
Ġvor ge
Ġern annt
wer ks
ĠHinter grund
ĠZust and
ĠEin richtung
ĠAus nahme
Ġr en
ĠSt Ã¤r
icher heit
bau ten
Ġkon k
Ġt ief
ĠOr gan
ĠT reff
ĠVerantwort ung
ĠWachst um
c is
Ã¤ng nis
Ġre duz
K ann
Ġ q
f ekt
ĠBÃ¼r o
a pp
pf l
ĠGel Ã¤nde
Ġget Ã¶
Ġst er
ĠFahr zeuge
ĠUr laub
ĠgroÃŁ es
ĠW in
m essen
ĠG att
Ġdamal igen
icher ungs
k omp
ĠA gen
ĠH art
verkehr s
on om
al es
at ein
z o
me ter
ĠWe ge
F in
eb ook
ĠbestÃ¤ tigt
ĠZ er
St ar
S ystem
st ock
H ast
f on
Ġhistor ischen
Ġden ken
ĠEin fuhr
Ġd ur
le ger
22 8
ĠMe x
ĠW ohl
hol en
or b
ĠWill iam
Ġnie dr
Ġein schlieÃŁlich
ĠPap ier
ĠStr and
f a
Ġbef and
il via
bl ei
anz e
Ein en
d t
g yp
H aus
Ġbesonder en
ĠH u
de u
Ġver n
lie fert
z in
Ġbek am
ĠB innen
Ġt Ã¼rk
ĠRegion al
Ġbe gr
ĠBÃ¼ cher
stell ungs
Ġl ernen
ĠAn spruch
v n
Ã¶ff nen
ger ufen
Ġ3 7
ĠB rit
ĠEin sch
Don nerstag
Ġpriv aten
Ġd o
ĠB aden
ĠAus land
ĠRestaur ant
ĠAb kommen
so zial
Ġ time
S oll
ĠP et
B ez
ĠPf lege
S er
ber n
ĠSch warz
Ġver hindern
och e
Ã¶ff nung
h et
G leich
ĠKÃ¼ che
ĠBre akfast
ĠDÃ¤n emark
Ġgl Ã¼ck
Ġst anden
ĠBesch wer
ĠE ind
ri ll
ĠTechn ologie
ĠgrÃ¶ÃŁ eren
ĠEurop as
M e
ĠSitz ung
lad ys
Vert rag
Ġ5 5
ĠZwe ck
Ġge z
ĠWochen ende
ymnas ium
and t
F R
ĠKir ch
ĠA ber
ĠT reffen
Ġd auer
ĠS aint
ĠB ack
Ġver ur
b ten
ĠR Ã¶
ĠUntersuch ung
ĠGroÃŁ britannien
Ġm o
h ington
P h
Å į
me er
Ġn ud
ĠH om
Ã ł
de cken
ĠSchl Ã¼ssel
au ert
ma schinen
Ġausgestat tet
Ġz Ã¤hlt
Ġ <
IS CH
Ġ8 5
an ische
ei ge
ĠS yn
koh ol
ĠGeg ner
l Ã¶sung
ĠzurÃ¼ck ge
ladys ilvia
mo de
ĠGe werk
ĠPortug al
ĠSte fan
r ufe
Ġbis schen
ĠW all
Ġ3 9
ĠnÃ¶rd lich
gar n
ĠOlymp ischen
N atÃ¼rlich
ĠBez irks
onder s
ĠBest immungen
ĠA grar
Ġn eg
Ġs en
ir ektor
af ft
ĠH Ã¶r
re gel
p olit
L os
ĠS ant
teil te
ĠGed anken
Ġd einen
Ã¡ Ã
Ġabsolv ierte
Ġum fang
ĠKar te
M o
ĠStud ie
kon om
Ã¶ ch
Ġdenn och
ĠBr on
Q uelle
Ġsch war
ĠVerein bar
ĠL os
Ġweiter es
ĠSch u
Ġzuf rieden
Ġt rifft
Ġverl or
ĠZusch auer
ĠA fr
l n
A nt
ĠBay er
bliothe k
ĠKo alition
ĠG rÃ¼nen
ĠFÃ¤ h
Ġern st
ĠDet ail
tig es
ĠA g
ĠEr klÃ¤rung
ho ff
ĠW ehr
Ġh ieÃŁ
C O
ĠK urs
sp h
n ischen
Ġzu erst
rie ster
s m
b aum
An zahl
ĠL ou
ĠP or
ĠF akt
Ġer mÃ¶glichen
ge ls
ĠDan iel
ĠN a
A d
Ġn ennen
eich er
ĠFor der
i ol
Ġth at
Ġl Ã¤ng
un ken
f onds
ĠMet all
f ur
iz ieren
ĠK ammer
ib el
ĠVer pflicht
Ġ196 8
t u
un a
wei te
ĠMa c
Ġman chmal
Ġn du
Ġ& #
ra tete
Ġun gefÃ¤hr
Ġud n
ne e
Ġver p
ĠTechn olog
rit z
Ġamer ikanischen
ĠQu al
ĠS how
nit t
Ġm a
ĠStellung nahme
ĠAr zt
A ch
Ġeinge fÃ¼hrt
ĠMik ro
, "
Ġd nu
ĠT schech
o ben
k ore
** **
", "
at ter
zahl t
Ġel f
ĠT om
Ġein s
forder ung
Ġnah men
ĠMe tern
ei r
ĠKategor ie
ĠKap it
er al
ĠG ran
ĠGra b
Ġm ar
ul en
ap s
tern ehmer
ĠTod es
ĠM osk
Ġge Ã¤ndert
ĠJu den
ĠFin ale
Ġp rÃ¼
etz ungen
2 000
h och
ĠWohn ungen
Ein ige
se x
war en
Ġ hr
Ġzie mlich
ĠHin blick
ĠIniti ative
ĠFrÃ¼h jahr
ĠSchm id
Ġk or
Ġh Ã¶r
em er
Ġd ienen
ul ation
zieh ungs
F oto
ĠH aut
A D
pl o
P art
Ġan erk
M ich
ĠVers uch
Ġdisk u
ĠÃ¼ber tragen
Ġm e
Ġent deckt
gen de
Ġ Ã¶ffentlich
Dar Ã¼ber
ĠAn sicht
lieÃŁ lich
ĠÃ¤hn lich
Ġent weder
ĠÃ¼ber nehmen
Ġver urs
F ahr
hol z
ar n
Ġ4 8
wei st
Ġw e
": "
Ġersch eint
kauf t
dr esse
ĠKap ital
Ã¶r ung
ĠCount y
Ã¤ch s
v ille
ĠDÃ¼sseld orf
r and
be zogen
kl ag
S C
ĠS l
Ġmit einander
ĠTabe llen
ĠWettbewerb s
ou ver
rÃ¤ f
ĠAuf nahme
ĠspÃ¤ter en
ĠBrÃ¼ ssel
mit glied
ĠVeranst altungen
ĠTur m
ĠH oll
Ġf lieÃŁ
ei ern
ĠS w
le hr
ĠKar ten
ĠK enn
Ġeinger ichtet
ĠFinanz ierung
ĠEr inner
st eiger
urop a
Ġwich tigen
Ġ9 2
sch n
ĠÂ «
Ġzu gleich
ĠReich s
ĠKon ferenz
ĠTur nier
ĠHer steller
ie ur
or y
Ġt ritt
ĠArbeit geber
se qu
ĠEin heit
acht ung
ĠEin wohnern
ĠF ans
Ġb eit
o us
am eister
be f
r s
ĠAb schnitt
ess our
m esser
Ġspez if
ĠLie d
Ġmus ikal
Ġbeh andelt
ĠÃĦnder ungen
iz ierte
Ġange geben
ĠgetÃ¶ tet
Ã¼n det
ĠAlter s
ĠMitglied staat
i w
ern t
hei mer
prÃ¤ sent
lie fer
ĠKl aus
S c
Ġver g
j ekten
eh nte
ĠBez irk
h op
le gte
Ġab gel
Ġwus ste
ĠS m
ĠSek unden
ĠKon t
ĠC arl
ĠPro p
Ġlie ber
a der
h Ã¶ren
lÃ¤ uter
schl ossen
ĠAn frage
Ġher um
I G
M ann
Ġs ex
ĠT anz
ĠWind ows
ĠRich ard
Ġf ehl
Ġer l
ĠAn n
haf te
ver treter
r d
ĠnÃ¤ her
ho fs
ĠEng agement
Ġst at
Ber eits
ĠC al
bed ingt
part ner
k und
ĠW and
ĠC an
ĠE P
ĠRad io
ĠL Ã¼
Ġwich tiger
ĠS Ã¶
s es
ĠVor stand
H R
Ġoffiz iell
vers orgung
k ammer
ĠBundes liga
ĠHoch schule
ĠPrÃ¼ fung
Ġmil itÃ¤r
Ġn o
ĠE ben
low ak
af en
Ġstar ken
I R
bez irk
um me
hÃ¤ re
Ġk ehrte
Ġy our
D P
Ġkomm un
Ġin tens
ĠD or
ĠWolf gang
ser ie
A ug
H ol
ownlo ad
Ġerz ielte
rich ter
as er
ĠSon ne
ro ss
dien ste
ĠTeil en
ĠGemein der
ĠSchul d
n ov
ĠR ud
Ġs ehe
y e
P f
ĠAn alyse
ĠHeil igen
ĠGrund stÃ¼ck
ar ischen
Ġ197 1
Ġch ines
and o
Ġkontro ll
zip lin
f unk
ch em
ĠKo ordin
Ġon line
ĠF otos
tem ent
Ġ4 2
i men
ex t
F reit
ath emat
Ġfrei en
Deut schland
200 4
ĠS tern
ĠGew inn
ĠVer d
ĠAn lagen
Ġdi ent
herap ie
ĠAut os
ĠAuf bau
zie ht
Ġzerst Ã¶rt
ro ht
ĠMÃ¼n ster
ĠOrt steil
ĠF und
ĠS ign
ab s
Ã¼ mer
den s
et ing
an en
ĠAbt eilung
zei ge
Ġd el
ĠInvest ition
wer ten
ĠKom bin
iff eren
ast ian
Ġ Å
ĠAr m
ĠD ra
zÃ¼ ge
L a
Ġj apan
Ġger inger
rÃ¤n kt
Ġden k
ĠLux emburg
ĠVerÃ¶ffentlich ung
schl uÃŁ
arr y
ĠInvest itionen
ĠErw achsen
ĠK redit
Ġdarauf hin
B ER
ĠK ro
ĠK Ã¤
ĠA bl
Ġkomm e
Ġf ra
ĠJ azz
Ġs icht
F ol
Ġbeein fl
ĠC ont
Ã¶r ter
ĠRes erv
Ġitalien ischen
it sch
ĠS ar
ier s
ĠRegel n
ĠH igh
il s
ĠStadt teil
Ġw eist
ger s
ĠRel ig
ĠKon kur
ĠA st
Ġ193 3
ĠWahr heit
Ġ4 4
Ġk aufen
Ġl i
Ġzie ht
ĠGesch le
n icht
ĠVer handlungen
ĠAn forderungen
ĠDan ach
J ul
ic an
ĠverfÃ¼g bar
im ages
Ġz eich
ĠMil ch
se kretÃ¤r
Ġd iente
un sten
ĠV al
Ġer geben
Ġ ter
ar tet
sp er
b as
rin k
Freit ag
Ġi den
ĠJun ge
fre und
ill er
ĠSti ftung
ennt nisse
ri m
Ã¤t ter
P ol
ĠM ord
ĠG lauben
ĠUnter richt
Ġl eisten
Ġverw enden
ie de
Ġb i
reg ion
d in
Ġweit gehend
re ck
ĠRe al
Ho tel
ĠAus bildungs
ĠMer kel
H aben
ĠS ub
ĠVer m
ie h
ann en
ĠFor men
A kt
s u
N ational
ĠG al
ĠmÃ¶glich st
Ġmehr fach
ĠSchauspiel er
ĠTeil nahme
ehm igung
ĠZÃ¼r ich
ĠTeam s
ĠB Ã¤
S S
Ġzu stÃ¤ndig
w Ã¤
Ġbet rieben
Ġverbesser n
ĠMan agement
Ġst Ã¤d
kl ass
ĠA ud
Ġp re
g in
itu tionen
ĠF Ã¼
at ik
Ġher gestellt
ĠD ritt
st Ã¤nden
Gr und
zen z
ss ystem
ĠQu adrat
ĠIn ner
Ġbet ont
ri a
ĠSti mme
Ġ196 9
Ġsogen annte
Ġbe weg
ĠLebens mittel
ĠF inn
ĠCh ancen
Ã¤tig keiten
ĠT onnen
ĠT ore
or m
G ew
sp hÃ¤re
st eigen
ig uren
ĠEntscheid ungen
d aten
Ġbekomm t
ĠH Ã¼
ĠMusik er
de ls
hand lung
i i
ĠM od
ĠV f
Ġh eil
Ġ19 20
ĠGelegen heit
Ġun bek
ĠAll gemein
gra ben
Ġstar ke
ĠhÃ¶ch sten
us ion
isse ur
te d
Ġver lieÃŁ
k ultur
Ġbe grÃ¼n
ĠVer lauf
inn ern
ĠBr Ã¼cke
ĠJose ph
ĠzusÃ¤tz liche
ĠO h
In st
la w
kti en
Ġf eier
ĠFahr t
ĠF a
ĠIr land
em it
z one
ĠÃľber ein
ĠMon d
erson en
Ġnach hal
ĠRett ungs
z um
z iger
A t
ĠKomm ent
Ġe fs
G l
i or
ĠF leisch
v t
ĠB onn
Ġben annt
Ġv an
ĠM and
u es
u be
Ġs ub
ĠRat haus
Ġstell vertreten
amen s
ĠVerÃ¤nder ungen
Ġges prochen
aus end
Ġvor ber
is ieren
ung er
Ġz Ã¤hlen
P rÃ¤sident
tr et
D r
us ern
wissen schaften
f angen
ĠWer te
Ġdurch aus
is st
Ġein gesch
h Ã¤nger
Ã¼n der
H in
M on
Ġ19 30
vers icherung
ĠS au
Ġ ]
ĠSon g
rÃ¤n k
Ġdar aus
ĠD ek
d l
ĠM erk
ĠUr teil
Ġw id
Ã¼r en
Ġg uter
ĠL ok
ĠH y
ĠR enn
bau er
N ew
ĠAus gabe
ĠA ma
ar tige
ma schine
/ ?
gr enze
ikan er
min ist
Ġerst es
Ã¼r gen
a ktiv
aus ende
ĠIntegr ation
Ġ4 3
Ã ī
Ġforder t
om an
ĠBr emen
Ġben utzt
ĠkÃ¼nf tig
ĠS C
schaf ter
ĠF o
ĠM ission
Ġg alt
Ġber ichtete
Ġtrotz dem
Ġwirtschaft liche
ich ert
ĠS un
ĠjÃ¼n ger
Ġc on
ĠJ ungen
ĠH all
lÃ¤ uf
al te
Ġm ache
scheid ung
Ġentsprechen de
Ã¤d ag
in det
Ġtechn ische
Ġp assen
ĠGerichts hof
L ie
Ã¤hl ten
ĠN o
Ã¶ ÃŁen
H L
St adt
reff end
Ã¼n den
ĠAnge legen
ĠVor schriften
ĠOrganis ationen
Ã³ n
Chr ist
h st
Ġs Ã¤m
ĠAus schusses
ĠIde en
iz ierung
z og
ĠL en
ran s
ĠâĢ ¢
Ġtra f
at o
200 5
Ġe vangel
ĠT Ã¤ter
O ber
uch er
ĠAussch uÃŁ
Ġb reit
ur n
Ä į
ĠR ing
ĠAuf t
te xt
ĠAuf stieg
Ġelekt r
st rÃ¤ger
Sel bst
ĠBe ob
ĠerhÃ¶ ht
ĠInter view
v i
ĠPhil osoph
Ġletz ter
200 1
und ert
ch ner
Ã¤hl er
um p
ra w
ĠS achen
ĠJose f
arl ehen
ĠVor der
E m
enn is
or fen
og le
Ġeinge stellt
end ung
ĠRÃ¼ck kehr
ĠPrin zip
Ġs amm
g reifen
Ġverpflich tet
ll ung
ĠWor ld
ĠO pen
ĠDenk mal
J eder
r el
geb iete
Ġmed izin
eiÃŁ e
ĠProduktion s
d is
umen te
Ġf Ã¼
on y
us sen
schaf fen
D rei
and a
Ġelekt ron
C o
ab eth
w uchs
ĠSp ann
ĠerklÃ¤r en
Ġbem er
I V
Ġbet rug
t op
aus schuss
L in
tig te
io de
s eits
Ġso dass
Ã¤r m
ri b
prÃ¼ ft
mus eum
ĠN Ã¼rn
aler ie
f alen
E C
Ġf Ã¶rdern
Ġunterschied liche
Â ·
k u
Ġf rag
Ġlie f
ĠKommun ikation
ĠVor haben
ĠAn p
Ġhab t
e en
Ġgef allen
ĠAus bau
In ter
. ).
ott o
ĠR Ã¤
Ġruss ischen
Ã¤mpf ung
Ġre chten
Ġgeeig net
Â ¤
Ġb lau
zug s
ĠSe x
Ġzu ge
haf ten
st ation
ĠZ entral
5 00
on str
vo llen
ĠSp itze
' )
sicht s
Ġger ing
Ġbet rifft
= =
ĠQ uellen
ĠJust iz
Ġ2 50
ĠB a
Ġaus ges
Ġsch reibt
ĠP rom
ĠZ en
Ġe jf
ne ter
Ġbeh aup
inder t
hÃ¶ he
amer ikanischen
Ġgleich e
ĠZ ivil
ĠDiskuss ion
k om
is en
t her
ĠtÃ¤ glich
Ġkosten los
Ã¤t zt
Ġhei ratete
st anden
ĠIn frastruktur
produ ktion
ĠOtt o
G eh
um ber
k urs
f alt
amer ika
M in
Ġunterschied lich
meister schaften
fÃ¤ llen
Ġ193 8
or ts
b ett
Ã¼t te
ĠBeam ten
nei der
K ein
isten z
ĠC as
T L
ĠBeteil igung
he ben
Dat ei
ĠAn d
Ġgl ob
ĠEr satz
ist in
Ġbra uche
ĠRe volution
Ġhin sichtlich
F A
ĠA re
ĠFischer ei
ĠF reude
Ġm ark
Ġst immt
f ter
ad o
ste te
ost at
an er
essour cen
W e
ĠSchwier igkeiten
h andels
ĠO ct
ĠS eb
ĠEr zeugnisse
aus o
ĠSp rachen
an i
Ã¶t zlich
t z
on ie
ĠI V
Ġspez iell
gra d
Ġm ass
Ġteil te
ens ion
ber ech
er g
ĠÃ¼ber all
al ys
ein s
Ġakt uell
Ġ4 1
ĠPap st
kÃ¼nf te
ĠBereich e
m aterial
T EN
R O
ĠC SU
uÃŁ ball
Im mer
. ),
ĠFrÃ¼h stÃ¼ck
ĠDies es
st ern
ĠS ektor
Ġf reuen
ort h
ĠV ir
Ġ193 9
Ġt ro
ĠBab y
p rÃ¤sident
ĠM ul
Ġw Ã¤hlen
r ig
O n
Ġ194 4
ĠHerr schaft
erk ennung
Ġf ragen
ĠTour ismus
ĠKap itel
Che f
Ġs enden
Ġt reten
ĠBezieh ung
ra chte
y le
ĠSo c
f c
ann ter
ĠStÃ¤d ten
ag ne
or a
ĠWas hington
ĠÃ¼ber sch
ĠDres den
Ġsch lÃ¤
A A
Ġs eid
schlieÃŁ ung
rach tet
ĠJugend lichen
ĠNach frage
tig ten
ĠA ward
Ġverl ang
hn ung
z eigen
ĠUm satz
ĠN ah
Ġin vest
l ings
Ġge zogen
iss ar
Tel efon
ĠRegel ung
sÃ¤tz lich
lo ÃŁ
ĠSt affel
n itz
D ER
Ġfest gelegt
ĠRo sen
f achen
ĠR itter
V om
ĠD amit
ĠAl tern
s id
ot ten
ub il
m achen
r ung
T A
ĠD ec
st immen
Ġn ennt
Univers itÃ¤t
ĠGef Ã¤ngnis
Ġk auf
r alien
ĠIn s
ul gar
Ġposit iv
Ġver Ã¤ndert
ĠKant on
ĠDi pl
ĠJ ak
Ġschwer en
Ġfol gten
Ġwesent lich
ĠP riester
Ġunter b
ĠW el
ĠIn halt
d at
ĠmÃ¶glich erweise
ĠE ich
Ġhoff e
K reis
ard s
ĠB om
frist ig
omm un
K S
ĠM esse
ra k
Sch w
Ġd igit
ĠK al
ie den
rÃ¤ umen
ĠFrei heit
Ġ6 4
Ġ196 7
Ġg eist
zus etzen
ent al
ĠRÃ¼ck en
Ġ194 0
u al
Ġakt ualisiert
ĠPrÃ¼ f
ch st
I M
L ass
c ia
re ut
ĠR oll
ĠGeb iete
ĠW eil
199 9
ĠRei sen
ig keits
? "
ĠDial og
Ġfunktion iert
ĠTats ache
ĠBed Ã¼rf
ĠAutob ahn
ĠJ ames
ĠVorsitzen de
le ute
fel der
Ġstatt finden
Ġp lan
Ã¤tz ung
jÃ¤hr iger
ĠLux us
ĠnÃ¶ tig
k arte
J an
ĠGe orge
ĠBr asil
isch t
wer ken
Ġersch einen
ĠL ad
Ã¼hl en
ĠSamm lung
ge ht
it ur
ĠGe fÃ¼hl
Ġv ierten
Son ntag
ĠF ak
Ġverab schie
Ġkur ze
ĠP C
ĠS P
ĠH essen
Ġmoder nen
ĠK as
Z wischen
I ON
p tion
ĠAn na
ĠVor schlÃ¤ge
D i
B en
ĠAk ademie
ab teilung
ĠElekt ro
ĠA sp
ĠD amen
ichtig ung
Ġh a
prÃ¼ fung
west lich
ĠFar be
ĠOr te
er te
Ġerg ibt
ĠF Ã¼nf
Ġbek annten
Ġbesser e
Ġm y
ĠFar ben
ĠÃ¼ber wiegend
ffiz ien
w s
Ġeinz igen
Ġein iger
l eiten
Ġwo hn
Ġbet reffend
Ã¶ ger
hÃ¶ rigen
Ġge dacht
H Ã¶r
Ġvor geschlagen
d ar
ĠG ru
ĠAbgeord neten
ĠW alter
ĠL im
gr enzen
Ġbestehen den
fÃ¼hr te
Ġak zep
zeich nungen
ĠHÃ¤ user
k Ã¼r
n y
ts eite
andel te
ungs mittel
kehr t
ĠDar stellung
k rit
ĠgeprÃ¤ gt
w enden
meld ung
Ġgener ated
S A
Ġn utz
Ġdi ver
ĠUn garn
ĠH ir
ĠH Ã¤nde
j di
ĠFest ival
Ġs ech
ĠZ un
S D
b rauch
Ġleb te
ĠFamilien name
Ġer hoben
rÃ¼ck en
G anz
komm t
stru ktion
D aher
ichte ten
ĠHer mann
wahl en
ĠGer Ã¤te
st ar
c up
ĠAf D
ĠMr d
ĠVertrag s
ĠPlan ung
us en
ĠArchite ktur
Ġster ben
Ġp sych
ĠSch atz
lie gt
S ind
schei det
Ġ196 4
Ġges ellschaft
ĠH it
Ġnational e
Ġpriv ate
ĠD ann
Ġab gesch
Ġgest ern
Ġ5 2
Ġh alb
T eil
l ers
schie de
reu ung
H at
ĠTra um
ĠErweiter ung
l Ã¶
200 2
Ġe w
ĠS y
or et
Ġrich tige
ein richtungen
f igur
Ġlin ken
Ġproduz iert
lie der
D afÃ¼r
Ob wohl
Ġakt uelle
em m
ĠF alle
Ġp ost
ĠMit teilung
ĠBeschl uss
ĠBr enn
ĠA kte
ĠDeutschland s
de x
Ġ4 9
Ġt oll
ver anst
ĠAn wesen
leist ungs
Ġsch rift
Ġinst all
ĠBe wohner
ĠInsel n
ze llen
Ġauf s
g Ã¤
ĠB ord
Ġer innern
E igen
ĠPro gramme
b ul
Ġsch reiben
Ġ6 00
Ġs age
ĠRo h
bie ter
ĠerfÃ¼ llt
ĠHerz og
ĠHoff nung
we ge
ER R
Ġl egen
ĠGroÃŁ en
ĠUm fang
ĠSow jet
wach ung
Ġzahl en
ĠLin ien
sche f
ate ll
ĠE WG
ĠK och
Ġan gesehen
ĠN ur
ĠAufent halt
att form
ĠJ ean
Ġorganis iert
Ġschwier ig
ti en
in ess
afr ika
ĠK op
ĠO s
Ġk ennt
ĠColle ge
Ġverl Ã¤nger
ĠKan ada
geb nisse
ĠD E
ĠExper ten
G ruppe
V P
pr et
ĠUn ited
ĠhÃ¶ch ste
Ġk rie
ein heit
Ġzwei mal
ĠZ entr
M ir
ĠT rÃ¤ger
Ã ¢
Ã¶n nen
Ġfest ge
ĠSie ger
wo od
d lich
Ġs ucht
ĠEr werb
ĠstÃ¤nd ig
ĠFac ebook
Ġk g
ar zt
ĠM und
b d
ĠGeb ieten
Ġk Ã¼nd
for um
Ġes sen
ur er
ie fe
Ġsec onds
Ġhin ein
Ġs inn
Ġst abil
wohn ung
ĠZ udem
Ġst ra
Ġch em
ĠNeu bau
Ġbet onte
T echn
ĠM isch
bl og
at in
Ġun ge
h agen
w irtschafts
Ġa ust
ĠFr anzÃ¶s
er er
Ġ12 0
Ġf ehlt
Ġnahe zu
ĠVort eile
Ã¤n ner
Z ahl
S ol
s inn
ĠFern sehen
k y
Ī Ĵ
Ġver geben
ĠW ur
amer ikanischer
ĠverfÃ¼ gen
N A
az in
ĠMann schaften
ĠBeh inder
Ã¤dag og
ĠW orte
ĠN ationen
Ġeigen es
ĠF al
ĠKar ls
kl ar
Å Ĥ
ĠGew icht
n eu
w p
Ġge gangen
o is
B eg
b ieten
o tion
deut sche
Ġvert eid
Ġh and
ĠVer mÃ¶gen
ĠJ ac
ur o
Ġs itzen
Jahr hund
B A
p ap
Ġs an
ian a
Ġk Ã¼nstler
Ġheu tige
ĠKon zer
leist et
Ã¼ ÃŁ
ĠStaats anwalt
In d
ĠS yr
M wSt
ĠM assen
Ġun bedingt
cy cl
deut schen
Ġ196 5
R o
at hl
ade l
Ġlok alen
alis mus
ru he
ĠUnter schied
ne ll
ĠSchaf fung
z on
ĠMÃ¤n nern
ĠSp recher
Ġ4 6
ĠFahr rad
M en
ĠRo y
ub a
ĠD Ã¶r
Ġein deu
ĠHÃ¶ hen
Pro gramm
V D
k unde
ĠÂ ©
ĠMitglie dern
lle g
k arten
ger ichts
ick e
ar ische
wer ber
ma il
olo ge
ĠRei hen
Ã¤n en
it ute
p on
em pl
ĠJugend liche
n amen
ĠA R
ĠC ast
Ġ196 6
p aar
ell a
L iste
ĠI T
ĠAn erkennung
iel d
Ġprof it
Ġeinzel ne
I r
Ġbes uchen
ĠschlieÃŁ en
wei ten
f i
ĠG ang
ĠGe werbe
Ġzunehmen d
ip s
Ġt rug
ur a
w r
ĠL ive
Ġsch Ã¼tzen
ĠTabe lle
Ġsch m
ran ten
Ġgar an
d auer
ĠR uf
ĠDrit tel
f unktion
ĠRe fer
system e
Ġwei b
ĠpersÃ¶n lichen
Ġge legt
ĠAn st
et tet
F rei
ĠE hr
Ġex trem
ĠKl ass
ĠZ eich
Ġbet rachtet
ĠBundes republik
Ġver sp
ĠGeburt stag
ĠKomp on
Ġbisher igen
spe kte
ĠD Ã©
ĠVo gel
Ġ194 6
s wert
ĠZug riffe
fer tigt
en kt
ĠEnt wurf
ĠMetho den
ĠUntersuch ungen
ĠmÃ¶ glichen
Ġ196 3
M ed
ĠGe Ã¤ndert
Ġ Ã¶stlich
ĠK Ã¼hl
ĠPart y
ĠGr and
stÃ¤t ten
ĠKon st
lÃ¤nd ische
ĠAn s
Ġwest lich
ĠGrÃ¼n de
I L
Ġmit tels
Mit twoch
ĠPh ase
ĠL ohn
Ġschw ed
ĠEngl isch
Ġs ystem
Ġeg al
ĠSch ool
ĠGerman y
Ġerweiter t
Ġbrit ische
Ġp f
Ġvoll er
Ġregion alen
ĠAl bert
Ġm u
ĠSpiel zeit
sp ir
ir che
C ar
ll a
ĠgehÃ¶r ten
ĠHil fs
ĠPr ess
ĠMeer es
Ġ5 1
ĠNatur schutz
JÃ¤hr igen
g h
ma ck
K ap
ĠAust ralien
r ation
Ġl Ã¶
ĠZu cker
Ġ196 2
w Ã¤l
ke p
S Ã¼d
h men
ĠRechts vorschriften
ĠSchwer punkt
Ġer stellt
rieb s
ĠBl umen
ĠAl kohol
ĠW ay
ograf ie
O k
ĠPl Ã¤ne
ĠFried hof
Ġ196 1
ĠProt okoll
Ġfal sch
rÃ¼st ung
ĠW ett
ĠStra tegie
Ġ Ã¶rt
ĠGeschÃ¤fts fÃ¼hrer
ĠMosk au
Ġvor zu
ĠTe uf
ĠL Ã¶sungen
Ã¤ ck
ĠV illa
is a
gesch Ã¤ft
ĠberÃ¼cksich tigt
ĠRis iko
Ġm achst
Ġkur zen
Ġk ost
ĠfÃ¼hr ten
aus bildung
ast rop
ĠL y
Ġ5 4
hÃ¶ hung
ĠB ir
ĠSch nitt
Ġein heit
ug h
Ġein geb
ĠE vangel
fÃ¼hr ungen
ĠV arian
ot oren
Ġleg t
ĠBuch st
ĠF la
V iel
per rt
etz ter
Ġzug unsten
Ġfinanz iellen
ĠAuf merksam
ĠFer tig
Ã ±
Ġaufge stellt
ĠJes us
fur ter
ĠVor gÃ¤nger
be wegung
ĠMin dest
wer tet
ĠVor bereitung
ĠD och
uf o
ĠAn nahme
Ġunter sch
ĠArtikel s
rÃ¼ck t
ĠRech nung
ĠStre cken
Ġbew usst
ĠPf licht
t n
ĠBed arf
wei ch
ĠKaffe e
h at
ord s
eich e
Ã¤f ts
Ġb o
ĠOr iginal
Ġvers uchte
Ġ Ã¶ffnen
Ġ5 3
ĠKl im
trag ung
w el
Ã¼m mer
ĠVerl ag
cel ona
ĠSt ation
ess el
ĠEing ang
ĠverlÃ¤ uft
est ern
A pp
Ġge Ã¶ffnet
ar akter
ĠPart ie
ges p
ĠStud io
ĠA ktien
rÃ¤ ch
ĠL ast
ul iert
ĠT her
ĠFÃ¤ lle
ohn t
ĠKo hle
ĠG Ã¶tt
ĠZus atz
ĠR iver
ma ÃŁen
ĠG olf
200 3
b aus
ud es
Ã¤ ischer
k at
ĠNiederl ande
Ġsch warz
Ġhil ft
ĠIs land
Ġfin de
s g
ĠTr end
ĠprÃ¤sen tiert
ĠF arb
Ġo kay
Ġn amens
Ġs in
Ġver ste
ĠW ed
ĠA syl
ĠHo hen
Ġm aÃŁ
Ġbeleg te
Ġverur teilt
k Ã¶rper
Ġverlie hen
Ġher unter
eh me
Ġfest gestellt
w an
ĠOr gel
ĠP au
Ġlei der
ing ung
Ġverl ieren
Ġaus drÃ¼ck
at ischen
ĠT hr
ĠAust ausch
rin ken
N ie
it or
ĠLe on
ide o
abil itÃ¤t
Ġbe wegen
Ġge d
Ġun be
ay s
ĠB anken
wirk ung
R icht
ĠV aters
âĢ ĺ
Ġho her
Â ©
Ġ ;
form ationen
kon ferenz
Ġschne ller
en der
t eils
ĠFl Ã¤chen
tell igen
ĠFrei zeit
Ġhol en
ob by
mit glieder
re form
Ġdar gestellt
wer ben
ff ekt
Ġsp ort
ak et
ri z
Ġbe an
sp unkt
Ġsol cher
ĠUr sprung
St ud
eite ten
E ben
u plo
Ã¶st lichen
S ehr
Ġvor gelegt
Ġ195 8
Te am
ĠBeschwer de
ĠE st
ĠMeister schaft
% )
Ġmein t
Ã¼ te
ĠLand schaft
Ġind ustrie
ĠRe aktion
b ilder
klus ive
kn Ã¼
Ġst Ã¼r
ĠK rimin
ĠI ll
ĠFor st
ĠKon gress
and te
Ġa uÃŁen
ist an
ĠerfÃ¼ llen
K urz
on ien
af el
k as
Ġk an
Ġreg istr
Ã¼n de
K o
qu ar
verein s
z we
Ġd ran
nehm ern
se ktor
ĠM auer
ik i
kun fts
ĠMark us
ĠNach richt
Ġinteress iert
ĠN av
s sen
el a
Ġf ehlen
Ġm Ã¤nn
aus schusses
Ġwo lle
man agement
t eile
ĠVer stÃ¤nd
end orf
ĠG ab
ĠunabhÃ¤ng ig
O hne
Ġanges ichts
ĠInternational en
P S
br Ã¼cke
199 4
gen tin
Ġblie ben
Ġger e
c b
ĠV ic
S a
le un
ĠtÃ¶ ten
ĠTrain ing
is ierten
ĠArbeits markt
ĠSt ich
____ ____
ut her
anz er
Ã¤ch er
ĠAbst immung
Ġl Ã¤nd
Ġbef Ã¼r
Ġprof ession
Ġsie he
ro llen
ĠAuf fassung
ĠQ uer
ĠAufmerksam keit
ĠbenÃ¶ tigt
Ġd einer
ĠGener ation
ĠO ffiz
Ġ194 8
g riffen
ĠUn abhÃ¤ng
ĠU kra
ĠÃ¼ber zeugt
ĠO pp
ĠInst itutionen
L o
ĠKooper ation
B ar
ĠKonz ern
h ias
s weise
Ġw uchs
reich end
E tw
t Ã¤u
ĠF ri
Mit glied
Ġgen ieÃŁen
ĠSystem s
Ġgen auso
em s
c z
ĠZeit schrift
k ar
Ġehemal iger
ĠErz b
ĠMa il
Ġet c
ĠS emin
ĠE uch
Auf grund
Ġb auen
wie s
Ġm achten
Ġâ ĪĴ
kun st
Ġl eitete
ĠBes onder
ĠPrem ier
zeit ung
ĠK il
ĠK os
ĠEr Ã¶ffnung
Ġwest lichen
ĠFl ucht
Ġhttp s
Ġprom ov
ĠN ic
G B
Ġ8 00
ĠSo uth
P er
immobil i
j or
r Ã¶
Ġdein em
ĠJ ungs
re ckt
ĠBeschÃ¤ftig ungs
Ġoffen en
auf rufe
ĠK eller
ĠFlug zeug
ĠK art
for dern
Ġh Ã¤ngt
Ġ195 6
ĠH ard
ĠE N
glieder t
r h
E B
Ã ´
ĠBe wertung
Sch lieÃŁlich
ĠB ist
ann er
Ġ194 9
ĠI sl
ĠM as
z ten
M Ã¤r
Ġbeg eister
Ġwir kt
ĠV Ã¶lker
od y
Ġklein es
ĠG itar
ĠFreund in
J oin
b ro
ĠS ab
Ġdra uÃŁen
w itter
Ġgegen wÃ¤r
ĠI ran
kehr en
ĠTar if
sto ffen
Ġentst eht
Mus ik
Ġteil nehmen
Ġ4 7
Ġgegen sei
ĠReg ie
ĠEin kauf
Ġ rad
ĠT ab
el be
Ġgemein schaft
ĠKl ub
Ġstar tete
ĠSt urm
ĠSchiff e
N e
ĠTerr or
ĠDeb atte
ĠAus gang
ĠWider stand
mens ion
Ġw ann
ĠschÃ¶n e
rei f
ahr t
sch uÃŁ
Ġsch eiter
ĠSchl es
ow ski
ĠHÃ¶ chst
j t
UNG EN
ĠG lo
ĠPla y
J uni
ĠAut oren
ĠBer ichter
n h
ĠsÃ¼d lichen
Ġges und
nit ten
Ġst ill
ĠAuf tritt
unn el
ĠpersÃ¶n lich
Ġo per
ĠÃ¤ uÃŁ
Dan ach
F ax
end ar
b ran
et ts
ĠAu ge
Ġ195 2
par tement
Ġrich tigen
Ġpl Ã¶tzlich
Ã¶ sterreich
Ġwir kte
Ġch rist
ĠDe ck
ĠBevÃ¶lker ungs
ĠSeb astian
ĠF ass
Ġeh e
ĠM i
bahn hof
u gend
Ġlau tet
P eter
s ur
st ige
Ġd or
W ohn
ĠZ ahn
r ein
alis iert
Ġh c
Ġange messen
Ġs orgt
ial e
ant in
Ġfinanz ielle
M et
Ġlie ÃŁen
z esse
qu ote
Ġ reichen
ĠSeite aufrufe
ze ll
ĠS ei
Ġgeh abt
O K
Ġtra in
qu alitÃ¤t
st i
ĠA K
Ġh ow
ag ner
Ġverschieden er
Ġverb oten
Ġr etten
ĠD un
ĠInd ust
ĠW Ã¤r
ĠHam burger
Ġver ringer
ĠF ein
d ach
H el
ĠW erner
M S
Ġausge tragen
ĠBeschl uÃŁ
ĠInnen stadt
bar er
Ġj ene
bach er
iz ierten
ĠUn ternehmer
W eb
Ġbes itzen
ĠverstÃ¤r kt
Ġw es
Ġall gemeine
ĠC a
ĠhÃ¶her e
ĠPri or
Ġgleich nam
Ġ194 3
Ġver anst
ĠM ol
ho d
ĠB lock
Ġauf gebaut
ĠVer z
Ġmo dern
ĠQual itÃ¤ts
Ġan t
n ummer
ho ckey
ĠMar c
ĠVoraus setzungen
F C
ez if
ĠNot wend
ĠF le
Ġunser es
Join ed
ĠAus einander
p m
f ir
P olitik
ĠHaus es
ĠÃ¶sterreich ischen
ĠMex iko
ĠO ff
ĠY ou
Ġgeb ildet
Ġ !
AN D
ĠLin ks
Ġ ti
l im
ĠGe gend
ĠFr ont
m Ã¤ch
ĠA ktionen
as ser
K inder
sprech er
i oren
Ġgut es
Z usammen
ip e
Ã¡ n
b ungen
rin zip
zeich neten
Ġst ruktur
aliforn ien
Ġs h
Ã¼ mm
con tent
Ġbe endet
Ġunters ucht
ĠhÃ¶her en
Ġe cht
ĠFunktion en
Wie so
ĠC ent
Ġin kl
Ġzu stÃ¤ndigen
Ġge arbeitet
au ten
Ġge fragt
wir ken
Ġ194 2
ĠMÃ¼n chner
J ohann
Ġverkauf en
Ġop ti
ĠÃĦnder ungs
auf nahme
B est
ron om
Ġall eine
ĠG Ã¼n
Ġleb ten
Ġer leich
ĠNeu en
ĠB Ã¶r
ĠGatt ung
ĠSe eh
mo sphÃ¤re
g ischen
Ġl Ã¶sen
M U
Ġvor gestellt
l u
vert eid
ger Ã¤te
Ġruh ig
jahr es
Ġ194 1
ĠViel zahl
ĠT ief
ĠK iel
Ġange kÃ¼nd
ĠAr g
Ver handlungen
omin iert
hÃ¤lt nisse
Ġverb reitet
ĠZ weit
ekt ar
ĠB eim
ĠGesch windigkeit
ĠBl att
ĠAfr ika
ĠM ut
II I
sp f
ĠE h
M r
ĠDat ei
f abrik
M T
Ġverst anden
ĠFlÃ¼cht linge
Ã¼t ter
ĠM inder
ĠSalz burg
ĠHe er
ĠH on
sch lagen
we en
Ġengl ischen
T ut
Ġ195 9
schnit ts
Ġgeb lieben
opp elt
Ġan ti
ĠMa ster
Ġo s
ĠBen utzer
Ġh art
Ġer folgen
w irt
Ġk Ã¤mpfen
b ogen
Ġ195 7
S ag
um in
ĠPfarr er
ĠGeb rauch
Ġer mittelt
Ġbe endete
Ä Ĥ
ĠJ agd
ĠKat alog
S eite
en ten
ĠmÃ¼s sten
P ost
serv ice
Ġw eite
wei l
ĠReg isseur
H il
Ġan hand
ĠÃĦ gyp
Ġan tw
ĠS orgen
ti ere
Ġnie mals
ĠMad rid
ĠD enn
rei de
D av
fÃ¤h ig
fÃ¼hr ungs
Ġverm eiden
ĠAn schlieÃŁend
ende ten
ĠRe kord
ĠNetz werk
Ġerh ielten
Ġd Ã¤n
eu ert
Ġehr en
m ag
t Ã¤
ĠD omin
ĠSp Ã¤ter
gest altung
ĠBeit rÃ¤ge
ĠV an
h Ã¼
lÃ¤ss lich
ĠLand tag
beh Ã¶rde
in c
ĠDie sel
Ġgel ungen
ĠSystem e
C on
at i
Ä ģ
spr uchs
Komm ission
spro zess
ĠA spekte
mann s
ĠNÃ¼rn berg
ĠBo ot
g it
ĠEin kommen
Ġm ach
stehen den
ei se
ĠM ur
Ġf Ã¤hrt
ian o
Ġdies mal
ĠK ass
wÃ¼r fe
ĠF eder
Ġber u
form ation
Ġempf ohlen
Ġ5 6
ĠS orge
ĠLand tags
ĠMal er
ÃŁ ig
ĠQu art
ĠE ck
Ġkomp lex
ĠEl emente
ĠQ uelle
ti st
Ġet abl
ĠK linik
ĠBe weg
ol ogen
ĠerhÃ¤lt lich
ĠGer Ã¤t
m ess
ent lich
ĠGen ehmigung
Ġs ite
ĠM os
ĠArbeitspl atz
ĠNor wegen
ĠNieder lage
v iel
Ġw Ã¤r
echs elt
p ool
Z iel
wer den
Ġv oe
Gen au
M W
S an
ĠRe c
ĠDemokrat ie
ĠKÃ¼ ste
ĠA BI
del n
d if
time ter
oc ation
ĠF ehl
ist ent
ĠJak ob
inst rum
ĠmÃ¶ gliche
ĠBrÃ¼ der
ĠNiederl anden
op ul
n l
ĠL eiden
amm te
Ġrel igi
Ã¿Ã¿ Ã¿Ã¿
m es
schl oss
ph an
ĠEind ruck
ĠheiÃŁ en
Ġerheb lich
tra gt
er d
Ġst imm
ĠB art
ĠDel eg
ĠL ieder
r Ã¤t
Ġ ries
ar tig
ĠF ax
Ġvor genommen
ach im
ĠMar ke
ĠW Ã¤hrungs
ĠSch ick
Ġmein te
199 8
Ġen dete
Ġbem Ã¼
r c
WÃ¼r ttemberg
Ġbesch Ã¤d
br and
ig ital
Ġbe zÃ¼glich
Ġforder te
ĠKombin ation
Ġzu kÃ¼nf
ktion s
Ġf alls
ĠA v
ĠSÃ¶ hne
ĠBes atz
Ġr um
Sch Ã¶n
ĠVer eine
ĠF ranken
ĠVertra uen
Ġange p
n ische
ĠSchrift steller
Ġc an
Ġerz ielt
ĠBar celona
ĠAutom obil
ĠAn hÃ¤nger
R ech
I B
F B
sk y
fl Ã¼gel
ĠMittel meer
ic tion
en zt
Ġso lle
Ġeinz igar
az itÃ¤t
fin anz
ĠglÃ¼ck lich
G ott
ant as
fÃ¼ gt
Ġerb aut
ĠK amp
j i
ab kommen
ĠL eid
ĠG rÃ¤
uf s
ĠR em
ĠSchmid t
N ieder
ouver ne
Ġer lÃ¤uter
ehr en
K ar
Ġc omp
ĠMo der
ĠStruktur en
Ġwo durch
Ġg u
af Ã©
ĠP ersÃ¶n
ord net
pp t
Ġver an
k lei
ra y
j ect
S ep
gend es
ĠP ause
ĠOb jekte
ĠPat ent
ĠD ol
F est
m n
ĠRo llen
R E
ĠNach wuchs
ĠChrist oph
Ġvor stellen
ĠFil me
Ġs a
ak a
Ġ195 3
R es
ĠKrank heit
S PD
Stra ÃŁe
Ġbes ucht
er ung
ent wick
I ER
] ]
ho fen
Ġeinge laden
k ern
ĠN ie
Ġn n
b indung
blei ben
ĠEigen schaften
Ġbetreffen den
l am
k et
Ã £
ĠPol y
ĠWeiter e
ĠTreff er
abe lle
om oti
alen der
ĠGemeinder at
re te
g ing
Ã¼ se
ĠSch mer
ĠL ind
ĠBl Ã¼ten
ver lÃ¤ss
st ritten
ir d
arb eits
mal en
b rÃ¼
Ġm er
Ġwirk sam
ĠerhÃ¶ hen
f le
ĠAt om
Ã¶r p
hÃ¤ng ig
ĠBek annt
ĠD arm
b eit
bereich e
R und
b art
EI T
.... ..
ĠKomp eten
tel n
ĠAus gleich
ĠB lack
ĠW orten
EL L
ĠT oten
Ġben ach
B Ã¼rger
ĠKonkur renz
ĠMar ken
Ġ rot
Sp ort
Ġschwer e
ĠL aden
Ver ein
ger t
Ġs itzt
w orten
s Ã¤
ĠW illen
M eter
ĠMax im
Ġber ufen
ograph ie
ie ter
a ktionen
ĠArchite kten
ĠInd ien
Ġv ollen
ĠBei hilfen
Ġ195 4
ar kt
Ġ Ã¤r
ĠM iet
Ġ19 18
in fo
ĠPhilosoph ie
Ġ195 5
zeich nis
ĠKandid aten
st uhl
Ġgel angen
ie fen
ĠAuss age
w ur
Ġn annte
ĠEn gel
Ġdan ke
ar o
sch Ã¶n
ĠJ Ã¼rgen
ĠM Ã¶n
ĠPh ys
fern ung
Ã¼nd ungs
lei sten
imm ern
Ã¶ff nete
at tet
F L
Ġf eiern
ĠAn hang
Ġst eigt
ĠBet riebe
Ġ194 7
Bei de
Ġin nov
Bes onders
Ġfre und
Ġd r
ĠIn gen
ett o
Ġvers ehen
u ert
r ol
Ġar ch
ĠBe weis
sch irm
Ġd is
Ġgew Ã¼n
ĠNamen s
Ġsel ber
Ġbeg leitet
pro jekt
W egen
ĠLou is
4 00
ĠTeuf el
auf hin
ĠlÃ¤ng st
at isch
ied lung
Ġ" âĢŀ
ast ung
ĠBer eits
ber s
B C
Ġauf merksam
Ġhistor ische
ĠM athemat
g Ã¤n
Ġober en
kti ver
ĠZ in
Ġh ave
weis ung
ĠZeu gen
gesetz ten
ĠVerÃ¤nder ung
p reise
Ġ20 20
Ġwir ken
CD U
Ġh oh
es er
h Ã¤ngen
ĠSte uern
zep tion
â ĸ
k opf
Ġlie ben
ĠSch le
ekt oren
Ġso weit
ik ationen
Ġgen ehm
B el
el and
Ġum geben
Ġman y
Ã¶ ss
ĠC up
au d
Ġ9 5
Ġschl ug
verb rauch
anz ig
ĠBestand teil
Ġfrei will
ru cken
ĠprÃ¼ fen
N ov
H aupt
al tete
ĠBo x
licher weise
ĠTh Ã¼r
pp er
Ġr unter
F i
ĠH ub
ĠPl Ã¤tze
Ġab ger
ĠâĢ ¦
h orn
M ach
Pro jekt
ĠT Ã¤tigkeiten
zehn ten
ĠE ss
av en
ĠK Ã¼nst
Ġgepl anten
ĠÃ¤uÃŁer st
ĠAus schuss
ĠÃ ĩ
Ġh ef
at ische
pl atten
Ġum ge
G ra
k rieges
stÃ¼ck e
ĠStat us
ĠN iveau
W or
ĠB isch
ĠÃ¤lter en
ĠTur n
te am
Ġgetr ennt
Ġbeleg t
ges ellschaften
ĠEntwick lungen
I A
Ġst arten
ĠB ol
L ei
al em
ĠEhe frau
Ġ9 6
j h
/ -/-/
Ġm iss
ĠgÃ¼nst ige
famil ie
em e
ĠFran cis
o zi
ziehungs weise
sprÃ¼ che
Ġsch Ã¶nen
ĠBesitz er
Ġger echt
ĠL aur
ĠVerl ust
Ġtradition ellen
mitt lung
ĠPark platz
Ġab geb
mÃ¤ÃŁ ige
K n
EU R
ĠHin weise
ĠFinn land
Ġviel er
Ġj ahr
stra fe
Ġge kauft
verstÃ¤nd lich
ĠR am
TS CH
ĠâĢ ļ
s w
wend ungs
ĠZust immung
ir ge
ĠO bst
z ert
am ts
ĠVerstÃ¤nd nis
Neu e
ĠCharl es
Ġu pd
ĠS erv
is abeth
ot a
unter richt
ĠAmer ika
K ont
ĠDe fin
ĠR essourcen
Ġmoder ne
Ġwesent lichen
ra ucht
Ġdem okrat
ĠMan ager
Ġd auern
ĠC re
ĠKÃ¼ sten
ol i
Ġ193 6
ak u
ĠC enter
wei ht
ĠGest altung
lig isten
gemein den
ier end
ĠInstrum ent
Ġbestimm ter
anst alt
Aug ust
cl ub
zÃ¼ g
ĠDiv ision
gra mmen
ĠV ill
; &#
Ġ7 2
ĠDien ste
Ġ193 4
beh alten
re cken
ĠUnter schiede
ĠLi ber
Ġander erseits
Ġvor ne
Ġstaat lichen
ĠGl ob
f euer
> <
uplo ads
ĠKla vier
rid ge
ĠV ER
ro ll
sp rÃ¤sident
Ġzwei ter
Ġbil dete
ĠK e
WeiÃŁ t
ĠNotwend igkeit
ĠDort mund
ĠwÃ¼n schen
Ġk enne
el en
p end
Ġgest orben
Ġor ien
ĠAus sicht
ver kauf
ĠMittel punkt
uch st
Ġbe ziehungsweise
Ġwissenschaft lichen
sch end
Ġer leben
ĠSzen e
ĠL aut
Ġtro cken
hÃ¶ rige
G E
z n
Ġver folgt
ĠSing le
u ste
Ġi lleg
Ġge tragen
ĠBeschÃ¤ftig ten
ĠRicht linien
ct u
ĠVort eil
ist ischer
ĠFrei burg
sprech end
ick er
ĠNutz er
Ã¤r ten
Ġg ro
Ġbesch reibt
ĠFÃ¼hr er
p assen
ĠM em
ĠAn satz
Ġl o
ĠJ os
p ost
Ġauf treten
k g
Ġn umber
ĠT SV
it ness
V ier
ah e
er ven
ĠK rieges
ĠUnter kunft
sch ten
igh ts
Ġbe zahlen
tin u
Ġnie d
Ġ19 19
ĠW en
ĠP oten
is on
Ã¼t ze
Ġver dient
Ġsp anischen
M ill
ĠZ erst
Ġunter scheiden
Ġt at
Ġverst ehe
k ul
e tern
ĠB io
Ã¶ ck
ĠZeu g
H och
b an
Ġange legt
ĠKÃ¶l ner
ĠKamer a
ĠnÃ¶rd lichen
ion e
em pf
mÃ¤ÃŁ igen
ok raten
E d
onen ten
Ġmein es
ĠAl pen
stat ter
ĠLin k
Ġgesch ehen
Ġinform iert
ĠH ERR
f h
m ach
ĠBinnen markt
Ġgen Ã¼
ĠAngel es
ĠWahl en
ĠPl atten
Ġgew Ã¶hn
ic es
ĠjÃ¼ng sten
ĠTel ek
ĠGef angen
Ã¤ udes
ĠForm el
St at
ĠWa ppen
ĠBundes regierung
ktiv itÃ¤t
id o
Ã¶ gel
ĠRie sen
I K
ĠAus fuhr
Ġver teilt
geb nis
V ol
Ġen det
Ar t
ĠS us
bo den
Tra iner
at ch
r ufen
Ġk ap
Ġp ort
ĠGra fen
ĠKap elle
ohn e
Ġgest altet
un s
k reuz
d irektor
ah me
ĠP rag
pro blem
An dere
ĠAmer ican
ifferen z
ĠDon ald
ĠBran denburg
Ġerw arb
te uer
Ġt eils
angeb ot
p ekt
H ein
ĠU fer
Ġbes etzt
ĠBot schaft
?? ??
Ġerz Ã¤hlen
F ran
zen e
W il
l assung
au lt
Ġ5 7
ĠRum Ã¤n
Ġl eist
m od
geb lich
ĠUm feld
ĠMa schine
h ar
gel eitet
R W
F re
Ġhin ten
For ts
M ai
sch u
Ġber ech
ĠBer eit
ĠPoliz isten
Â ®
ĠH altung
M ont
D o
Ġbe ziehen
ĠVor gehen
ĠWeb seite
ĠP osten
lich em
qu enz
ĠMetho de
Ġ195 1
ĠK Ã¼r
Ã¤m pft
Ġum s
Ges amt
ĠInnov ation
Ġaufge fÃ¼hrt
Ġb ayer
bÃ¼rger meister
Ġh undert
ĠergÃ¤n zt
Ġprakti sch
v ater
ĠS eg
Ġbet ween
ubl ic
B ed
Ġm ei
ĠKrit erien
ĠursprÃ¼n glichen
ĠschlieÃŁ t
Ã¤nger ung
Ġat tra
ĠSa al
ĠNieder s
i que
ĠJ ubil
Ġabge st
T ag
ant eil
sp iegel
ĠUm gang
rei ft
199 6
sted t
Ġaus einander
ĠAn der
Ġeigen er
Ġst rate
Ġa ss
ov a
zw ungen
ĠOb jekt
Ä ĩ
b und
au x
ĠfrÃ¼her e
ge mÃ¤ÃŁ
Ġper fekt
Ġal ter
F rau
ĠSowjet union
" ;
Ġent schied
reich er
ĠN et
Ġeinfach e
W issen
Ġpre uÃŁ
Ġb ot
ĠVereinbar ung
B ist
ĠNeu e
Ent schuld
olog isch
ĠKon zentr
ĠK enntnis
Ġge g
In nen
zahl ung
ire ktion
ĠFran ce
af t
ĠGro up
ĠBrasil ien
ak er
ĠSchlaf zimmer
ĠArch iv
ĠSu bst
fahr zeuge
n ommen
bar ten
lei hen
deut schland
Ġautomat isch
b rechen
ĠW ell
ĠBÃ¼ hnen
y t
ĠSp an
ĠDeb Ã¼t
org ungs
ĠT ime
r iss
ĠK ul
Ġoffiz iellen
ffizien z
ĠNach mittag
hard t
N ord
Ġerw orben
Ġso w
ehen s
ĠBeg r
D ollar
ĠW under
ĠEin heiten
geb ieten
ĠfÃ¼hl en
ĠAngeb ote
ie ht
ĠStaatsanwalt schaft
ĠD am
Ġeiner seits
zeu ger
ĠH ey
Ġm obil
p osition
A BI
lÃ¤ ub
s an
ir r
ĠSch Ã¼tzen
ĠHin weis
ro ck
or gan
re st
ĠB ri
Dat um
ar tigen
Ġc al
, ...
Ġum gesetzt
ĠDo ktor
Ġwel chen
ĠQualif ikation
ĠFÃ¼r st
ige m
ĠDan ke
D aten
mode ll
ier er
Ġf ahr
ilom etern
e kte
ĠSen ioren
Wel che
ĠGo ogle
Ġdie jenigen
ĠDetail s
ten d
Ã¼h ungen
ĠStimm ung
b eu
ĠArbeits losigkeit
Ġgesch lagen
ĠEin stellung
ks hop
ĠsÃ¤m tliche
Ġklein ere
ph ase
ĠL Ã¤
ĠAb stand
Ġgesch ickt
ĠLie bl
M Ã¼n
ĠA ben
ĠL eicht
ĠMÃ¼ ll
ge d
tem peratur
ĠO ster
ind lich
alt ungs
ĠStat istik
ĠN ar
usst sein
rat es
Sie g
Ġunter rich
sb ach
ĠEurop Ã¤
ĠErmitt lungen
ĠDa zu
o z
Ġseit dem
Denn och
ĠH eute
k Ã¶
sh ip
Ġzu gelassen
sch wer
Ġgef Ã¶rdert
ĠMer c
ĠstÃ¤r k
ĠGi pfel
ĠS n
ĠMatt hias
Ã¤mpf e
Ġ193 7
it es
ĠMach ine
Ġ6 6
ĠG lei
Ġbedeuten d
i ffen
ĠAb itur
Ġsow jet
ĠUkra ine
Ġposit ive
bil den
ĠWohn ungs
ĠhÃ¤ uf
em p
u sch
ĠmÃ¼s ste
qu es
rei en
ĠI dent
St aaten
ĠK alifornien
Ġer led
Ġdurch schnitt
ĠP rakti
rÃ¤nk ungen
an ke
umen ten
ĠEx empl
l or
W en
Ġ193 5
ĠRe v
ĠSk i
ĠVerbr eitung
ĠO k
B N
F rÃ¼
ĠL ande
eig net
ĠF R
ĠD arlehen
ĠVers icherungs
ĠM un
ĠSch ei
ok er
En de
v r
ĠS ym
Ġglau bt
ĠKr ise
ĠLab or
tret ung
im g
ĠSied lung
ĠB rot
Ġvor s
sb ed
ĠschlÃ¤ gt
ĠVerf assungs
ĠD LL
ĠBerat ung
il a
Ġspez ial
Ġpolit isch
st a
we lle
ĠAnge klag
ĠPass ag
ĠAr n
Arb eits
ĠT Ã¶
ĠN orth
ĠÃľber nahme
m ont
ĠVerb indungen
cycl op
stra ÃŁen
ste ten
ĠTex te
M ode
t ran
m Ã¼
Ġ5 9
ĠFlÃ¼ gel
er z
Ġgeh ol
ĠM esser
ĠVor stellung
Ã¤r t
ĠStre et
Ġp oten
Ġ5 8
ĠJ on
v g
che f
ĠBesch reibung
ĠBest immung
Ġ1 10
ĠZwei fel
M art
Ġstell ten
ĠPer spe
ĠMus ic
ĠNational sozial
ie ger
h istor
ĠA N
Ġsorg te
Ã¤tig te
ĠT ennis
eg t
ĠAn stieg
on ym
Ġl eiden
ĠGeb iets
Ġintens iv
at al
ĠHo use
199 7
Ã¤nder te
ĠTechnolog ien
ĠGast geber
Ġbe zieht
ĠFest legung
ĠSch on
J ohn
Ġper fe
West falen
hl t
ĠWar um
ic ro
ĠAt mosphÃ¤re
be am
ger Ã¤t
Ar ch
Ġg aben
b orn
ĠS auer
Ġbetroffen en
ĠP en
ein heiten
Ġviel fÃ¤l
Ġoffen sichtlich
ĠSch au
Ġc o
ĠSÃ¼d westen
l eh
s ive
Ġiden tif
m ord
g ab
lowak ei
Ġn ed
Ġver legt
Ġgleich er
kore a
Ã¤l ter
N ame
Ġlauf enden
ĠGroÃŁ teil
ĠSe ele
be cken
zen ten
mit tler
ĠOr ten
Ġspez ielle
ĠF abrik
Ġerforder lichen
Ġgrund sÃ¤tzlich
g ro
M ark
S icher
ĠH armon
B and
ue ller
S k
Å Ļ
ge kommen
Ġges perrt
zent ren
Ġder zei
ĠVor stands
ĠK Ã¶
pr om
ĠSt ate
ĠL au
Ġgesch afft
I s
Ġdra uf
ri pt
ti al
Ġregion ale
ĠFin ger
ĠAn k
ern te
ĠIsl am
Ġ rie
ĠC O
Ġaus reichend
Ġpar allel
ac t
ep ar
E P
ĠRo ten
ĠVerfahren s
Ġbe zeichnete
ĠArbeits losen
Ã¼r e
ĠReg ierungen
om a
Ġfrei e
ri p
ĠB am
ĠR od
r as
M EN
ĠProdu kten
Ġwar st
ĠS S
Ġjen er
ĠSch reiben
ĠÃ¤hn liche
w i
ĠSim on
ĠKrÃ¤ fte
ĠEr schein
ĠAlt stadt
ĠÃľber gang
ein satz
Ġverbesser t
kel n
ĠNord osten
Ġre chte
n immt
ĠEr richtung
Ġdar stellen
ĠStad ion
ĠMo tiv
o fs
ir l
lie d
ĠzurÃ¼ck zu
S av
Ã¤te stens
il ian
Ġ6 1
ĠD ampf
ĠB os
be auftrag
sch a
H and
st ad
Ġun gewÃ¶hn
ach ter
br ig
f leisch
ĠMittel alter
ĠF iguren
rÃ¤n ken
ĠAnp assung
Ġp erson
Z immer
Ġsp Ã¤ten
id ar
Ġwichtig ste
st immung
ĠProgramm s
ĠÃ¼bern immt
g ol
Ġreg ul
Ġjem anden
ĠVers orgung
eh lung
ĠpersÃ¶n liche
T yp
rÃ¤n ke
Ġ19 00
s ver
iert es
ualis ierung
Ġger aten
b it
um or
N or
Ġbein hal
ĠNew s
Ġaus fÃ¼hr
agen tur
Ġst olz
o fer
ĠHer kunft
Ġverb indet
fang s
geord net
ĠSyr ien
Ġbeit ragen
setz te
land es
Ein er
st ab
ĠSch reib
wor fen
G o
v s
Ġlie fern
ĠSt o
Ġges ucht
Ġ orden
Ġniedr iger
MÃ¤r z
as i
ĠSp ur
Ġgelegen en
Ġklass ischen
usÃ¤tz lich
Ġ rÃ¤um
ĠK reu
199 5
ĠG Ã¶t
Ġ ri
Ġe vent
G el
Ġk Ã¶rper
ier re
ĠS in
Mit tel
et ik
deut sch
ĠM otto
ĠBundes staat
ĠSan ierung
organis ationen
ĠSm art
Ġm Ã¤ch
ĠGrÃ¼n der
ug os
Un ternehmen
cyclop edia
= >
Ġent lassen
us se
ĠW egen
ĠFÃ¼hr ungs
ĠB reite
ĠD ad
Ġfr em
frei heit
Ġben utzen
Ġre al
Ġ> >
ĠVer fassung
st unden
Ġzentr alen
ĠInst all
Ġvorber eitet
ĠgewÃ¤hr t
ra iner
ĠErw art
vier tel
ĠViel falt
Ġmittler en
Ġkathol ischen
ĠB lau
Ġab ges
Ġgew isse
ĠSer ien
ĠK anzler
Ġj ur
ĠFakt oren
k op
st rom
p hen
pp el
bes itz
Ġdrin gend
Ġdefin iert
ĠEigent Ã¼mer
ĠM eg
ĠT ax
bl Ã¤tter
ĠT ode
ĠAr z
id s
ĠStra ÃŁ
ĠL ine
Ġwei sen
Ġgef Ã¤llt
Ġr Ã¼
Ġwechsel n
ĠK rie
klÃ¤r t
Ġaus geschlossen
ĠGeschÃ¤f te
Ġzentr ale
ĠEr folge
: :
Ġwel chem
Ġp ri
g au
k in
Ġgem el
her ren
ĠW asch
ĠChrist us
ĠWeltkrieg s
ĠWissenschaft ler
ĠE ier
Ã¤chs ischen
eh end
Ġ7 6
D ir
ĠBet rag
f m
ĠT rag
omm ern
Ġwissenschaft liche
deck ung
Ġwes halb
sch rank
V ER
Ġh andeln
ĠA hnung
ĠS G
ĠRestaur ants
ĠLehr e
Ġ8 9
ĠFortsch ritte
system s
ĠT irol
bed arf
spart ner
ĠFor scher
ĠDurch messer
d h
ĠEr ste
Ġum stritten
ĠF igur
Ġl ock
ĠS ur
ĠLand rat
gr Ã¶ÃŁe
Ġvor Ã¼ber
Ġl eitet
ĠB an
Ġkom bin
sch Ã¶pf
Ġbe ant
Ġleich ter
ch ron
ĠEis hockey
krÃ¤ ften
ar tikel
b m
Ä ±
ĠStaat es
af e
leb nis
ĠH ektar
Ã¼hr t
Ã¤l de
Ġ19 14
Ġab hÃ¤ngig
ĠK OM
Ġkrit isiert
ĠKontro ll
c ol
Ã¤mpf er
ĠHei del
g st
ĠSchauspiel erin
j ew
ĠBeh Ã¶rde
Ġo hn
produ kte
ĠZust Ã¤nd
b ahnen
Ġdur fte
Ġgriech ischen
ĠKonfl ik
pl atte
Ġbeob achtet
Ġra sch
Ġ8 8
ĠgewÃ¤hr leisten
ĠG ymnasium
Ã¼ck t
ĠendgÃ¼l tig
Ġge fordert
k unden
Ġitalien ische
ĠSchÃ¤ den
Ã¤ b
Ġeindeu tig
Ġg ros
M ag
ctu ally
Ġzug Ã¤nglich
ĠAm ster
ĠHeraus forderung
Ġjeden falls
ĠMill ion
m ie
Ġk Ã¼mmer
ĠN eum
ĠPro test
ur teilung
ĠA dresse
ein halb
Ġgest iegen
ĠHor st
s r
p la
ĠPfer de
Fol gende
Ġpass ieren
ur nier
st il
Ġd auert
as p
mar sch
Ġspiel ten
ko lle
ĠflieÃŁ t
unsch wei
ĠGesch ichten
Ġbeob achten
ĠÃľber ra
ei he
ĠP reisen
Ġg ren
ĠVerÃ¶ffentlich ungen
Ġletzt lich
Ã¼r zt
Ġfre ut
ar io
Ġ19 28
sch icht
sk a
ĠÃ¶ k
ĠFÃ¼r sten
spart ei
ĠDÃ© partement
ĠWieder auf
ĠFÃ¤h igkeiten
es p
N ichts
Ġunter en
ĠSch neider
ĠL ig
druck t
ĠTex til
ĠDon au
Ġin folge
ĠH ill
met ho
en cyclopedia
M er
Ġb loÃŁ
Ġa ctually
Ġan alys
Ġausge fÃ¼hrt
av a
g roÃŁ
il ber
Ġdir ekten
L i
re en
Ġg o
ĠFre unden
Ġg Ã¼l
ĠGew Ã¤sser
ord nungen
iz it
Ġupd ated
ĠMaÃŁ nahme
Ã¼mm ern
B ew
ĠOrt schaft
Ġdir ekte
ĠMitarbeiter n
Ġ6 3
ĠS or
hÃ¤ usern
Ġf erner
Pro f
beg inn
Pl atz
ĠBru st
ĠO ut
ĠK le
Ġempf ehlen
ĠHoch zeit
eint rÃ¤ch
tre tern
ĠTerr asse
Ġdisku tiert
Ġ( +
ĠChem ie
ill on
Ġ9 3
Ġsch lagen
ĠStat ist
Ġdar stellt
il ien
J ahren
Ġberuf lichen
ut in
Ġe ffe
Ġ19 29
ied s
ĠL it
Ġh ell
ĠAuf lÃ¶sung
O l
ĠEin nahmen
p re
ĠangekÃ¼nd igt
sie ht
Ġs auber
Ġgrund legen
ĠW LAN
A pr
201 7
Ġ ol
ĠTrain ings
ĠJ ud
ĠAr men
Ġn de
geh Ã¶r
Ġ8 1
. /
lie ger
bar a
ĠOpp osition
pro f
ĠUnivers itÃ¤ten
R ad
lin der
sch reiten
len burg
Ġp asst
ge gangen
ĠBi bliothek
ĠF ritz
Ã¼cks ichtigung
ĠTour isten
lÃ¤ ufer
Ġ6 8
lich ung
Ġz it
Ã¶r ungen
lÃ¤ ufig
ĠGes ell
c ience
G i
ie b
zel n
ĠJournal isten
wei ler
ĠC H
ĠK ing
ĠArbeitspl Ã¤tze
ĠIn sgesamt
be ll
ut n
ĠW it
Ġstaat liche
ĠMo dern
A CH
ĠErinner ung
Ġteil en
ĠIn f
ĠSchne ll
verband es
ert o
Ġ193 2
ĠSp enden
Ġm aps
ĠKonfl ikt
komm ission
Ġgegeben en
Ã¼ bt
Ġ7 00
g y
z elt
ĠCar ol
I F
ĠD VD
rin t
ĠSchw imm
ĠjÃ¼d ischen
ĠRoy al
Ġe e
rin ge
ober t
zeug nissen
ommer zie
ĠT rotz
ĠÂ ¡
gen Ã¶ss
ial en
ig ner
ĠBek Ã¤mpfung
ar ia
ĠSch uss
haus e
Ġbei ge
Ġer lebt
Ġbe geg
ĠW affe
ĠN och
Ġmaxim al
ĠWeiÃŁ en
ok us
h ers
ĠBil anz
Ġn ei
Ġan ger
se y
Ġamer ikanische
rit or
schlÃ¤ gen
sprach igen
ĠAuf grund
ĠLÃ¶ wen
ge legen
umm ern
Ġh Ã¶rt
te sten
ĠFrei en
ĠC lau
K T
Jahr e
sch ungen
ĠM uster
Ġn ehme
Ã¶ re
ĠB IP
ĠThe orie
akte ur
anz eigen
Ġin klusive
Ġbesch Ã¤ftig
li ver
ĠÃĦr zte
iede lt
Ġj o
lex ib
lin k
ass ungen
gr enz
ĠPo ts
ĠDienst leistungs
ĠJahr zehnten
ĠSch ritte
st ufe
ard in
Ġph ys
ant rÃ¤ge
ĠPf ar
Ġgef eiert
Ġe ure
EI CH
ĠProblem en
ĠGesetz es
h Ã¤ndler
g al
ĠStat es
men ge
Ġkurz er
D ok
Ġn atur
fahr zeug
ĠK im
Ġcal endar
Ġho ffen
Ġan geschlossen
ĠSo und
ĠAn bieter
b c
iz e
ĠGesprÃ¤ che
Ġed n
ĠFor um
F amil
ĠEr b
Ġruss ische
, -
ĠBed ien
l et
L ocation
Ġo k
Ã¤ ÃŁ
ĠUn i
ĠEr hÃ¶hung
ĠEreig nisse
ĠF assung
ĠB Ã¤ume
opp en
gel Ã¤nde
sen s
ĠP olit
ĠWelt meister
fÃ¼ llt
Ã¤tig ung
w ahr
Ġ9 9
ath ar
amer ikanische
ed ition
ĠL ib
ĠH ome
M eister
l uss
ĠC r
Ġauf gelÃ¶st
s icherheit
ĠE vent
]] >
que llen
Ġbestehen de
Ġl agen
ay ern
Ġerst reckt
ĠB ulgar
Ġc raw
ĠG ri
ĠK lage
Ġ6 2
ĠMittel n
ĠAngelegen heiten
folgen den
Ġfor dern
ĠNord westen
s berg
Ġd ne
Ġm et
Ġdem nach
Ġs u
de f
ĠT ank
ĠAllgemein en
Ġgleichnam igen
ĠWay back
ĠAntw orten
Ġan gen
T r
Ġf ung
B i
ĠÃ¤lte ste
h eil
Ã¼nd nis
Sep tember
Ġcraw led
Ġw Ã¤chst
Ġanerk annt
sch rau
le fon
Mich ael
ĠS ymbol
Ġ6 9
pf lege
h ab
st he
es a
D ien
Ġbet rieb
Ġge plan
ĠSon gs
Ġhoch wer
Ġa chten
F ilm
ĠKommun al
T our
Ġ7 7
ad or
eh le
Ġmensch lichen
Ã¼t t
Z war
ĠMain z
pol izei
ĠÃĦgyp ten
in ing
c as
Ġk rank
ĠRud olf
Ġmit ge
t hm
Ġp art
G u
ĠMa ÃŁe
ĠH orn
ĠBus iness
Ġkost et
ĠT sch
ĠDurch schnitt
m otor
Ã© e
ĠMar ch
ĠMen gen
ic ago
Ġgesch Ã¼tzt
ĠnatÃ¼r lichen
ĠEx istenz
Ġdes wegen
ĠEn sem
ungs ver
ĠFrieden s
Ã¤ llig
Ġop tim
s Ã¤tzen
od or
Ġkon st
ĠAb wehr
rei he
ĠDir ekt
ĠD ef
h ten
ĠGemeinsam en
Ġsp ann
o ÃŁen
is l
Ã¼l ern
ĠNord rhein
Ġk Ã¼mmern
ĠJahr z
iet ung
best and
bÃ¼r o
Ġp e
A mer
B au
ĠSp uren
sch reiben
enk orb
a iner
ĠHoch schul
ĠCo un
ĠMaterial ien
Ġbest immen
il itÃ¤t
Ã¼r mer
r or
auf t
ĠB ass
ĠL euten
ĠEl isabeth
ĠFrank furter
s d
kep tic
ĠVic tor
zep te
Ġbeh alten
m auer
Ġ7 8
M L
Ġan f
F alls
Ġman che
oren z
ĠVer wand
ĠSch atten
M al
und et
Ġk rÃ¤f
Ã¼ chte
ir ch
Fin anz
] =>
Ġge fl
l ar
ĠKat hol
r r
Ġkan ad
ĠS uch
ĠSÃ¼d osten
Ġstar tet
Ġehren amt
ls e
ĠR ab
ĠAn walt
ĠGegen stand
Ġinform ieren
Ġ6 7
Ġent f
ĠZ it
itu ationen
spann ung
og an
vers ion
gen er
ĠMark eting
ĠWÃ¤r me
Ġy e
Ġv ari
Ġb ill
Ġso fern
Ġschl imm
at ri
ĠVerteid igung
bÃ¼ cher
Ġf roh
er o
st reit
ĠW art
h eute
Ġunter st
ĠE M
K an
ĠBal kon
ĠA llerdings
ta x
v ar
is c
Ġbesser en
Ġit s
h auer
is ser
ĠAr mut
b ald
ĠBer Ã¼cksichtigung
ĠAn dr
ĠZ y
Ã¼t ten
199 3
ĠNational mannschaft
kr ise
Ġen ger
ĠzusÃ¤tz lichen
Ã º
Ġsich ern
med aille
ĠgefÃ¤hr lich
i ation
th ur
Ġver rÃ¼ckt
Ġexist iert
- )
ĠAb stieg
gesch windigkeit
ĠQuart al
** *
ĠM wSt
ĠW ende
ĠÃ¼brigen s
Z ug
ĠweiÃŁ en
at om
j an
sch Ã¤d
dem okrat
ĠBas el
Ġs k
Ġs ign
ĠDipl om
ĠH as
199 0
Ã£ o
w ann
Kl asse
ĠEr hebung
ack er
ĠR Ã¤ume
schnit tlich
Ġp o
ĠZen timeter
hol ung
M Ã¶
re al
ĠBer ichte
low en
ĠGe fÃ¼
l Ã¤nge
ĠHeraus forderungen
minister in
ke ten
ĠA achen
ĠEur ostat
199 2
A c
ĠÃ¼ber zeugen
ĠÃľber setzung
ĠS em
ĠF u
ĠBet roffen
ĠVor bild
ĠEl ement
ĠKo hlen
bo x
gen ossen
cht ung
ĠWeiter en
ĠÃ¤lter e
ĠfÃ¼nf ten
Ġbegr enzt
P P
Ġd ok
t al
ehl ungen
ĠQ ue
ĠM echan
ĠTemperatur en
ĠKapit Ã¤n
ĠAus stattung
ĠRumÃ¤n ien
Ġoffiz ielle
kti eren
Gemein sam
Ġaktiv en
ĠM ir
la v
ĠVerpflicht ung
ĠBem Ã¼hungen
ĠD ing
ĠVerein igung
Ġbe zahlt
s keptic
Z un
Ġa c
z gl
Ġleben d
D A
ost a
wander ung
Ġ8 6
sp rachen
W ann
ĠT ausende
St aat
Ġsicht bar
al it
ver d
ĠGem Ã¼se
ĠS atell
ĠE del
ĠBer ech
Ġange wand
gef unden
ĠT witter
iet y
et tel
ĠVerl etzungen
ĠMar ine
ĠAuf lage
umin ium
dre ht
Ġbeh err
Ġa pp
ss on
ĠG ust
hal ter
ĠHal te
ĠÂ §
+ +
ar if
Ġunter halb
amm ern
ĠMit tag
ĠAss oc
Ġerfolg reichen
ĠUrs ache
m orgen
Ġ19 25
kl ang
sph ase
k ette
mit h
ĠgegrÃ¼n deten
Ġ ten
Ġum ben
ĠSchne e
In ternational
ĠMuseum s
Ġrech nen
ĠSt rei
Ġfinanz iell
T H
at ien
ĠVerl Ã¤ngerung
Ġal tern
ĠKÃ¶nig in
Ġ- >
ien e
ĠForder ungen
ĠA partment
ĠH ab
ant ie
ard o
ke te
ĠE cke
ĠF DP
y k
ind ungs
w achsen
Ġb itten
K om
spl atz
Wir d
le ch
ĠN az
ĠBet racht
ĠSant a
ĠInstrum ente
Ġverlang t
ĠSti ft
o ter
ĠD ES
In s
rech nung
ian ischen
Ġverabschie det
Ġdurch s
ol er
off iz
Ġsch icken
sam t
Ġein fachen
lad ung
Ġabsol ut
ĠW esen
Ġe b
ĠMode lle
Ġchines ischen
Ġdurch ge
Ġ13 0
ĠT un
Inst itut
ĠG anz
p ut
ĠEin ige
f al
B S
Ġwo hnen
w itz
Ã¶ die
f els
a cken
Ġmit ten
k Ã¼ste
ĠH als
P ap
ĠG ouverne
fahr ten
Ġhin weg
Ġ7 9
Ġklein eren
ĠWeihn achten
ĠAs ien
ĠfÃ¼r s
Ġpro blem
F ried
Ġvorgesehen en
Ã¤um t
eta ill
ĠBei spiele
Ġh alt
g ische
ĠRo hr
ĠOr chester
Ġ à¸Ģ
ĠKon sequ
ver k
ĠFak ult
Ġgebe ten
ĠErz Ã¤hl
ĠK MU
z iel
Ġg olden
k andid
T a
ĠBe ste
ĠÃľber wachung
Ġ( ,
als cience
g ast
00 00
H inter
skeptic alscience
Ġberuf liche
Ġwie s
ĠT it
ĠSp iegel
Ġbeteil igten
ĠW Ã¤hler
ĠEnt fernung
Ġbas iert
ĠAb kommens
en g
ĠL ust
port al
wei ÃŁ
ĠUl rich
ĠEnt steh
yp en
Ġfinanz iert
K W
Ġs c
Ġreduz iert
ĠH allen
bet eil
ĠComp any
ges prÃ¤
Ġvor an
Ġschle chte
son sten
Ġabge geben
H ans
m ond
beh Ã¶rden
ĠOrt es
at iver
Ġl anger
ĠDis ziplin
Ã ļ
in iti
Ġda vor
op s
yp ages
H Ã¶
f ield
Ġ eu
d ing
Ġzeig ten
G R
ĠAmster dam
Ġ19 24
ĠAb lauf
E le
Ġa go
sam keit
aus stellung
il de
ron en
U RL
Ġgen annte
Ġjapan ischen
v es
D ienst
ĠB R
Ġex pl
ĠGrund satz
Ġz ogen
Ġgew al
Ġlie fer
ĠEr l
D ank
m ir
Ġm od
R at
ĠÃ¼ber prÃ¼
ĠAn aly
ĠGr Ã¼ndungs
ĠBra unschwei
ĠK rist
verb ot
Pro zent
ĠRÃ¼ck gang
eh in
Ġhol te
ĠOber flÃ¤che
ĠFrei will
te c
J ose
ĠPla st
g ier
Ġ rief
lieÃŁ en
lie b
s dorf
Ã© s
Sav ed
Ġgeplan te
ĠR al
ir bt
ĠIn halte
ĠRen ten
Jan uar
az if
ĠFilm s
F uÃŁball
ĠEurop ameister
Ġd ro
bil anz
ĠInst itute
ĠHin sicht
ĠV ik
schnit te
ĠAuss agen
Ġber aten
a a
ĠW agner
ĠHaus halte
ĠGet reide
O rt
ĠAuf sichts
ĠStaat sb
krieg s
ĠLand schafts
aust ausch
ĠDefin ition
Ġkein es
ĠH Ã¤nden
lie hen
akt or
i ra
ĠSen der
Ġlandwirtschaft lichen
Ġt rinken
ter ne
ach s
Ġm ul
Ġer lassen
W ieder
ĠBern hard
os a
ĠE R
Ġbeweg t
ĠAmts zeit
Ã «
ĠDar Ã¼ber
ĠS umme
ĠKont akte
on ne
Ger ade
ĠM Ã¤
p al
ig in
m Ã¼hle
ĠAll i
sp ur
ĠP S
ĠErk rank
J ugend
ĠÃ¼ber geben
ĠKo st
sp itze
ĠChamp ions
Ġ% )
sb ruck
ĠLe der
199 1
ĠJo achim
L esen
ĠP y
ot ter
Ġb reiten
Ġer lang
Ġtats Ã¤ch
ĠBet on
w ettbewerb
ĠTem pel
Ġb undes
ĠÃ¶rt lichen
ĠWar enkorb
our ce
e te
Ġ19 27
ĠÃľber blick
ĠhÃ¶ch st
ein kommen
fahr ts
Ġbegeister t
ĠNieders achsen
ĠT ob
ĠG riff
e o
Ã ª
is ation
A s
le bte
Ġst ation
ĠSch ild
ĠHÃ¶he punkt
ĠRelig ion
Ġsch en
tinu ier
ĠStÃ¤r ke
ĠSte phan
Ã¼st et
Ser ie
ĠEin fl
Ġd est
f rÃ¼
Ġ8 4
w es
ĠSau di
ag ra
arr iere
vorsitzen der
ĠNik ol
ent in
Ã¶r g
ĠF rist
Ġ19 10
ĠMin i
w ein
Ġmehr erer
tern et
ĠBer ater
ian er
ĠMed ik
Ġn ominiert
Ġger ufen
ĠAt hen
Ġwar tet
ĠUnabhÃ¤ng igkeit
ĠHen ry
io us
ĠAb sicht
ĠBr uch
eb el
ĠF eier
and al
ĠWer ken
fol gung
ĠHein z
Ġnotwend igen
ĠSp rech
r iel
b ein
Ġfeier te
ĠJer us
Ġj eg
ĠKo hl
ĠLi zenz
ĠGr em
ĠSchl uÃŁ
ĠD ownload
gew orfen
wohn ungen
ĠL atein
ĠfÃ¼hr enden
lich ten
ĠPro jekten
ĠV it
K at
Ġ7 1
ber at
Ġun mÃ¶glich
Ġden kt
ĠEngl ish
Ġ7 3
ĠZwe cke
ĠWei b
fÃ¤ llig
ragen de
in kl
un fall
ĠBei de
ĠA rab
ĠMar ien
P ort
Ġvorhanden en
ĠKin o
b Ã¶
Ġst re
alt h
Ġs uper
ĠSign al
fÃ¤ llt
ĠMar ie
ĠS ig
Ġpl atz
It alien
Ġer mor
Ġmel den
ĠOper ation
ĠGre en
Ġkon tinuier
Ġpol nischen
ĠL aw
n acht
w id
ons ult
am i
ri ften
Ġverst eht
Will st
Ġschaf ft
Ġbegann en
ĠAll tag
ĠstÃ¤d tischen
B E
ĠC y
hy thm
ĠAl fred
wor tet
ĠSchles wig
ĠGes ang
ĠEm il
ĠB ig
Ġs epar
ĠSch ach
ĠkÃ¼nd igte
ĠZ Ã¼ge
ĠÃ¼ber t
Ġge fahren
Ġ Ã¶stlichen
ber gen
H ome
ran ge
drÃ¼ck t
ĠUm stÃ¤nden
ĠBer ge
Ġview s
ĠSÃ¼d afrika
Ġunter gebracht
ĠAK P
ant ast
Fra uen
Ã¤u den
lin ger
ĠVorsitzen den
ĠMenschen rechte
ĠS T
ĠDok umente
ab et
ĠAuf nahmen
ĠZur Ã¼ck
our t
w endet
ĠK ok
un en
ĠKab in
ĠWe ber
ungs verfahren
Ġverw endeten
ĠCh in
Ġver Ã¤ndern
Ġangeb racht
B ad
B ra
Ġwieder holt
st eine
Ġaus gesch
j unkt
ĠZ e
ĠBo gen
ĠbenÃ¶ tigen
ĠT ick
ĠSchul den
ĠRat s
eich ert
Ġsch auen
ĠMinister prÃ¤sident
ĠB ein
Ġhier bei
ĠGebur ts
f g
ĠLes er
Ġbe auf
Ã¨ re
ĠEin tritt
sp olit
Ġk ommerzie
ĠKl ar
ver n
ĠCamp ing
ĠIniti ativen
Ġdun kel
ĠGer hard
ir o
ĠRegen sburg
en gl
ĠSch lei
Ġbeinhal tet
Ġge prÃ¼ft
Ġabgel ehnt
ĠUm bau
24 6
ĠF ab
Ġm ut
fÃ¼ llung
ĠAn wendungen
ator ium
Ġan schlieÃŁ
u i
s um
ĠRech nungs
uss ia
g ei
Ġn Ã¤chst
) -
Ã¼ bung
ekt ak
ĠHand y
K OM
ĠE mm
ver lag
Ġst ren
Ġer Ã¶ffnete
K Ã¶nig
B lei
t d
Ġst eiger
A lex
ĠMed ia
ab rÃ¼ck
ĠJes u
ĠJ Ã¤ger
Ġgew issen
EM EIN
Ġ19 23
e ed
ĠPrÃ¤sident in
ĠÃĩ Ã¡Ã
ĠR h
p lay
c er
ĠKomp osition
al o
ĠRa uch
laub nis
ĠF unk
ĠWachst ums
S ow
ĠAus sprache
sen de
Ġh Ã¤ngen
ĠRep ar
Ġb reite
Ġgest alten
ĠMann es
Ã¶ te
Ġp r
ĠTex as
ch tet
fr ont
ech tigkeit
ĠN utzen
Ġi en
k amp
Vor schlag
Ġd at
te ste
Ġbe zogen
ĠF an
Ġauf nehmen
ĠtÃ¼rk ischen
amen te
Ġk Ã¼nst
Ġspez iellen
Ġ18 0
Ġl ust
bet rag
ĠausdrÃ¼ck lich
Ġaus gesetzt
achst um
Ġd omin
ĠVert rieb
im p
Reg ion
stre cken
ĠPosition en
Ġinteress ant
Ġges amm
ĠMar y
ep rÃ¤sident
ĠGÃ¤ sten
ĠE ll
or o
ĠAr gentin
uf a
ĠGra mm
N L
ĠVer sch
Ġl og
Ã¤t te
ge stellten
Ġbe ur
Ġh andelte
ĠVer arbeitung
ack e
G ehen
Ġan bieten
ĠBau er
Ġis rael
Ġd Ã¼n
T itel
x x
Ġ1 01
................ ................
Ġo ver
m il
O C
ĠS endung
ĠR eh
ĠH allo
ar ma
ĠDreh buch
ĠVerb rechen
Ġent tÃ¤u
fan ter
ĠWelt krieges
ĠP ir
m eier
arb eitete
stechn ik
sen der
ap el
ĠStell vertreter
tre ffen
aus gaben
Ġ9 8
em an
Ġeurop Ã¤ischer
it ation
ĠVor sitz
in nung
atur en
ĠBron ze
ĠH ell
ĠInternational e
Apr il
T er
ĠBerichter statter
ĠG olden
ĠL ernen
Vers and
Ġbe achten
Ġ19 21
ĠverlÃ¤nger t
ul ierung
S en
ĠFrem d
ĠBe ll
ĠAnge la
Ġver haf
ĠK abel
Ġz us
itz ung
vor haben
ĠEr gÃ¤n
Ġlang frist
ĠD FB
Ġgew innt
ĠVerpflicht ungen
din and
Ġerfolg reiche
P ass
Ġver folgen
rÃ¤ der
Ġ193 1
as c
Ġro ten
ron ik
E F
Ã¶ z
S ei
A US
ĠI l
ĠAn lass
ĠW Ã¼n
ĠK oll
an dern
lo ser
Ġ steuer
ĠF onds
ul pt
op le
ĠP ra
ĠAltern ative
ĠMinister ium
ĠUmwelt schutz
ab geord
Jahrhund ert
ĠVert rÃ¤ge
geb oren
zentrum s
Ġe en
ĠSt Ã¼cke
ĠL ag
ĠKomm and
ĠKer l
Ġbesch rÃ¤nkt
J o
Ġn utzt
Ġvor wiegend
ĠfranzÃ¶s ischer
P erson
ĠBas ket
ĠWÃ¼r z
ĠlÃ¤nd lichen
Ã¤n omen
zus ehen
ĠWar e
Ġ9 1
ĠCh icago
st art
ser t
med izin
Ġ19 26
ĠR ub
ĠMag de
Ġh as
sch es
Ġzu geordnet
Ġvor liegenden
Ġnational er
kl assen
ĠPrin z
ĠGroÃŁ e
T or
il i
schl Ã¼sse
Ġdor tigen
ĠBr utt
S uper
bo ard
h es
L eben
Ġk re
ĠKa der
Ġnun mehr
Ġhier fÃ¼r
ĠFr ucht
ĠMotor rad
H a
as on
Ġaus gebaut
sp ezif
Ġerz ielen
ĠWe llen
ission en
Ġ7 4
ĠFor ts
Ġmittel alter
igt es
ĠK G
Ã¶pf e
wer fen
ĠB aut
Ãĩ Ã¡Ã
Rech ts
frei e
ĠEUR OP
Frank reich
Ġexist ieren
ĠDie t
Ã¶n t
Ġbest ritt
Ġf liegen
ĠO x
Ver d
ĠGe fahren
rich en
Ġviel mehr
sn abrÃ¼ck
Ġkl ingt
st Ã¤
Ġgef angen
ĠAlt ar
ucht ung
ath on
ĠauÃŁer gewÃ¶hn
ĠM id
B R
ĠOct ober
Ġverurs acht
Ġverh indert
bl ock
Gleich zeitig
ard a
Ġinternational er
ĠE W
Ġl eiten
Ġl ive
Ġder selben
ug ies
on i
Ġhal te
Â ³
od es
hen den
P lan
ES T
sch auen
ĠStadt rat
Ġf a
ĠEl f
n ie
Ġo st
ĠBes etzung
ĠZ auber
Ã¼ g
Ġvor liegen
ĠIS BN
Ġung laub
ĠKon tra
um er
ĠVerteid igungs
ĠW Ã¤l
Ġf amil
Ġman chen
Ġ9 4
strahl ung
Ġoffen e
Ġs erv
ĠK Ã¼n
Ġbes aÃŁ
ĠOn kel
Y ou
ĠOber st
ed och
ĠberÃ¼cksich tigen
ze ÃŁ
3 00
ĠSchick sal
ĠGr Ã¶ÃŁen
w affen
ĠE ast
ĠApp ar
L assen
Ġt our
Ġentwick elten
ĠT au
Ġun klar
W ind
Ġkein em
la ut
ĠK el
Ġselbst Ã¤nd
ĠMon ats
zu stand
ĠForder ung
Ġn ett
k rank
Ġkultur ellen
bo ot
Ġpro du
Ġbest Ã¤tigte
Ġschwar zen
Ġtot al
fen ster
Ġbei der
Ġh n
ĠV iele
ĠT en
rÃ¤ glich
Ġ19 12
k athol
ĠkÃ¼r zlich
ĠdÃ¼r ften
ĠBet reiber
ĠWer bung
ĠrÃ¶m ischen
Ġb aute
Ð °
Ġge zwungen
ĠE du
ren ten
ow a
ll te
D ezember
n or
Ġauf einander
ĠErwachsen en
ĠAkt ualisierung
Ġ8 2
k am
Ber icht
Ġ19 22
sc ar
reib ungen
c H
ĠB ob
m as
Ġd etaill
ru gen
iz ont
kont rolle
Ġirgend wie
ĵ Ãĩ
Ġmit teilte
ĠkÃ¶n ig
Ġans Ã¤ss
p at
Ġausgew Ã¤hlt
' t
ĠF ell
Ã ·
h ielt
nach mittag
Ã¶ h
Ġdok umen
l Ã¼ck
Ġbew ir
ĠInd ivid
Ġteil t
ĠSch Ã¼lern
Ġge folgt
ĠBr Ã¼cken
arch iv
ĠprÃ¤sen tieren
Ãļ Ãī
Ġ8 7
ĠFrem den
ĠM alt
ĠRis iken
Ġgesch ieht
her steller
b g
Ġbest anden
ĠSeeh ofer
ĠSp eicher
Ĥ Ã¤
ĠF ro
ĵÃĩ ÃļÃī
ĠÃĩÃ¡Ã ĤÃ¤
J edes
ÃĩÃ¡Ã ĵÃĩÃļÃī
ĠP ast
vor stand
p ass
ĠVerein ten
ĠWerk zeug
ĠNach folge
G ute
b our
ag te
Zun Ã¤chst
ing st
ĠRund funk
Ġch arakter
ari at
alb um
Ġsch ul
ĠBayer ischen
ĠFl ag
teil ungen
urch t
os se
m ung
Ġkl icken
Ġwen den
iv als
ĠDan eben
ĠTh u
ra hmen
Ġsicher lich
ĠRe alitÃ¤t
Ġbef ind
Ġwill kommen
ĠN ation
Ġgel assen
ĠbeschÃ¤d igt
Ġausges prochen
ĠBei hilfe
ack t
nach richten
P ark
Ġgeh ei
Ġeinge tragen
ĠW Ã¤hrung
ekt rum
ick te
ĠBahn strecke
Ġvoll kommen
id es
Ġer zeugt
Ġste ckt
Ġrel ev
Ġk enn
re gen
ĠHalb finale
ĠKre bs
Star tseite
ob el
ĠlÃ¤ ÃŁt
ĠF okus
fÃ¤ ll
rÃ¤ cht
Ġgemel det
Ġsch uld
ron d
ĠRhein land
Ġbelie b
Ġb rachten
O ffen
ĠfÃ¼hl t
F il
fil es
ĠZ ell
ĠBe ck
ĠW esent
Ġt raten
steuer ung
Ġerk annt
Ġeinge st
Ġverb ringen
ĠÃ¤lte sten
T abelle
Ġumben annt
St att
jahr en
Ġger iet
v oh
Ġerreich ten
wei chen
m acher
im eter
que lle
198 9
b h
bereich en
FF FF
Ġintegr iert
ĠDem onstr
ĠJ ens
Ġn d
f Ã¶rderung
bau ung
ĠLauf bahn
Ġ3 50
Ã¼ ben
ĠAus fÃ¼hrung
t irol
ehr er
d orfer
P aul
ĠEurop ean
Ġsamm eln
Gen eral
ĠK ard
Ġd ritt
ĠL ern
Ġausge wiesen
Ġer lauben
ĠL och
Ġschl afen
ĠIdent itÃ¤t
ĠL okal
Ġkl are
ĠBr emer
Ġange zeigt
Ġkon stru
ĠL iv
Ġniedr ig
Ġp opul
ĠSch al
ĠVerl etzung
Ġvert rat
Ġnoch mals
ĠB rie
ĠA ff
tra cht
Ġbes ei
ĠVer sammlung
n ur
ĠK alk
ĠStand punkt
ĠH yp
f ot
Ġkon serv
G eht
zÃ¤hl ung
fl Ã¼ge
b Ã¤
b eln
Ã¼n e
ĠO t
D am
en ce
ĠDu sche
ĠKon struktion
ĠOrt st
ĠR y
ĠN ick
ĠY o
ĠGÃ¶tt ingen
ĠT ok
Ġ% .
p erson
te gien
ol and
c an
zieh ungen
wert ungen
Ġdamal ige
ĠBasket ball
D ein
Ġger ingen
ĠgegrÃ¼n dete
stehen de
ĠSt an
Ġohn ehin
ĠR i
Ġst ehe
Ġm or
ĠC afÃ©
Ġb rach
ĠP ers
ĠOp tion
leg ungen
ĠKomment are
ĠEh emann
Nov ember
Ġin nen
sel n
ĠI C
Ġverst orben
ĠM Ã¼hl
famil ien
re geln
ĠTyp en
Ġein iges
D adurch
eil er
P G
Ġzwei er
Ġverb inden
ĠP ool
Eigen tlich
hoch schule
as zin
ĠR on
ĠKinder garten
ĠÃ ĥ
ĠBil dern
ĠArz nei
b al
e a
M A
Ġ ord
ĠSch icht
ĠMe ck
ein igt
as sten
Ġempf angen
Ġaktiv e
inst itut
u ens
k ischen
ĠUnivers itÃ¤ts
ĠKunst stoff
ĠAl uminium
ĠnatÃ¼r liche
Ġl ass
Ġv ierte
W ei
Z ul
r g
Ġverkauf te
ĠGegen teil
ĠTag ung
Sch ule
Wir k
Ġe chte
Ġent deck
te x
ĠB enz
verl etzung
Sch lag
Ġlie b
ĠStoff e
ĠWor kshop
ĠT ieren
Ġvor ange
u ben
ĠAuf takt
ĠBeteil igten
Ġres erv
Ġt schech
ĠMe yer
Ã¤nder ung
ĠQu ar
ĠV W
verteid iger
ĠVer st
geg nung
B ek
fin det
Ġgel ingt
ĠWelt meisterschaft
Hol stein
Ġ ~
Ġgem essen
m echan
ĠKommun en
An zeige
ĠHand ball
Ġthe oret
ĠDat um
st es
et he
P R
Ġj unger
Ġur kund
ĠV ari
ste uropa
ĠGesetz e
ugos law
Ġf u
ter e
Ġte uer
eid ung
ĠL ew
sk on
ĠT unnel
ĠDie ter
ab schluss
n chen
A h
kap elle
au schen
ik atoren
kon zept
ĠÃľ b
ĠH unde
form ance
Fra ktion
ĠGesch enk
ĠFranzÃ¶s isch
minist rat
enn y
ĠAr me
ĠGesch mack
ĠR ap
P a
H i
g ibt
eh er
ĠKl ang
ner s
frei en
Ġgenau e
B B
C om
Ġkon f
eben e
ĠK Ã¶n
s et
K omp
ai llen
Ġber ichten
ĠK ri
Ġnormal en
ĠVer teilung
Ġp ubl
n st
ĠE g
ĠEin igung
w echs
Ġsch wei
g asse
ĠChr isten
C ol
Ġs aÃŁ
ĠHam mer
Komm t
ĠBr ig
Ġv is
ĠOr ch
ĠSch all
Ġl atein
sprÃ¼n glich
ĠKom pl
ĠErzb ischof
ĠVide os
Ã¤tz ungen
au e
ges ichts
Ġstehen den
Ġschaf fte
lehr er
Ġb it
Ġheil igen
ĠSchw ein
Richt linie
minister iums
ik as
ar ts
ĠV om
ĠMich el
K arl
ck te
ĠAn zeige
z l
ĠPrÃ¤ sent
ĠRo stock
ĠDat eien
Ġvers etzt
Ġer richten
um pf
Ġr ichtet
Ġmittler e
gÃ¤ ste
t l
ĠFÃ¤h igkeit
K r
Ġverhaf tet
ĠS ens
prÃ¤sent anten
ĠSie ben
ĠH ex
k os
ĠSp rung
onom y
M il
Ġerk enn
ĠNachbar n
ĠAus zeichnung
ĠZeit ungen
Was ser
Ġsollte st
Ġ15 00
fer enzen
eich ern
ann a
Ġsp aren
Ġgek enn
Ġlok ale
p i
f eier
weis ungen
ĠÃ¼b lich
Ã¼r t
ĠIn fl
schie ÃŁen
K ommen
Ġangeb lich
A lt
Ġsah en
s ich
Ã¤ lt
ĠH ass
ĠSt eiger
ais er
ĠP in
ĠWeiter bildung
ĠTro cken
Ġl asse
ĠSch ieds
ĠEn ter
ĠKro atien
ĠKat astrop
op e
s ig
ĠB itte
Ġgew id
Ġsol ange
ĠOp ern
ĠK ilometern
fÃ¶rm ig
ĠO snabrÃ¼ck
k inder
mal er
aus schuÃŁ
ĠKn ochen
ĠAd olf
ĠPre uÃŁen
ĠBade zimmer
ĠAma te
Ġjeder zeit
ĠP el
Ġs eiten
ĠHeidel berg
se hr
Ġf ern
l esen
o ul
Ġarb eits
eiÃŁ en
ĠG ei
Ġgel ernt
regel ung
vÃ¶lker ung
Ġunter scheidet
ĠRec ords
ĠS ech
ĠAn ne
Ġlie fert
ĠspÃ¤ter e
O ktober
ĠC am
plan ung
an ie
ĠWahl kreis
ĠWirk lichkeit
ĠVarian te
re che
ĠE i
w ord
Ġbet reibt
Ġan halten
ay a
um e
gleich ung
ĠL or
ĠRuhe stand
ĠHel fer
sch aden
ep age
Ġo ut
wissenschaft ler
\ /
ĠFranz isk
utt on
Ġnach gewiesen
Ġw h
ĠSach ver
ĠAugen blick
ĠEx port
U T
Ġp hil
we llen
7 50
ĠBen ed
ĠAn f
Ġerf asst
teil ten
L Ã¤nder
at her
ĠEm p
k al
Nie mand
ĠJerus alem
Jul i
Ġb ar
bau te
schaf fung
Ġkonzentr ieren
ĠSp ark
Ġzu st
om er
etz e
ant a
ĠAb schied
amp e
ĠSp itz
spr ungs
ĠO liver
it o
om s
ĠH ut
ĠEmpf ehlung
ĠGrund lagen
US A
S ehen
âĢ ł
k anzler
ĠIhr es
iction ary
ag ert
JÃ¤hr iger
Ġverl iert
ĠNor mal
icht ung
wer bst
Ġ[ "
hol m
Ġh uman
ĠD ur
St unden
pl ant
Ġ8 3
Ġn en
Ġtran spor
Ġ19 13
Ġver grÃ¶ÃŁ
Kl ar
it ies
t urm
Ġver gangen
ĠT ipp
Ġle er
ĠN un
ĠLie bes
pfl anz
ĠWol fs
Ġverb rachte
ĠÃ¼ brig
ul ieren
ĠK urt
ech te
ĠverÃ¶ffentlich ten
Ġleich te
ĠP od
eim ar
ch or
Ġer stellen
Ġan fangs
ĠJuni oren
et on
Ġtra fen
ĠT rieb
ĠKategor ien
ĠT enden
Ġposit iven
O st
ĠS ul
Ġt iefer
Ġzeit weise
ĠSer ver
Ġ Ð
ĠBrun nen
rÃ¤n kung
Ġprofit ieren
Ġnach zu
Ġbe enden
Ġbesonder er
B uch
be ziehungen
an bul
ĠAp ost
ĠNor men
ĠMathemat ik
Ġt rag
haus halt
Ġengl ische
ĠW andel
Ġfunktion ieren
Ġa rab
Ġges ichert
far ben
schieden e
verein igung
P A
sa al
Ã¤ g
ĠSe en
Ġb Ã¼rger
ol en
Ġver schl
an ter
G ib
U F
Å ¾
ĠH arry
ber uf
gew al
ĠbestÃ¤ tigen
ĠVen edig
ĠPil ot
ak ten
Ġerg ab
ĠBÃ¼rger n
lich keits
ĠJac ob
Ġengag iert
ĠA dels
win kel
ĠSp iels
ell es
ĠVerein igte
ÃŃ n
Ġfest genommen
ĠR eiter
part ei
g ott
ge werbe
ĠD ynam
Ġ: :
ĠKan al
he ber
k Ã¶nig
ĠFakult Ã¤t
Ġz Ã¤hlte
ĠBran che
ĠBe frei
ĠSch e
ĠGrund schule
Ġd roht
ĠJun e
ĠB auch
Ġk Ã¤mpf
ĠLie b
ser n
ĠSch r
Al b
Ġverz ichten
. ;
ĠGeb Ã¤udes
ĠL ar
ĠThe ologie
cc ess
ĠG MT
ĠA tem
Ġ19 17
ik on
ĠSc ience
ĠPartner schaft
ken s
P C
ĠS he
V B
amt es
S u
ĠWelt cup
fer nen
Ġ9 00
ch o
ĠSpiel tag
em and
" ]=>
ak ademie
Ġs ad
ĠVerb ot
Ġbenach barten
ĠAbt eil
top ic
G uten
I EN
m utter
ĠTem po
ĠJ Ã¼n
Ġex per
W M
Ġaus sehen
" ?
Ir gend
ĠE ta
Ġso bald
ĠfrÃ¼ he
Ġbesch leun
ĠGegen wart
fÃ¼ g
Ġvor n
ĠRegel ungen
iss ement
Ä Ľ
Ã¤ch ter
Ġkeiner lei
ĠReg ister
oti v
An dre
ĠHo ckey
ĠEn er
verb Ã¤nde
ĠP ension
Trotz dem
Ġausger ichtet
ab len
An fang
ment s
Ġumfassen de
Ġj ung
pro zess
Ġber uh
ĠVor lage
ĠÃ¼berra scht
ĠQuadrat meter
Th omas
ĠIngen ieur
ĠVer tretern
Ġsp Ã¤testens
ot ball
Ġschle chter
vorsitzen de
Dien stag
Ġgelegen tlich
ĠPo wer
on ia
Ġd icht
Ġnormal erweise
Ġgem Ã¼t
ĠBundest ag
ĠzurÃ¼ck zufÃ¼hren
Ġgest artet
Ġr t
rik t
prÃ¤ sen
Ġaus reichen
Ġbef Ã¶rdert
Ġger ettet
ĠSch lÃ¤
ĠSt ationen
ĠPfer d
m l
Ġport ugies
ĠK ell
ĠDaten schutz
ĠTrans fer
ho tel
ĠS ak
ĠD ichter
ĠPrem iere
h Ã¶rt
D S
Ġzeit genÃ¶ss
R F
Ġr n
Ġsie hst
imen te
ĠN S
ÃŁ er
ĠBedÃ¼rf nisse
ĠKomm issar
p Ã¤ck
Ġent decken
w ork
ĠSter ne
U M
ĠLe op
ĠSoc iety
haupt stadt
# #
Ġger inge
ĠMo un
ĠFrancis co
ĠEx pl
f indung
L u
ĠSe c
an gel
ĠBef ehl
Ġ16 0
ĠEigent um
ĠÃ ī
d ungs
ven tionen
ĠauÃŁer orden
sen dung
ĠBet reuung
Gen er
ĠBra un
Sch wei
ĠT own
ĠD J
Ġex tra
ĠIn se
we be
ĠÃ¼berprÃ¼ fen
Ġerrich tete
Ġmon at
ĠP anzer
ev in
ĠHer bert
ĠBel e
Ġeinfach er
ber ge
ĠEnt schlieÃŁung
ĠW irt
ĠUntersuch ungs
Ġsch uf
ogra mm
ĠAd am
y nt
tax onomy
ĠBern d
ĠB lei
ĠE ber
Ġreag ieren
Ġherr scht
ĠM icro
st reifen
P at
Ġad s
ĠSen at
ut sch
ĠHel mut
b anken
aut or
Ġl iter
ĠbegrÃ¼ ÃŁt
ĠE v
Â ¶
ĠMittel feld
ĠZahl ung
Ġ9 7
an alyse
o den
Ġer teilt
ĠH aust
ĠD IE
ĠN RW
ĠBot schafter
Ġan lÃ¤sslich
Ġw on
Â ´
Ġgesch Ã¤tzt
Ġsinn voll
ĠVer pack
ur y
R a
k amer
ĠK ub
ĠPat rick
ĠÃ¼berra schend
Mart in
p n
A dresse
Ġr ichten
Ġgelegen e
enk ung
Ġs n
ĠComm un
bar es
S n
F ast
ĠL ob
P hil
ĠN ap
be vÃ¶lkerung
err y
In halt
Ġaufge hoben
ffe kte
ĠRed aktion
ĠVer n
ĠA cker
G ar
athar ina
ell o
ĠGener ald
best immungen
Ver Ã¶ffentlich
Ġschwar ze
Ã °
c il
Ġe ur
ĠM ah
ec tor
t um
ha i
Ã¼hr ung
l ein
ĠTages ordnung
u ver
Ġ Ä
ĠWirtschafts gemeinschaft
L ang
ĠBe fra
ĠMisch ung
h Ã¼ter
stÃ¤d ter
Ġst immen
pl Ã¤tzen
c ar
urop Ã¤ischen
er ten
Ġsch einen
ĠAb bau
Ġ14 0
ĠSch eiÃŁe
it as
E ner
Ġgeb unden
Ġres ul
beh andlung
ĠJur y
al teten
Ġd eb
ĠRes pekt
Ġnieder lÃ¤ndischen
Ġl ernte
ĠC ann
Ġm ore
Ġ19 05
Ġmehr mals
ĠL as
Ġ19 11
es n
ov ic
ĠHand lung
F ern
Ġrest aur
Ġsch ied
R Ã¼ck
ĠF utter
ĠFuÃŁ gÃ¤nger
ĠTÃ¼r en
press ion
Ġkosten lose
ĠT rink
ĠOb wohl
s ache
gl Ã¼ck
sp reis
olog ien
Ġbet rÃ¤cht
Ġf jo
so ft
Ã¤f te
ĠHand werk
ĠPl attform
Ġverschw unden
g Ã¼ter
gra f
k la
d rucken
War te
SCH AF
ĠgroÃŁ em
y wood
spro du
ĠGem Ã¤lde
Ġg renz
ĠR io
g lei
ĠInn sbruck
ic c
Ġhier her
ĠAug sburg
ĠKoordin ierung
Ġge leitet
O T
ĠBran chen
ic t
Ġpolit ischer
C omp
ĠG alerie
ĠAuto fahrer
ĠFrÃ¼ hl
Ġver wei
ĠK alender
urf Ã¼r
Ġbelie bt
ĠAb schluÃŁ
Ġzu lÃ¤ss
s orge
kl en
ĠAc adem
Ġa bend
Ġw omit
ĠK eine
ĠKind es
ist a
Welt meisterschaft
d ia
ĠRegion all
Ġschne lle
az ier
K ultur
ĠSan kt
G L
ĠhÃ¤uf iger
ĠVor feld
de hn
Ġ3 000
ĠKrimin al
ĠgewÃ¤hr leistet
Ġkor re
ĠG au
T ats
ĠG all
rans fer
ĠBeit ritt
ĠErwart ungen
Ġ18 60
ĠD M
Ġverb rei
Ġgere gelt
Ġent schuld
ĠVoraus setzung
Ġver stÃ¤nd
reich ung
Ġbedeuten de
ĠNahr ungsmittel
ĠS ektoren
ĠAssoc iation
ver y
ĠGet rÃ¤nke
Ġbeh andeln
am ik
de b
ĠZ ehn
ig an
Zur Ã¼ck
ĠK ie
ĠThÃ¼r ingen
ĠÃľber leben
198 8
Europ Ã¤ische
am eter
ĠMerk male
grÃ¼n den
ĠFranz osen
ĠA kten
Ġber echnet
ĠLand wir
W h
lei hung
ĠSol ar
ich e
ĠNeu er
Ġer setzen
N o
Ġs amt
B as
g ru
ĠstÃ¤r ken
atz e
kur se
ĠSt ufe
Soll te
an ia
Ãľ R
ĠArchite kt
ĠDaten bank
ĠFlor ian
Ã¤ le
ĠTr ennung
ĠRÃ¼ck tritt
j s
ĠAgen tur
ĠF rie
ĠJul y
Ġf eiert
Ġfal sche
ĠGes ellschaften
i Äĩ
ĠKu pfer
ĠDarm stadt
T o
ĠB MW
Ġgel esen
ĠVerkauf s
ĠFuÃŁball spieler
ĠAn meldung
Ġer zeugen
Am ts
sb aden
Ã© n
Ġsag ten
ĠL iss
Ġaust ral
ĠBer gen
Ġab out
ĠV in
ĠMa ur
d ictionary
ĠVort rag
Å «
ĠFebruar y
w Ã¼n
junkt ur
ĠCo ach
ĠFer dinand
Ġkonk rete
Fl ug
Ġt n
verein bar
ĠInvest oren
ute te
ĠF eb
ĠEinkauf s
Ġgaran tiert
ĠOr den
w ell
ĠProf il
hor st
Ġbe zug
ĠBuch ung
ĠBegr Ã¼ndung
S al
p unkten
ab y
t schafts
Ġj etz
ĠHin dern
ĠGust av
ĠLok omoti
ĠF itness
halt ungs
Je de
R ed
us h
Ġschwed ischen
ich en
ĠKonzer te
Ġe bt
Ġd ram
ri an
ab schnitt
N E
kl agt
Sie h
Ġd n
el or
ĠMann schafts
ĠH em
gehen de
Ġe ffiz
Ġerheb liche
Ġf ried
ĠVer handlung
ab on
ĠZahl ungs
Ġverst arb
ĠFortsch ritt
atur day
ĠFil men
w all
op ol
im ir
ĠE hre
ĠErwachsen e
Ġliegen den
verb indung
Ġstellvertreten der
ĠK ult
ĠH uman
n ational
ĠIn haber
ĠSzen en
ĠMar gar
ik at
le cht
Ġzu verlÃ¤ss
euer ung
ahn sinn
ĠPlan eten
Ġscheiter te
G ef
is men
ĠV e
Ġg rat
staat s
ĠMin eral
ig hl
I d
ĠAb fall
Ð ¾
Wil helm
F ir
B L
Ġmein st
ab or
ĠPfarr kirche
per ten
Ġ19 07
ĠVf B
Ġviel es
ĠAn wendungs
ĠKarls ruhe
ĠKon d
ti scher
ĠB eine
ĠE IB
Ġn ov
ĠEntsteh ung
ĠerlÃ¤uter t
krÃ¤ f
spro chen
Ġbevor zu
stell ers
meld ungen
Ġtradition elle
ĠBundes wehr
ĠMan uel
ur i
ĠEn kel
L auf
Ġgeb oten
Ġbet ra
ĠZ ut
ĠSÃ¼d deutsche
p ert
Ġf ach
ver hÃ¤ltnis
S F
ob ald
ĠFel ix
ĠAus richtung
Ġselbst verstÃ¤ndlich
Ġreag iert
ĠSmart ph
Ġd oppel
Ġin e
Etw a
K Ã¶nnen
ĠEmpf ehlungen
ĠRo ute
ĠAuseinander setzung
F erien
ĠM ike
us k
ĠSchm uck
ĠG n
ĠAus stellungen
ĠBe gegnung
ur as
ĠEr haltung
ĠP ed
ĠÃ¶sterreich ische
A K
her stellung
ĠKu gel
A k
p os
ĠVf L
ĠRes iden
Ġfest stellen
g han
acht eil
Ã¼ cher
op fer
ĠPots dam
ĠberÃ¼hm ten
ĠT iefe
geb iets
ĠKomp onenten
ĠO ze
ĠMon te
ĠÃ¼b lichen
ĠK rei
ĠH Ã¼gel
ĠDisk rimin
Ġdrei mal
ĠD igit
herr schaft
Besch reibung
ru e
ĠEreig nis
stud ium
Sch au
ĠmÃ¶ gen
ath an
Ġko ordin
Ġbeg leiten
ĠEin t
ĠG reg
ĠOber bÃ¼rgermeister
ĠHaar e
Ġfr isch
st Ã¤tigkeit
Ġr uft
Ġp reis
Ġeinst imm
mÃ¤ ler
Ġum zu
ĠR uhr
Ġm Ã¼
ot her
Ġz zgl
Ġmei stens
gr unde
F Ã¼nf
x it
es h
Ġr ufen
ĠT herapie
Ġ- ,
Ge org
ĠS mith
P al
Ġstatt dessen
park s
Ġein setzen
Ġein ges
ĠBar bara
ie ber
Ġsonst igen
ĠbegrÃ¼n det
enn er
l Ã¶sen
Ġhier zu
Ġf lex
Ã¤nder ungen
z em
ĠInstall ation
z oll
ĠSchwar zw
ĠProjekt s
ĠSt reifen
Ã¤ cht
Ġel eg
rit ter
folger ungen
at sch
U l
amm ten
ĠMet rop
ĠKÃ¼nst lern
ĠBe stellung
Ġf ielen
Ġunter nehmen
Ã¤m mer
ĠAd vent
ĠBe ach
Ġbe qu
ĠSp ar
ĠAb sch
Ãĸ sterreich
zess in
ĠursprÃ¼n gliche
ĠVor stellungen
H alt
al ia
sam en
jahr e
mm t
ĠO hr
P ri
ĠAufent halts
ĠFa vor
ĠS av
Ġs ymbol
Ġantw or
Ġl as
ĠKass el
Ġl ux
ĠSch riften
ĠHalb zeit
Ġh Ã¼b
Ġver br
ob te
ah ls
zeit raum
auf nahmen
ĠDeut scher
ĠVers icher
ĠVeranst altungs
l aus
So zial
u ay
Ġbet rachten
zeug nis
ĠBraunschwei g
Ġverf asste
ĠBerat ungs
bereit ungen
r em
ĠMerc edes
ĠSol idar
w Ã¶rter
Ġbeeinfl usst
Ġschwer er
reng ungen
IN G
ago ge
arbeit ungs
f st
Mar kt
ĠO d
ĠUnter lagen
Ġs da
ĠW ach
amp en
Ġas d
ĠPar ad
Ġgewid met
stell ern
F e
k ind
Ġzusammen gef
ler nen
Ġum welt
ĠLa ke
ul ver
Ġ19 08
ver halten
ad bach
Ã¶ konom
me te
bes itzer
Ġgelten den
ĠIn fanter
ĠOlymp ia
Der zeit
as a
Ġfe sten
A u
Ġw ipe
ĠÃ¼ber ein
Ġkrie gen
emen ten
k re
ĠSek und
ĠT ay
Ġl ande
ĠLin z
ĠL kw
rÃ¤ te
Ġbef anden
Ġin spir
ĠK anz
Ġzu grunde
ĠlÃ¶ ste
Ġschle chten
olog ischer
sb est
âĸ ł
Ġd sa
Ġk alt
A ss
AS S
Ġseiten s
Ġhal ben
ĠVerfÃ¼ g
Ġbegr enz
ĠHÃ¶ lle
ĠW C
Ġwer fen
Ġinst itution
ĠÃ¶ konom
ĠCor por
V ielen
T P
Ġd ynam
ĠK y
ĠKl Ã¤ger
Ġbed roht
F ebruar
ĠKon rad
Ġverbunden en
ĠS oph
ĠkÃ¼nf tigen
Ġverw irk
Ġm ont
ĠHand lungs
Ã¶ lle
per iode
A gen
ĠAust ral
Ġz entral
ĠC oll
E K
ĠSk ulpt
i u
Ġkathol ische
B ern
Man chmal
recht lichen
Ã¤ den
ech ten
ĠTab ak
rond issement
ĠP ho
j amin
schen den
ĠArbeits krÃ¤fte
ĠhÃ¶r te
ĠTel ef
ĠDurch schnitts
ĠF eind
ĠÂ ·
ĠBundest ags
p ause
ĠAl p
ĠH aw
Ġkultur elle
Ġk lin
ĠC ob
ĠMehr wert
ĠGew inner
ĠWer be
beg r
ĠG ute
ĠR ent
ĠBew usstsein
ĠVereinbar ungen
j on
sch ild
iver y
aus gabe
ĠbeschÃ¤f tigen
wer bung
geb irge
Ġver mitteln
ĠPhys ik
ĠV el
ĠK um
Ġaufge geben
Ġangep asst
eg ung
r l
Ġv olle
H ab
ĠÃľber sicht
zen s
Ġtra ur
Ġwenig stens
alis ieren
K ur
or p
uk le
ĠWohn zimmer
stra tegie
z ungen
ur laub
ĠM asse
last ung
ver arbeitung
ĠB ibel
g f
ĠY or
ec ial
Ġa v
ĠKron e
ĠL ange
r ien
ĠBesuch ern
ĠKol on
ĠJanuar y
Ġsol ches
Ġeben da
Ġumfang reiche
Ġpro test
bet riebe
ĠZug riff
ĠK en
c omm
ĠgenÃ¼ gend
ĠT Ã¼b
mÃ¤r kte
Ġin ne
et o
ĠS her
Ġmaxim ale
ich tigen
g Ã¤ngen
ĠLiefer ung
ber ater
p rÃ¤sidenten
ĠK und
Ġ est
n ieder
ĠA tt
ĠKom prom
Ġf ein
Ġgel Ã¶st
y o
ĠVertra ges
Ġver kehr
b ayer
Ġvor erst
ge halt
ieÃŁ t
spar enz
ĠP okal
schiff e
Ġzum eist
ĠGesch w
ĠEnt schlieÃŁ
pap ier
ĠSt aub
Ġgegebenen falls
Be vor
Ġkompl ette
Ġinstall iert
ru p
B eh
Ġermor det
ĠS aar
rÃ¼ ger
ĠJ ord
ĠBerech nung
Fried rich
c le
Land es
ĠGewerk schaften
Ġ Ã¶ffnet
Son st
Ġfra gt
ĠBro w
ote ls
ĠAndre a
Vor sitzen
w oche
gew inn
ĠE ffizienz
ĠSo zi
ald o
ĠInter ess
os h
ĠL ein
ĠCh a
k es
ĠMÃ¤r kte
ĠKomm ando
ĠÃĦr ger
bl er
MÃ¼n chen
l uft
Ġge liefert
Ġdiver se
ĠKlei dung
Ġvon einander
ÄĤ Å
ĠMÃ¶ bel
) )
ĠTelek ommun
ĠAt lan
h b
ĠG rupp
p le
Ġmensch liche
se ud
âĢľ ).
E CH
z ige
v ort
yp ern
ĠB atter
sprech ung
ĠV ar
Ġc ool
Ġverd ammt
Ġober halb
Ġm ti
b rech
ĠAll es
ĠH Ã¤ndler
Ġbet reut
ĠZul assung
ĠAben teuer
Bis her
ĠVer stÃ¤r
Europ a
art a
staat lichen
der t
zie her
ĠKon text
ĠSchÃ¶n heit
Ġbef est
Ġc l
ĠAn kunft
Ġveranst altet
t licher
k ow
et ti
ĠFahr zeugen
ĠerhÃ¶ hte
ĠMeck lenburg
Ġbe z
ĠOr ien
Ġei s
be zeichnung
auf gaben
Ġf assen
ĠA C
ĠRes ult
K unst
Ġs etzten
Ġw a
Ġbe eintrÃ¤ch
ĠZ DF
Ġit m
Ġhoff t
ĠTÃ¶ chter
Ġbe stellt
Ġbeh er
ĠlÃ¤nger e
Ġim t
oti schen
ĠÃĦ hn
im me
ĠW ettbe
N etz
ĠF Ã¤hr
spro blem
ĠHit ler
ĠMan gel
ĠMann heim
Ġerforder t
ĠProf ess
glie dern
ĠR ay
ĠC osta
Ab kommen
W erk
Ġt mi
D enk
ĠS CH
ĠH aupts
ĠMar co
be ziehung
Ã¤d t
ĠSk la
ĠFre e
ĠMagde burg
Ġvoll stÃ¤ndige
H am
r uss
Arb eit
Ã¼t tel
tem ents
Ġleist ungs
ĠIst anbul
ĠKommun ikations
Ġletzt es
ĠergÃ¤n zen
A V
ĠL Ã¤rm
F ree
ĠK am
Ġn t
ĠÃ Ĺ
Ġberu ht
Ã¼tz ten
ap est
mÃ¤ ss
Ġwon ach
ĠprÃ¤ z
ĠAb b
gehen den
ĠKompon ist
Wirk lich
ĠAll gemeine
Ġheraus gegeben
ĠEr stellung
ĠV ieh
Ġ19 06
Ġg n
e arch
ĠStandard s
Ġmut maÃŁ
ĠUr sprungs
Ġ( âĢł
ĠM aus
v ard
âĢĶ âĢĶ
ĠG uten
l og
Ġren ov
ĠEin tracht
ĠT Ã¤n
ĠF err
ver tra
ĠBuchst abe
M y
it iv
w affe
on ischen
ĠSÃ¼ ÃŁ
er b
ĠMan fred
ok ol
ĠTo il
w achstum
Ġsag st
ĠrÃ¶m isch
w ende
Ġumf asste
Ġgeboren e
Ġsch reck
ÃĦ ISCH
hol d
fach e
Ġseit her
ĠPro ben
ĠAud i
ĠPal Ã¤st
ĠBÃ¼ ch
ĠPl us
ich tigt
Ġvor lÃ¤uf
Ġb at
ĠL am
ĠR unden
Ġis lam
ĠErn Ã¤hrung
Ġtran s
ĠEp is
Ġverw endete
ĠÃĦ uÃŁer
Ġspezif ischen
et rie
Ġin fo
ĠWin kel
Ġ ..
h art
Ġrecht zeitig
ĠO scar
Ges ellschaft
Ġimmer hin
D ate
ĠStraÃŁen bahn
j ak
ĠmilitÃ¤r ischen
ĠRo se
ĠAr rondissement
ĠWissen schaften
Ġ ll
de d
ĠFl ach
ĠZ ub
re y
Ġ5 000
a al
Ġgest ohlen
Ġfertig gestellt
ĠV I
Ġwesent liche
ĠD ame
ge gn
Ġnach ge
Ġabger issen
ĠVers and
re at
bet ten
ĠGeschle cht
ĠN oten
ph y
ĠAsp ekt
Ġye ars
en ke
s iv
ĠFahr bahn
Ġfrag te
Ġverschw inden
H otels
ang aben
gleich en
Ġent worfen
Ġzusammen ge
ĠErd be
ĠRo ad
ĠÃĦ m
ĠAb weich
ĠM ahl
Ġto lle
Ġeinz us
ĠDiskuss ionen
ĠH alt
gem acht
ĠH eb
d io
Ġgekenn zeichnet
ĠHel m
ĠFin al
rÃ¼ck e
198 7
d ner
Ġerk ennt
ĠGeheim nis
Ġjem als
Wer te
t an
ĠGener ationen
' ,
O G
o gt
ur l
ĠImm un
Ġbeauf tragt
ĠM all
le hre
ger echnet
mÃ¤ h
ĠT ue
ĠGra z
he dr
ĠNahr ung
klÃ¤r ungen
ĠBet ten
Ġbesch loss
Ġu p
Ġan n
ĠEr zeugung
G ibt
ie hlt
ĠH andeln
yd ro
ann i
k rie
Ġem otion
ehr ten
Ġfre ue
ĠH av
D eine
veranst altungen
A ust
Ġt ue
ĠKon serv
ĠC op
P Ãĸ
w etter
An schlieÃŁend
Ġb reiter
Ġsch ien
ĠFinanz en
ĠAn dere
Ġgren zt
Ġgeb raucht
ir chen
K L
ak es
ĠSchw eine
Ġzeich net
ronom ie
Die sen
ĠFl Ã¼ss
h armon
Ġstatt f
verl ust
ĠIn telligen
ĠWahl kampf
ĠDi mension
ar g
Ġdurch schnittlich
ĠZ Ã¤
val u
Ġgesch ah
b v
ĠI P
ĠSÃ¤nger in
ĠFinanz ierungs
ĠP av
ĠG ames
Ġam tieren
denk mal
ĠNeu es
ĠZ iels
l ohn
wer ker
Ġh armon
ĠKais ers
ĠGlo cken
liefer ung
is er
Ġgel b
Ġunters uchen
s se
ĠBl og
Ġst irbt
ĠStra hl
ĠKind heit
ell i
Ġbew aff
ĠV i
gl as
ĠN erven
ĠjÃ¤hr lichen
verk usen
Ġpl ant
Ġa fr
ek ul
ĠJ oe
ĠL angen
P e
M ax
ĠF usion
ĠErwerb s
ĠD igital
o ffen
Sti ftung
fahr ung
ĠBulgar ien
Ġh ielten
ĠPar tien
Ġbe weisen
techn ologie
Ġe fo
k Ã¼
Ġt u
ĠM ama
z ungs
is emit
ĠD R
nehm ung
ho fer
Ġkonzentr iert
Ġen ge
ĠD ritten
ad i
ĠC ru
ver mÃ¶gen
Ġsonst ige
Ġbelie bte
ĠBeit ritts
ĠDec ember
ĠB aur
ĠDÃ¶r fer
ĠBeruf ung
ite e
ĠAn bau
ert al
Ġeigen tlichen
An gesichts
Vers ion
ĠSk y
ĠSt att
ĠAlex and
Ġbeteil igen
Ġ19 15
ĠVeranst alter
ĠGe pÃ¤ck
ĠSpiel ern
ĠMail and
Ġfal schen
Ġzu zu
ĠSti ll
Ġte lefon
bran che
ĠEin en
Ġein sch
ĠB our
ĠSch lieÃŁ
ĠÃľber gangs
im al
Ġge leistet
sch Ã¼tzen
ĠSch ott
ĠR iv
re de
fir ma
Ġregistr iert
ĠM ist
W ert
ĠW eimar
ĠArch Ã¤
ĠInter pret
ĠÃľber prÃ¼fung
Ġein ver
ĠgÃ¼nst ig
ĠSport ler
ĠV iol
ĠVers orgungs
ot al
Ġf lo
Ġs ingen
Ph one
ĠI M
ĠG lÃ¤ub
Ã¼n dete
Ġern euert
ĠG rill
ĠJahrz ehnte
ĠAuÃŁen minister
ent um
Ġkontroll iert
ĠSemin ar
Ġth emat
Ġ ÃŁ
Ein zel
verstÃ¤nd nis
h au
j Ã¤ger
ĠGen ossen
lei h
ma te
sto ÃŁen
Ġst et
ĠIn dex
Ġdest o
Ãĸ ff
ĠWh ite
Ġge dreht
Ġr et
ator in
fe ktion
ĠN ull
ist et
Ġzweit es
Ġlie bt
ad es
ĠZentr alb
ĠSchwar zen
zÃ¼ gen
bild ungen
Ã¤nder ten
ĠweiÃŁ e
ĠSt abilitÃ¤t
ĠAm b
Ã¤ftig ung
A ir
ĠFlÃ¼cht lings
sch Ã¼ler
F erner
c fs
v gl
Ġverteid igen
w l
ein richtung
ĠT rum
ĠE ro
on st
In ternet
ĠTe e
ĠEnsem ble
ĠFrÃ¼ chte
ĠUm frage
ĠB ft
ĠEurop e
gen den
ĠHeraus geber
ĠM om
ĠLiss abon
ge fÃ¼hl
Ver kehr
UN D
se a
s burger
Ġr oman
z iele
ĠH aup
a iss
Ġf Ã¼hle
ĠWesent lichen
n Ã¶
ĠHalb insel
ĠBrit ish
Ġli ber
Ġwir ft
hÃ¶ fe
ĠViz eprÃ¤sident
ĠPro be
ĠEG KS
in vest
ĠEin ladung
ĠMobil itÃ¤t
Lei der
ĠwÃ¼r d
ĠAbgeord neter
ĠKÃ¼ chen
ant es
ĠAss istent
Ġum gebaut
ĠGrund e
Ġkon zip
Ġ19 09
sprach ige
s ieg
er l
ĠS lowen
In ner
ĠMa jor
ĠVorder grund
Ġauf gew
Ġaufge teilt
Ġanges prochen
as ien
Deut sche
ed y
H ar
m esse
ĠKÃ¼hl schrank
form at
ĠInstitut s
ĠSp r
il en
-- --
f v
ĠBer ichts
6 00
ĠP kw
ĠÃľber tragung
Stand ard
ĠParis er
Ġirgend wo
N ext
ĠVer g
Ġirgend wann
Ġhoh em
ĠjÃ¤hr liche
ĠVers uche
ĠGouverne ur
Ġbe ster
lin es
V ideo
ĠVer kÃ¤
Ġ19 04
Ġ Ã¤ndert
es ien
ĠSchiff s
M el
ĠAn liegen
ĠCo de
Ġen or
Ġk irch
ĠPh Ã¤nomen
o fen
fin der
wirk lichung
ĠA x
s ucht
ĠBor ussia
Ġhei raten
ĠÃ¼ber prÃ¼ft
Ġschw ach
or i
ĠLeit linien
ĠJournal ist
ĠP R
la uch
ĠAcadem y
aus en
Ġbet reiben
an det
A uÃŁer
ĠâĢ Ł
ĠM oh
ĠE th
leit ungen
Akt ualisiert
ĠLe e
ĠArgentin ien
ĠEr ster
Ġgenehm igt
Ġbest ehend
âĢľ "
Politik er
ug o
Ġverb indlich
ĠJ ugoslaw
bar g
Ġor gan
Ġwar te
b anner
Ġzerst Ã¶r
est ra
Christ ian
bas is
men gen
Ġbayer ischen
ĠD adurch
pro jekte
Gesch Ã¤fts
w d
stag s
ru st
z ucht
Ġgrenz Ã¼ber
ĠRÃ¶ mer
Ġglob alen
ĠWÃ¼rz burg
ĠSchw estern
ager ung
A Z
ĠP ek
wach s
ĠB Ã¼ndnis
ĠÃ¼ fr
B al
Ġl Ã¤dt
Ġkurz em
ĠG R
LAN D
ĠS und
ĠBened ikt
v as
K irche
ĠR ass
le ten
G H
ĠC orn
Ġgesellschaft lichen
tr y
ĠR ande
Ġerleich tern
R ock
Ġpromov iert
ĠP red
ÃŃ a
Ġer fuhr
Ġ reisen
UNG S
ĠUnter haltung
p orte
ĠÃ¤hn lichen
Ġhin gewiesen
Ġgesamm elt
f ranken
o i
eil t
Ġn r
Ġar g
st eig
ĠA th
polit ischen
utn ant
w ider
ĠEin haltung
od a
Men schen
ĠStra fe
j m
ĠStÃ¤r kung
sb et
W ahl
it le
ĠJ ena
ĠK lin
schrau ber
W ichtig
ĠÃľberra schung
n iveau
Ind ustrie
Ġausgeb ildet
ĠB ast
Ġverd ienen
Ġhal be
ĠEben en
ĠWie sbaden
Ġan spruchs
Ġr fÃ¼
word press
H eim
ĠKÃ¼n ste
is ierungs
hen de
AL L
Ġsp rachen
ĠZusammen setzung
ĠWur zeln
pfl anzen
ĠM eilen
ĠEner gien
be c
ĠÃ¼ber legen
ĠpreuÃŁ ischen
or es
ĠM es
ĠV ul
Ġ Ã¼rf
ĠSp ir
ĠBe cken
ĠAnton io
ĠverfÃ¼g baren
schÃ¶pf ung
R est
alt ar
ro hung
ĠKn ie
Ġinvest iert
ey er
r und
ĠAr ts
fÃ¼hr erin
ĠEinfuhr en
ĠApp le
ĠS amen
ĠMig ration
min e
T O
ov o
K osten
ĠdÃ¤n ischen
Ġwunder schÃ¶n
ub s
ĠD sch
Ġent scheidet
Ġange griffen
ĠVer dacht
ĠAf ghan
ĠunterstÃ¼t zte
ĠF ord
1 01
ĠPlast ik
ĠRes earch
v id
Ġunterrich tet
ĠL abel
ĠF els
Ġbisher ige
t au
ĠrÃ¼ f
ich tige
ĠVor sprung
z usammen
et sch
Ġger ichtet
ĠB och
ĠZ igar
ond uras
u v
Ġvers orgt
open hagen
b undes
ost on
Ġinner en
Ġauf zunehmen
K E
n ot
Ġb au
ĠM eld
ĠSchul z
ĠDokument ation
Ġm Ã¼ndet
Ġdigit alen
iv ision
ĠGer echtigkeit
Mode ll
Ġs it
W olf
E uro
S how
ru h
Ġnor weg
ĠKon tin
Ġauf geb
ĠkÃ¶n nt
zahl ungen
Ġwohn t
ĠGlauben s
Ġzu ges
Ġausge stellt
1 50
ĠD Ã¼r
B us
ĠStra ft
Ã¤ ure
Ġ189 9
ĠMa k
verb indungen
Ġentscheiden d
ĠGe denk
om b
Kl ein
ĠAus stellungs
ĠKomp lex
Ġsch ein
stell erin
p ersonen
ĠSie gen
ĠOrt schaften
Ġleben den
stÃ¤r ke
t rieben
ĠKon f
er a
akt oren
ĠAngelegen heit
der en
geb ot
ĠSym pt
ander s
o ÃŁ
Ġwer det
ĠEmpf ang
ĠjÃ¼nger en
wei len
ĠHe ck
ĠKlima anlage
ĠG ymnas
ï ¿
ĠWeib chen
ĠR eu
ĠKonsequ enzen
o ir
Ein es
f ell
Ġvert rieben
olog y
K Ã¶n
ĠÃ¼ber setzt
ĠH i
ĠMit tler
ess ischen
ĠP aket
Ġ189 0
le chter
Ġkomm st
z z
ĠAuf wand
st unde
ver teilung
j n
p st
ĠDurch fÃ¼hrungs
Ġaus s
An halt
ï¿ ½
Ġh l
ĠLand gericht
ĠWettbewerbs fÃ¤higkeit
ĠLei b
ĠNe use
Ġwo hin
Ã ®
c omp
ĠAll ein
ĠVer schw
ĠE IN
ĠBild hauer
ĠAus rÃ¼stung
berat ung
c d
az itÃ¤ten
ĠT oren
ĠBuchst aben
Z B
H O
ĠA qu
b ieren
ver lauf
Ġverl angen
Ġher e
ĠNahr ungs
b ab
ĠAm ar
Ġehr lich
re ktur
Ġge p
ĠH itze
ĠKons um
ĠWerk statt
Fr anz
Ġakzep tieren
um pen
ĠGeb Ã¤uden
Ġsch n
ĠI rak
g riff
ont o
Ġ Ï
tra iner
ĠH au
pl omat
Ġerreich bar
si de
ĠBest Ã¤tigung
Ġwar m
et scher
C SU
Ġp fl
d ir
del ivery
ĠW ichtig
Ġvers uchten
ĠschÃ¶n sten
strahl t
Ġnutz te
U L
ĠAr sch
h Ã¼tte
Ġdurchschnitt liche
ĠJul ia
k Ã¼hl
r asse
Ġsoll st
Ġbe abs
ĠDist anz
ro hr
ator s
ĠH amm
ot ograf
w eb
Tats Ã¤chlich
ĠStadt gebiet
ĠNe ur
Ġges orgt
Ġverm utet
ĠCh am
ĠGef Ã¤hr
ĠZw angs
Ġ19 16
ul in
Ġf t
oti sche
Ġe chten
Ġv o
ĠIn tens
ĠDi agn
ĠW Ã¶rter
ĠV alle
gar ter
ĠMar io
m y
W ien
ĠNicht rauch
od ie
kti schen
Ġeigen tliche
Ġge pf
ĠSch eiÃŁ
ĠZusch auern
ĠThr on
Ġunterschied licher
d ra
ĠP rei
ĠAb hÃ¤ng
ĠPro zesse
un nen
ĠN ase
ĠDenkmal schutz
c ast
ĠSt ab
Ã¤t ten
E X
Ġgen auer
f assungs
ĠKompon isten
Ġgesetz lichen
ĠK un
Ġneue sten
ĠM Ã¶rder
fre unde
ett a
ĠL egen
Ġarb eite
M od
ĠÃ ł
Ġbe wertet
ringer ung
ĠChrist i
C up
ĠAnge hÃ¶rigen
ah ne
ragen den
Pf alz
ĠInse kten
utz te
All ein
mit ten
ĠgefÃ¤hr det
eh ls
oh le
ing u
E ur
Ġfrei er
Ġmedizin ische
ĠAbgeord nete
ill y
st em
pd ate
ICH T
Ġgemeinschaft lichen
Bundes liga
ĠSÃ¼d tirol
dienst es
ĠSchw anz
Ġe v
ĠEd ward
ĠSc ott
ĠJ Ã¶rg
M ain
ĠMar i
berg s
ĠErgeb nissen
ĠLeop old
ĠWei s
gt h
Ġbekannte sten
gn or
Ġkonk reten
Ġgew achsen
IS S
ap h
ĠPat ri
ĠZ o
ĠVer h
Ġrest lichen
Ġderzei tigen
Ġbein ahe
ĠMarkt es
ahr ung
ĠKrank heiten
ĠA uÃŁ
ĠF un
Ġgez Ã¤hlt
vel op
ar fs
ĠMig ranten
Ġein ander
ent wurf
d ies
sch el
Ġk ar
Ġland es
ĠZer tif
ĠSatell iten
stÃ¼t zung
se bene
Ġgewann en
Ġern euer
ĠBel astung
ĠjÃ¼d ische
ĠV Ã¶gel
BÃ¼rger meister
Ġwirtschaft lich
ri f
R u
AT ION
Ġn vo
kan al
ĠHoll ywood
ei fen
ĠTeil nehmern
Ġschrift lich
ad y
ĠG EMEIN
g eist
bl es
ĠInner en
!! !!
ĠÃĦ l
b reite
s aison
ĠH ert
ĠVerteid iger
M otor
ru der
ĠV iet
ĠSt eine
Ġbeeinfl ussen
Mont ag
Ġo vn
Ġf j
stud ien
a ster
ĠOr dens
ul f
O tt
Eben so
ĠBud apest
Ġi l
ĠD aher
beteil igung
Ġein geleitet
ĠNe un
Ġd oppelt
c us
ru ption
Ġk Ã¤
Ã¤rt ner
Ġbil deten
ch ts
a sten
c ial
Ġmusikal ische
ĠS ituationen
Ġumfassen den
ĠEx tra
v enz
m ietung
ĠSoc ial
ĠBr em
ĠEr be
ĠForts etzung
ĠK urfÃ¼r
em als
ĠB la
ĠGraf schaft
Ġv no
Ġkauf te
ĠGemeinde gebiet
Dam als
ĠNeu stadt
Ġet hn
Ġwahr en
rid ay
ektak ul
Ġreduz ieren
re gung
Ġevangel ischen
S l
co unt
Ġtradition ell
Ġn h
ĠUn bek
ĠT auf
br onn
ĠMal erei
mel det
tig keiten
ĠArbeits zeit
Ġon v
Ġb lock
Ġpromov ierte
ĠK enntnisse
Mit arbeiter
Ġinter pret
g m
Ġschne llen
Ġdur ften
is burg
Ġver mittelt
g rÃ¤
ei tigung
re h
Ġon e
ĠMag azin
Ġsech sten
ĠP ierre
Ġinteress ante
ĠK ore
ĠFest ung
iter atur
Ġv ia
ĠRot h
ol as
lieder ung
ĠKloster s
ĠLeicht athl
ĠT afel
ĠFakt or
Ã© r
War en
ĠErd geschoss
Ġklass ische
ot yp
kÃ¶ mm
et tern
ing ham
angeb ote
ĠPar allel
Ġan grenzen
Ġfort gesetzt
Ġro te
Ġak adem
Ġzu stÃ¤ndige
Man che
Zul etzt
Ġsp anische
ĠL eiche
ĠSch wert
ĠVor wÃ¼rfe
Ġaufge fordert
Ġg rÃ¼nen
ĠBe werber
re ste
ĠDorf es
ĠÃĸsterreich s
Ġs s
Ð ¸
Sp Ã¤ter
ĠSp err
ĠZ ypern
Ġ18 70
itt le
oment an
S i
ĠL ord
Ġlandwirtschaft liche
Ġreich te
Ġr d
ĠWie sen
Ġnied rigen
ĠWeiter entwicklung
br ingung
ĠK assen
ĠOber flÃ¤chen
ĠAt tra
ĠKonzentr ation
Ġr h
Ġbehaup tet
d om
ĠGest alt
ĠZun ahme
ĠPlan ungs
c f
rÃ¼ ben
kon stru
Ġpriv at
ĠBisch ofs
l ige
== ==
Ġ19 03
Ġ18 48
ĠVol umen
ĠF lexib
Ġorganis ieren
ĠBe urteilung
ĠM u
T u
Ĩ Ĵ
ĠChamp ion
ĠKÃ¶nigreich s
Ġnoch mal
el ekt
j fs
Ġeinger eicht
ak i
Ġgr Ã¶s
open x
Ġsicher zustellen
uff et
se g
s arda
ĠAr ti
Ã¼t zte
schm utzung
git verlag
ĠEinsch Ã¤tzung
Ġunbek annt
Ġausge prÃ¤
[ /
H C
M orgen
Ġ( ')
Ġge laden
ĠHoch schulen
ehens wÃ¼rd
fÃ¤h igen
ĠJ etzt
ĠAl ph
ĠS lowakei
ĠAuf hebung
ĠErfolg s
ĠSpann ung
ĠBra uer
x id
ĠGen au
kÃ¼r zung
ĠR ail
Ġbe dient
ĠAn sprÃ¼che
l isten
h Ã¤nge
Ġgef asst
ĠM ang
et ail
ĠW upp
Ġm otiv
ĠB it
ast et
immobil sarda
et in
ĠForm at
Ġzw eck
g Ã¤ng
Ġv irt
Ġakzep tiert
ĠT Ã¤
ĠSp Ã¤t
grund lage
ĠVermÃ¶gen s
D I
V I
and ten
Ã¤ uÃŁ
Ġbesonder es
P la
ĠInst itution
ĠKompeten z
Ġent fernen
Ġin tern
ĠDritt lÃ¤ndern
ĠS A
Ã¤ her
Ġkom fort
ĠGer ichte
f eind
ĠDun kel
wesen s
Ġt is
f z
k ol
ĠD ich
ĠKon to
ĠEin blick
schl Ã¼ssel
Ġdauer te
ĠH ong
ĠAmer ikaner
mon at
ĠPerspe ktive
ĠEntscheid ungs
Ġv ol
Ġan sehen
ver antwort
Ġher an
ĠFreund schaft
ĠIm pu
ag g
ĠBe cker
Ġ ue
F er
ĠMar x
Ġge ograph
ĠGeb ir
ĠVer wirklichung
ĠMus een
N T
Ġvor rang
ir on
f as
under te
ĠWol ken
22 3
ĠBÃ¶r sen
ĠBre xit
Z usÃ¤tzlich
ĠR Ã¤um
Ġdan eben
ĠC ro
Me er
F euer
Ġw eh
ĠInter vention
zeit lich
H ei
ĠN u
ĠZ ellen
ĠTechn ischen
L etzte
Ġge ste
ĠKur se
t our
ĠStar tseite
Ġre alisiert
ma x
ĠHei zung
Ġl aden
A rab
an ti
he bt
ĠKl eine
ĠStadt verwaltung
Ġum gew
Ġver weist
Ġorganis ierte
ĠmilitÃ¤r ische
ĠRe ferenz
k Ã¶pf
ĠMar cel
al in
r unden
pro gramme
ĠKabin ett
lei det
ĠMar ok
h Ã¤ngt
ĠbeschÃ¤ftig te
Ġ19 02
Ġnachhal tige
ie m
Ġc ont
ĠStatist iken
ac o
Ġvors ichtig
ck el
sch Ã¼sse
Ġan treten
Ġo ff
ĠFel sen
Sch nell
ĠLin den
Ġjahr el
ĠAp othe
Ġunter halten
ĠHaupt bahnhof
ĠBetroffen en
Ġ ut
ĠsÃ¼d Ã¶stlich
b b
ĠE ls
Ġwichtig es
ah m
ĠverlÃ¤ sst
land schaft
ĠK au
f lex
ĠH ay
ach se
eit ungs
ĠFo otball
u an
Ä «
Ġkomp on
ĠTra uer
metho den
Ġange kommen
ĠS eil
Ġ tier
O p
C ap
ĠBahn hofs
Ã¶ ll
Ġgesch m
ĠAnk lage
Ġgesund heit
ran sport
Ġb uchen
ĠF ang
Ġf aszin
Ġkrit isierte
ĠSp ons
ĠK uchen
kl ein
Ġver zeichnet
ad d
ĠSe gel
Mit te
Ð µ
ĠTran sparenz
C hin
Ġgeh andelt
eh Ã¶r
arb urg
polit ische
wick elt
ĠE u
ĠSch ull
T ext
ĠN ow
Ġvoraus sichtlich
ĠBeob acht
ĠSu pp
Ġ1 12
ategor ie
ei gung
Ã¶ÃŁ t
w Ã¤nde
Ġide al
ei ra
Ġan gesch
Ġ" "
uÃŁ t
Ġgeh st
Um welt
ĠTÃ¼b ingen
ĠRis ik
ĠKolle g
Ġengag ierte
p an
ĠHo sp
ĠsÃ¼d westlich
il eg
Ġdigit ale
ig o
ĠC ur
ĠBom ben
Ġb ut
ĠBundes straÃŁe
ĠWilliam s
p ommern
ĠL ot
ar at
Ġdes selben
ĠGeb Ã¼hren
us a
ĠOrgan e
ĠLes ung
Ġge werb
Ġan nehmen
Hil fe
M i
198 5
ĠBÃ¼r os
den kt
ĠMÃ¼ hle
Ġauf ger
ĠÃľber legungen
ĠC el
ĠAnst rengungen
ĠHistor iker
ĠkÃ¼nf tige
ĠSchu he
Pro blem
Ġ12 5
ĠEr lebnis
f d
Ġver y
ĠStadt zentrum
el y
Mus eum
Ġhr ef
if ic
f isch
ĠX X
A uÃŁen
Ġerw achsen
A g
Ġchrist lichen
um a
ĠS ardin
198 6
For m
AM T
ĠT ool
Ġausge dehn
ĠSchul ter
Ġbesch reiben
ĠgÃ¼nst igen
ĠB ang
ĠSch ienen
Ġverein bart
H S
Ġersch ossen
B eit
Ġerkenn bar
ĠJ ones
d ichte
ĠVer w
Ber eich
Ġindivid uell
Spiel er
or ter
ĠH ang
ord nen
ĠSe kretÃ¤r
fÃ¶rm igen
ĠVerantwort lichen
Ġfest zustellen
ĠNikol aus
Ġbe wohn
y en
ĠSp azier
ĠAus flug
ĠAl ben
ES S
a ber
Ġmedizin ischen
p ot
C ode
ĠMensch heit
ĠO K
ĠZerst Ã¶rung
ĠÃ¶sterreich ischer
Ġeinstimm ig
ĠK orn
rei fer
ĠbemÃ¼ ht
Ġbef reit
âĢ¦ ]
ĠLandtags wahl
ĠK unde
Ġdurch setzen
st ahl
ĠH imm
way s
ĠmaÃŁ geblich
ĠP aten
ĠD ub
Ġoft mals
Ġste cken
ĠWest ern
Etw as
Ġdurch zufÃ¼hren
Ġqu alit
R obert
F unktion
ĠW Ã¤
Ã¼nst ige
y si
d ungen
Ġsorg fÃ¤l
oll t
E O
ĠSauer stoff
ge zogen
st el
Ġbe zeichnen
ĠLiebl ings
Ġsch Ã¤tzen
ĠL ong
ĠEn erg
vol umen
ĠRepar atur
gel ung
ite ls
K rit
ĠPl Ã¤nen
Ã¤m me
ĠA del
lÃ¤nd ischer
ĠSt Ã¼rmer
ĠPan or
a ÃŁen
ĠÃ¤uÃŁer te
C omm
ĠMaxim ilian
amar ill
Ġkosten frei
ĠMr s
zuf Ã¼gen
veranst altung
Ger man
ĠF ett
ĠLe verkusen
ĠSteiger ung
Ġgeb rochen
ĠKat zen
ver hÃ¤ltnisse
ĠBand s
ĠPr es
Ġchem ische
{ \
ungs antrag
Ġunter zeichnet
in haber
Ġ //
ĠAuf klÃ¤rung
ĠSicher ung
PD F
T op
t yp
f ass
c or
Ġh or
ĠC le
sp aren
ipp e
T est
gehÃ¶r igkeit
t age
Ã¶n e
R ep
r ungen
ĠP i
ĠR eit
Min ister
ĠBundes kanzler
ĠO hren
ho ven
Ġwid mete
ĠH unger
Ġg ast
schie bung
Ġ ies
ĠPf und
ĠKard inal
Ġvers uche
leben s
ĠâĢŀ "
Ele kt
ĠFrankreich s
Ġin halt
Ġst i
hod ox
f ungen
ĠBr eit
Ġf au
ĠD ay
kt oren
schn eiden
ĠLandkreis es
L uft
kon zern
och ten
Ġab sch
In zwischen
dr Ã¤ngt
ĠAuf stellung
prÃ¤sentanten haus
nen nung
All gemein
ĠTschech ien
zu legen
arch ie
ĠSu ite
Ġs how
ĠEr nte
Ġch ron
( ')
Ġd unk
ĠR Ã¼st
Ġsowjet ischen
Ġelektr ische
iv es
ĠAn gleichung
ĠFerien wohnung
ĠFot ograf
ĠLeip ziger
Ġindustrie llen
ĠR oss
ĠEin sÃ¤tze
Ġger echnet
sei tig
Ġkon sequ
ĠM etz
M io
Ġentscheiden de
Ġw em
ĠAl te
ĠTa sche
sl eiter
ĠSÃ¼d korea
er ing
ĠGar antie
gleich heit
ĠLeiden schaft
ĠTh ail
Part ner
Ġgesch eiter
en ken
Ġunter lag
ĠPoten zial
ĠTh or
ĠVer hÃ¤ltnisse
ĠAus lÃ¤nder
ĠN omin
kon zert
Ġer ober
ĠStaats ange
Ã¼ tern
ge fahr
ĠD Ã¼n
ber eiten
Ġbel gischen
Ġh om
Pol izei
Ġs yr
it is
Ġnord westlich
ĠM P
ĠVarian ten
Ġb re
aliforn ia
Ġaus lÃ¤ndischen
ir ke
Ġein gebaut
v ey
ĠAnt rieb
ĠKom fort
ĠSek unde
Ġelektron ische
ĠPfar rei
Ġsel ts
Ġvertra ut
gef angen
mach ung
ĠS i
Ġ19 01
Ġerw Ã¤
ĠBl Ã¤tter
ĠErk enntnisse
Ġge fertigt
Ġdort hin
Mit glieder
S ervice
vers uch
Ġange wiesen
bi bliothek
ĠBerg bau
Ġpl us
Ġurkund lich
Ġverste ckt
ĠjÃ¼ng ste
ĠEr fÃ¼llung
in ischen
ĠtÃ¼rk ische
Ġan statt
ĠGeh irn
ĠPre uÃŁ
Ġan st
Ã¶ffent lichen
dis ziplin
V oll
uch tigkeit
af eln
ĠKirchen gemeinde
Dav id
ĠE tw
A bt
ĠTob ias
Ġer mitteln
Ġdurch fÃ¼hren
bar d
S im
ĠD orn
Ġer t
fahr zeugen
ch i
ymp ath
s icher
sp ark
ĠThe odor
spl ans
Ġj ust
ĠOffiz ier
et n
ilder t
Ġgelang te
ag a
Ġn erv
ver ordnung
Ġmusikal ischen
Ġgemein t
ĠZ ent
Ã¤ng st
ĠHerz ogt
L eist
ĠE ffekt
Ġnord Ã¶stlich
ne w
ĠHÃ¤ usern
Ġâ ĸ
ĠG il
re uth
lau be
N atur
ĠF ische
Ġern annte
ĠGÃ¼n ther
ĠBen jamin
B rÃ¼
ĠGefÃ¼ hle
ĠP ack
ĠAma zon
Ġvor kommen
ĠL eich
Ġher ab
S ir
ron e
ĠHei de
Ã¼ sten
ĠChem nitz
ĠMa j
Ġindivid uelle
Ġst reng
ĠBist um
ĠG h
ĠArg ument
ER N
ol ution
ĠNeuse eland
grenz ung
sol id
Ġdenk mal
ti ven
Â· Â·
ĠAkte ure
ĠGr as
R ot
ĠMul ti
ĠD ia
Ã¤ be
ĠR oland
ĠS oll
Ges etz
ĠTer ritor
im es
Sch eiÃŁe
ĠGleich zeitig
Ġjen en
Ins besondere
ĠKap azitÃ¤t
mit te
Ber g
rot t
Ã ¦
Ã½ s
ĠInf os
is i
vert rÃ¤ge
ent scheid
ĠTim es
ha in
K or
ĠVerfÃ¼g barkeit
gesetz es
T ags
Ġglau b
Ã¤ch tigen
u tern
ĠMet al
k um
pro be
Ġ18 80
ĠF as
an spruch
z ed
ĠK h
ĠMar sch
ĠZ elt
fra uen
ĠGi ft
ĠEr ich
ok s
... ]
ĠVer ringerung
Ġaus genommen
ĠJul ian
ĠBr ut
sch i
cen ter
ber ichte
Ã¶l z
fer ien
rat h
ĠVor fall
ĠC ra
ut s
hl er
Ġent s
Ġm erk
in ten
lieÃŁ t
Ġkon kret
ĠG on
ĠTal ent
Reg ierung
Ġtechn isch
ĠP ak
Ġeinge gangen
k ov
lÃ¤ sst
ĠSt au
Ġt ust
Ġver zeichnen
utz ten
rech ten
dem okraten
St re
Ġdeut liche
ĠProm otion
ĠBet rug
ĠFass ade
Ġc ir
ie tet
Ġst ammte
U C
Ġstatt findet
In formationen
s icherung
Ġzw anzig
ĠKooper ations
Ġk la
/ _
ri o
ĠEin zug
ĠBr es
ĠLog istik
ĠL etzter
he ater
ein igung
im age
Ġf air
Ġver sprochen
Ġo ur
Ġprakti sche
ĠOp tim
a o
ĠReg istr
ĠSer b
V A
Ġs im
inder te
Ġg reifen
En gl
Ġzur zeit
Ġ ul
Ġaus gelÃ¶st
am ing
Ã¤t tern
ĠK Ã¤l
ĠFlor ida
z onen
ĠK openhagen
ĠBe bauung
tel ier
ĠVerhalten s
ĠBef ug
ĠBer t
ĠAus maÃŁ
Ã¤ch eln
ĠAd ler
ĠAr ena
iegel t
ĠRegionall iga
Verd ammt
rech ter
ang riff
ah nt
k reisen
ĠB oston
ĠM otoren
Ġerz Ã¤hlte
Ġm echan
ĠImmobilien anzeigen
w h
Ġt si
Ġan fangen
spro gramme
ĠProf i
Ġnotwend ige
Ġelektron ischen
ĠG Ã¶r
Ġbedeuten den
barg ain
ĠA cht
Ġ189 8
denk male
m r
hr op
ĠStutt garter
ĠM ix
enn te
Ġgelang t
Ġeinz iges
be weg
Ġsp Ã¼r
H en
ri ca
ĠÅ ł
ĠD ritte
ĠVer zeichnis
ĠSt ol
Ġange ordnet
ĠTa geb
TL ICH
/ -
ĠEinwohner zahl
ges und
ĠKultur en
ĠB at
Ver fahren
oh in
ĠLÃ¼ beck
{ "
lie ss
ĠRob in
Ġein ig
Ġs ed
sam e
Ġspezial isiert
Ġerlang te
rie t
l at
Ġindivid uellen
a j
Ġkontroll ieren
wÃ¤ sche
ĠAR D
ĠC at
ĠH agen
ĠNach hal
ĠErw Ã¤hn
ĠwÃ¼rde st
Ġproduz ierte
w t
wÃ¼rd ig
ĠSchmer z
O LL
Ab bildung
ĠKomment ar
ĠAuf sicht
Ġbes ie
EL T
Ġen gen
ĠBrow ser
ĠKreu zung
P riv
ĠLu c
Mar ia
Ġfor ts
Ġl ike
Komm ent
ĠHel den
TSCH AF
AC E
b or
ĠDe fen
tig ungen
b ot
ĠUm zug
Sch wer
Ġz ivil
Ġwieder hol
ĠA B
re den
Ġbe en
Ġa u
Ġgener ell
ĠAr thur
Ã¶ d
Ġ4 50
ĠBesatz ung
Ġbit tet
Å Ł
Em pf
Ġph otos
S N
Ġauf weisen
ĠR Ã¶m
Ġg reift
Ġqu er
Jahrhund erts
ĠK evin
Ġkrit isch
ĠKamp agne
con om
Ġsch ot
ĠViertel finale
W eg
ĠT H
Wo llen
An der
Er ste
Dir ekt
Ġsch ritt
tic le
ĠReserv e
far be
ĠB arr
es i
ĠKontro llen
Ġperfe kte
Ġren omm
ĠV eg
m obil
Ġkon ta
ad ion
reich es
ĠGeh alt
m g
ĠS ven
inder ung
Ġdre hen
Ġge teilt
Ġge klÃ¤rt
i ÃŁ
ĠRe formen
ĠÃ¼ber lassen
Ġange ht
burg h
schein lichkeit
b ig
komp lex
d ok
ĠLad y
ĠH ow
ĠEr mittler
ĠGen f
ĠJugoslaw ien
il er
k le
ĠSch um
F ar
St art
ĠJubil Ã¤um
Wo her
aller y
d ll
Ġab gesehen
ĠVerl uste
ĠgegenwÃ¤r tig
ĠVerb indungs
Ġspezif ische
Ġlang fristig
druck s
Ġneg ativ
Ġs al
um ph
ho use
ĠHu bert
Ġ2 20
Ġver mein
ĠRei s
ĠStaatsb Ã¼rger
zwe ck
n Ã¼tz
Ġschwier igen
ĠRe ste
ĠM IT
ĠR af
Will kommen
Ġbel egen
ĠH at
Ġb aut
Ġdah inter
ĠvorÃ¼ber gehend
Ġst il
c in
Ġ18 50
ite kt
ĠNaturschutz gebiet
aus s
ĠMar s
initi ative
ne cht
ĠLi fe
Ġis ol
Or ganis
ĠSt ufen
ĠKrieg sende
Ġtyp ischen
Ġf ix
Ġdauer haft
ĠÃ¼ber leben
ĠMiet wagen
ĠBo hr
ne ws
ober flÃ¤che
ĠRechts anwalt
ĠC la
Ġr at
ĠTax i
ĠG ol
ĠExempl are
Ġkurz fristig
kti ert
ak s
an ischer
Ġall mÃ¤h
Ener gie
d or
ĠSon n
Ġben annte
ĠH ot
Ġfestge legten
ĠW itz
Ġer werben
ĠP ic
nes day
ĠB ag
eh nung
k asse
ĠWiederauf bau
Ã¤ ll
stein s
ĠRei fen
ĠPrin zessin
Ġsicher te
R uss
or chester
ed a
ub le
ĠModern isierung
Ã¶ ten
ĠF eiert
az ine
ĠGeist es
yn ast
Ġerf Ã¤hrt
ĠA ar
Ã¤hr en
K e
ĠErinner ungen
sol venz
ĠCap tain
ĠJack son
zut age
ĠT y
ĠAus legung
ĠGottes dienst
ĠB y
ch s
ĠEin klang
Ġproduz ieren
ĠBl ues
ĠBro wn
ĠK Ã¶rp
att ung
http s
ĠDi Ã¶z
Ġplan en
and in
ĠWett kampf
Dar um
Ã¼t ung
ĠK ann
ĠBrit en
ik ro
Ã¤l tigen
ĠAss ozi
iz za
ĠOber liga
Ġk r
ĠAus lands
Ġab geben
Ġunter teilt
ĠAnt rÃ¤ge
ĠKrit iker
ĠR aub
eut zutage
ĠErschein ung
ĠTa schen
ĠBach elor
lad imir
kÃ¼nd igung
P O
bes uch
Ġange fangen
Ġst ieÃŁ
ĠV ision
Ġdeutsch sprachigen
m z
ĠhÃ¤tte st
Ġdem onstr
ct or
ĠMÃ¤n nchen
l itz
ĠZeit schriften
ĠMc C
ĠM B
ĠU we
ĠheiÃŁ e
Ġge weiht
St utt
ĠH ast
ĠKandid at
mel den
ĠRa iner
Ġgel Ã¶
ĠFl otte
ĠSch uh
Ġ% ,
Ġt ar
ok als
ĠV iew
Ġs uchte
ĠV alen
ĠTri b
âĢľ -
Ġerg reifen
ĠgrÃ¶ÃŁten teils
ĠBau arbeiten
Ġsch arf
ĠEr halt
m uster
ĠPro gn
ĠBild schirm
ubl in
k reise
ĠH enn
Ġder artige
ĠMÃ¤r chen
ĠMo z
Ġverb lieben
En d
ĠY emen
Ġag gress
ĠVorjahr es
Mehr ere
ĠEr ziehung
An ders
Ġer lebte
IR TSCHAF
Ñ Ģ
le uten
ĠP etr
y ball
ĠErk enntnis
ĠbegrÃ¼ ÃŁen
ĠSt ars
ĠgroÃŁ zÃ¼g
aiss ance
ge fÃ¼gt
ist anz
ĠAn wohner
ĠRep ubl
E W
w Ã¤sser
Ġk rieg
te g
de uten
ĠVer gn
ĠOl d
ĠThail and
urs day
p rechen
grÃ¼n de
Ġwelt weiten
D eb
ĠZ one
sch ritt
ĠB utter
ust r
os ion
Ġerfolg ten
M acht
el emente
Ġlin ke
ĠWÃ¼n sche
Ġeinge weiht
Ġp la
ĠÃľber setz
Ã¤nd ig
Des wegen
Ġa tt
Ġeinge hen
z iert
ĠK ran
ĠAn gabe
B und
qu alif
kon struktion
uch tet
ĠO ne
ĠN ad
Ġdiver sen
ĠSchÃ¤ fer
en i
B or
up s
im it
Ġsteiger n
Ġvert ritt
!! !
sid ium
Ġer for
te au
Ġw Ã¶ch
Ġen i
Ġt s
Ġvor geschrieben
Ġh s
ĠCent re
ĠP enn
schie ben
ĠPremier minister
Ġhil f
ĠWo od
sch wei
ĠBem erk
de cke
Ġbehaup ten
wei tern
Ġfort an
ĠInnen minister
st all
ĠLin ux
Ġvern Ã¼nf
Ã¤cht nis
ĠIn c
Ġwar f
Ġr isk
ĠHom epage
Ġf ac
ĠN est
Ġa h
F taxonomy
Ġb un
ĠW es
Ġengl isch
Ġqualif izierte
ĠM ans
Ġwo von
Ġcomp uter
ĠWar te
Ġsub ject
lÃ¤ che
ĠOl iven
ĠIntern ets
ĠRal f
Ġevent uell
ĠD ass
Ġverlie f
ĠGewerk schaft
ĠKn ow
lei tete
Je den
ĠL eh
ĠB akter
lei den
Ġbrit ischer
D arf
ĠGes am
ĠÃ¶ffent licher
ĠVik tor
ĠO kay
ĠVer folgung
am o
schlag s
ĠLang zeit
Ġm Ã¼nd
Ġerst aun
gen z
ĠAuft ritte
S yn
our s
ĠMor itz
Ġs au
12 0
Ġentscheiden den
jen ige
ĠSied lungs
ĠMein ungs
ĠChr on
Ġgeeig nete
Ġver folg
ĠA ller
pro ben
Ġchines ische
ĠL etzte
ĠDiskrimin ierung
S onder
ĠSchw anger
struktur en
ĠFertig stellung
ck ten
la ÃŁ
l Ã©
ĠGraf ik
ĠS ehenswÃ¼rd
N imm
Le ague
Ġre prÃ¤sen
Ġerled igt
ĠGegen stÃ¤nde
b om
G et
K A
Ġins zen
D ruck
ĠAb sol
ĠEmpf Ã¤nger
ĠF antas
Ġein bezogen
Ġt rennen
Ġunterb rochen
N ehmen
schnit ten
Ġinter nen
ĠR asen
ĠEin kommens
R T
ach el
ĠAn ruf
Ġentdeck te
ste uern
schlÃ¤ g
ĠMill imeter
V o
ĠH Ã¼tte
Ġbemer kt
Ġpost s
wei lig
Ent wicklung
h ut
Ġall zu
ĠSti pend
Ġdan ken
Ġbe stellen
ĠChr is
k ab
Ġgl Ã¤n
ĠKl einen
ĠN eg
Bez ug
a det
S aison
w Ã¤hlen
iff er
Ġver bleiben
Ġ189 6
ĠD uell
Zu vor
ĠH arr
Er folg
Ġeinz iger
Ġin cl
ĠâĢ ĺ
ĠK atharina
c tic
1 10
ĠPart nern
ĠKompeten zen
Ġdisku tieren
Ġi se
if est
Ġn am
Amts blatt
med ia
Ġl ine
ĠAl arm
kolle gen
Ã¤uÃŁ ert
ĠGro ss
Ġen den
Ġt op
sen z
Ġt reiben
Ver kauf
ĠBo ote
Ġunter schieden
rÃ¤ u
Ġt ausend
ĠP azif
Ġangewand t
Ġn g
ĠKart off
ĠFel der
ĠDeleg ation
Ã¤nd igen
ĠF air
ĠPl Ã¤tzen
Ġu af
Ġwahr e
ĠUrs achen
Ã ²
br em
Ġdenk st
D C
un er
uver Ã¤n
Ġr ichtete
ĠNor m
ĠDir igen
Ġempf iehlt
ĠUm struktur
ĠK av
at is
ĠMand at
ĠL aub
ĠBerufs bildung
Ġm ex
an on
l och
L asst
Ġab gew
ĠCont ainer
Ġ189 5
ĠNationalsozial ismus
schei be
ern d
Ġer heben
R ich
Ġumgew andelt
ĠÃ¼ber qu
B ilder
t v
d f
ĠAch tel
n utzung
198 4
ĠH eld
ĠEx press
Ġdass elbe
Ġz eu
h us
ĠGrund sÃ¤tze
ĠLÃ¶ w
ap ur
Ã¼t zer
ter en
f ehler
ĠKer amik
Ġpe ople
ĠArn old
Ġgeschlossen en
ian ce
Ġf Ã¶rdert
ĠSardin ien
Eben falls
if iziert
Ġausge geben
Ġent schlossen
Ġgehol fen
for scher
Ġverringer t
Ġbef assen
T W
ĠP DF
m isch
ĠMitglied schaft
ĠLeg isl
por tiert
ĠgrenzÃ¼ber schreiten
ĠM aul
ĠSch alt
Ġf otograf
ĠServ ices
s eit
n m
D el
L ux
ĠLe ucht
qu is
m Ã¤nn
ĠC ir
ĠVir gin
ĠInfanter ie
ĠD in
ĠPro grammen
Ġerheb lichen
Ġ Ã¤nderte
wander er
ĠD al
mar ke
fÃ¤h ige
ĠMeister schaften
ĠschÃ¶n er
eiger t
ĠTest s
lei dung
ĠBef Ã¶rderung
ĠH ighl
Ġbek rÃ¤f
ĠKlim aw
hÃ¶r er
ĠVer ab
Ã¤ hle
ĠPek ing
bst off
G old
Ġklar en
Ġsozial er
ĠSti ck
kl oster
Ġbe zahl
ĠIn g
ĠVerz Ã¶ger
ĠEr nennung
ĠE b
re fer
Ġp or
P rÃ¤
ĠFl ammen
sk osten
zentr ale
ot es
ĠZ immern
16 0
Ġber eitet
ĠReich es
ĠZun Ã¤chst
ĠGab riel
ĠP ian
ĠB ucht
ĠRe chen
Ġbedeutend sten
ĠRa keten
ĠSÃ¤ ulen
ĠVerband s
ĠWelt meisterschaften
ĠanschlieÃŁ enden
an ch
men te
Ġm l
Ġausge legt
n c
gesp ielt
sp ot
ĠFlexib ilitÃ¤t
Ġt rugen
al om
j l
ĠUS D
ĠYo ung
eh nen
Ġstar ben
ts el
Ġverz ichtet
ĠUm stÃ¤nde
Ġm ap
Ġlust ig
Inner halb
ti ment
the ater
ĠAbend essen
ĠA L
ĠT aten
st uf
ĠDar aufhin
och t
ens eits
M iss
Europ ameister
Ġbel e
ĠS um
ĠKreis es
w ich
Ġrecht lichen
Ġnach ts
ĠAlb recht
Ã¶r n
ox id
M Ã¶glich
u alitÃ¤t
ĠGeneral sekretÃ¤r
R A
ĠJuli us
del te
Ġ ufa
ĠAmate ur
haus er
ĠZustÃ¤nd igkeit
programm s
Ġs i
ĠPrÃ¤sent ation
Ġ189 7
D is
Ġinvest ieren
ra gend
aw a
T err
Ġbef asst
ĠAnt eile
Ġ }
Ġwieder her
an isch
omm el
f assen
Ġt hr
p osten
G ymnasium
ÃĦ N
ĠSohn es
b org
ĠViz e
ĠLin ken
Ġgegensei tig
P rot
Ġdi plomat
Ġin iti
ande ur
AT O
roh te
S aint
p il
Ġbet ragen
ĠRein igung
ge stellte
ul ierte
Ġbeh ei
enn ungs
ĠBud get
ĠU p
b aut
S obald
stat istik
SD AP
Ġf ua
u ers
L es
r ische
sch Ã¤tzung
ĠAre al
br Ã¼ck
ĠBeweg ungen
ĠBe arbeitung
Ġa fu
hedr ale
H or
ĠLandwir te
Ġschl immer
ĠBeschl Ã¼sse
ĠGut s
Ġw andte
Sch ul
ĠAngeklag ten
ĠSt urz
f un
Ġunter nommen
per te
Ġi gnor
ĠRe aktionen
ĠprÃ¤sen tierte
S agen
ĠHir sch
geb Ã¼hren
ĠNord amerika
ĠP as
wal ts
ĠJu an
bÃ¼r os
ĠM ale
Ġbes orgt
ĠFor ce
fer tigung
ĠK lagen
ĠBar ock
Ġstat istischen
ĠNot fall
schw ung
Ġs ach
i ft
Pro zess
ur ity
n ien
lo ud
ĠGesell schafts
it im
Ġleich ten
Pr em
Ġbed ingt
C amp
Ð ½
ĠDek an
ĠSat tel
Ġ stelle
ĠL at
auf ent
ĠHeimat stadt
u y
8 00
form ations
ĠHoch wasser
198 3
Ġind ir
AT A
zem ed
Ġge lie
Ġerst klass
in formationen
ĠL ade
jdi u
Ġrei ste
ĠEd ition
ie bt
verfahren s
Ġganz es
ller ie
ĠFest ivals
ĠS W
c al
art h
sti ftung
ĠF uchs
sp unkte
h h
pf ung
ĠÃĸff nung
c ont
ess a
ĠR et
ĠBl as
ĠE va
Mill ionen
f asst
v ide
ĠJos Ã©
ĠAbhÃ¤ng igkeit
ĠA dr
ĠKÃ¤ ufer
ĠSie he
man ager
Ġeinz ur
rÃ¤ uch
k k
ĠKommission s
ĠHaupt rolle
hÃ¤lt nissen
Ġver arbeitet
ĠHERR N
ĠG Ã¶
be llen
Ġ1 19
ĠC entral
Ġverlie bt
ĠmÃ¤nn lichen
Hein z
o a
st etten
Ġm Ã¼ÃŁ
h end
ĠMarkt platz
M E
iz es
ĠK B
eut r
ĠEhe paar
Ġdenkmal gesch
ien d
W ettbewerb
ĠPal ast
Ġsp ektakul
ĠSolidar itÃ¤t
ĠVer einen
Ġin des
Ġgehol t
g Ã¤rten
z end
ĠW itten
22 2
n b
ĠL om
ĠO pf
Ġgest attet
r ischen
ĠSprech erin
Ġerl itt
ĠViet nam
ĠPrior itÃ¤ten
Ġinner e
knÃ¼ pft
ĠAn hÃ¶r
hÃ¶ ch
such ung
S eiten
ĠSteuer ung
S I
ĠVer markt
aus stattung
Ġ12 00
ri x
ĠTeil zeit
ĠKanzler in
Ġzust ande
ĠKr isen
ĠF arm
voll er
Ġgest anden
ĠLand wirtschafts
an kt
ĠBar on
ĠRett ung
wes end
ĠB iele
ĠSch ult
Ġben achteil
Ġeigen em
ĠUr heber
Ġw in
ĠSch los
ĠB in
Ġb ringe
ĠstÃ¤rk sten
Ġhinter lassen
Ġdies elbe
v om
Ġverz wei
Ġan sonsten
ens burg
ĠF Ã¶der
ĠBeam te
Ġarch Ã¤
eist ern
Ġher bei
Ġbek amen
ĠÃľberein kommen
ĠD ick
ant on
Ġher kÃ¶mm
Ġer weitern
ĠEr furt
instrum ente
ĠL ett
ĠzurÃ¼ck kehren
Ġsie gte
Ġ enn
glieder ung
ĠF ast
ingen ieur
Ġbr asil
Ġher ange
S B
ĠSp a
ĠKor ruption
ĠF reis
ar is
ĠfÃ¼hr ende
Ġsp Ã¼ren
hn er
Ġwissenschaft licher
ĠW itt
Ġ18 71
ĠKn oten
Ġend g
lÃ¤ ser
b ayern
om eter
ĠN Ã¤ch
gesch Ã¤fte
ĠH D
ĠArbeits bedingungen
op her
ud i
ĠZ wer
imm y
Ġb Ã¶se
ĠRÃ¤ umen
B ank
St ein
il deten
Ġein stellen
fÃ¶rm ige
Ġbe gangen
ĠMiss brauch
Ġunver Ã¤ndert
Ġmorgen s
Ġp ra
Dav on
verband s
icht lich
ĠKant ons
Ġer fre
ĠJohn son
ES CH
Ġwahr genommen
ra in
ator ischen
ĠLand s
ĠA uÃŁer
Ġd rÃ¤n
ĠBel eg
sbed ingungen
ĠK etten
ot oc
ĠB eu
Ġin telligen
ĠH eu
Ch arl
Hin zu
hund ert
ĠBur gen
Ġi ll
ĠKlei der
Ã¤r er
ĠG or
Ġanalys iert
Ġein her
Ġweib liche
Ġr eine
co de
Ġm essen
p rin
ennt nissen
ĠAus Ã¼bung
Ġet liche
Ġge ehrt
Ġbesch rieb
ĠK ita
chen gl
Ġsch mer
amil ton
Ġversch Ã¤r
ĠEP Ãľ
ĠEr werbst
ra els
Ġabsol ute
Ġverringer n
ĠN ichts
dif o
Ġs ur
F ach
ĠAgen t
ĠBet rieben
ĠFak ten
Ġeinz uf
ho u
v ideo
s how
An nahme
h d
ĠOp tionen
ĠVolks zÃ¤hlung
H ow
ĠS ed
Ste uer
f la
re b
Ġ[ âĢ¦]
ĠSar ah
D EN
ĠG anze
isch ten
ĠKin os
ge hr
im s
ĠLeiter in
Ġbeige tragen
ĠG a
ĠC ab
Ġein heim
Ġweib lichen
fra ktion
Ġmitge teilt
Ã¼n deten
st iegen
ĠBe gegn
ĠNachbar schaft
Ġwachsen den
zwei g
z il
ĠIn solvenz
ĠVerbesser ungen
ĠP ie
ĠM ieter
ĠSÃ¼d west
ĠPersÃ¶n lichkeiten
Ġzum al
ĠkÃ¼mmer t
dienst leistungen
ĠSch iffen
sch ull
hythm us
st on
w ache
Ġan gerufen
ĠVer gabe
ĠGut achten
Ġg riff
zy linder
si bil
ĠPeter sburg
ĠMarok ko
min uten
Ġkonf ron
gesch ritten
di mension
ĠunabhÃ¤ng ige
ĠD ingen
den tif
os is
A ktiv
H alb
ĠE sp
he d
bur y
ĠAfghan istan
ur es
Ġausge hen
kap ital
Ġabgeb rochen
W ahr
Ġl obte
Ġb v
Ġgef Ã¤r
Ġzuf Ã¤llig
ĠAmer ica
Ġeigen stÃ¤ndige
Ġbra uchst
â Ļ
mel de
Ġf arb
Ġeingest uft
ĠhÃ¶ch stens
ĠPh ot
ĠS itze
em i
z essen
g ne
sb eh
Ġdre ht
ĠRÃ¼ck stand
ĠTre ppen
f elt
Ġver raten
ĠSan ktionen
ĠJe ff
mar ken
ĠB Ã¤r
ĠBeh and
spro jekt
ĠSp ektrum
ĠP oker
ĠFr on
st Ã¼r
l r
ĠPap a
or ia
velop ment
Ġu kra
Ġstattf and
em ie
fÃ¼ ll
Ã¨ s
om Ã¶glich
Ġbean tragt
ĠEng ine
Ġf Ã¶rder
ĠBron zemed
ĠP ubl
Ġnor male
ĠZu hause
________ ________
ĠPassag iere
sprÃ¼ fung
ma in
Ġre par
Kann st
ĠReihen folge
Ġwar nt
id ae
ĠNach weis
eb r
ĠLu kas
Ġbeant worten
ĠCh ile
kti k
ĠEr zeuger
ver tretung
Ã¿Ã¿Ã¿Ã¿ Ã¿Ã¿Ã¿Ã¿
B ef
ĠErgÃ¤n zung
Ġumfang reichen
system en
Ġ17 0
Ã¤nd ige
ĠR in
ĠErn euerung
it ch
k c
u j
ser e
ĠAlli anz
Ġvor behalten
Ġkl im
ĠHerr scher
Rest aur
ĠVer tretung
ĠDi am
Ġfreiwill ig
or ca
ad r
Ġw eiten
ungs leiter
Ġliegen de
R ennen
ke y
schutz es
ĠSlowen ien
ĠZahl ungen
Ġbef reien
ĠAb fahrt
ystem e
P okal
ĠGesch ichts
Ġmel dete
% .
Ġi f
ang t
Ġp os
Ver lag
ĠMicro soft
Ġver laufen
Ġver arbeiten
ĠApartment s
Ġw und
Ġdemokrat ischen
ĠMont age
ĠJ im
Ġn ju
p ed
ĠArtikel n
Sch m
ĠSol o
ĠA US
An d
wach ungs
GroÃŁ e
Ġzahl reicher
ĠStraÃŁ burg
ĠGef allen
O Z
mess ungen
Ġs ang
ose x
spart eien
Ġfra ge
Ġerleich tert
Ġschuld ig
ĠAngeklag te
Ġblei be
ĠG ul
ar ti
fl Ã¼ss
M att
bo ote
ĠErwÃ¤hn ung
H Ã¤
produ kt
Ġpoten zie
ĠT abl
Ġwas ser
it alien
st ufen
Ġreligi Ã¶sen
ĠInvestition s
ĠSchott land
Ġb n
ĠÃ¤uÃŁ eren
ĠP est
il y
u de
ĠGew ichts
ĠKon ver
ĠVers icherung
Fahr er
ĠR au
ĠGitar re
raum s
Ġanzu wenden
s ul
ĠSp er
Ġunter einander
ĠverfÃ¼ gte
ir ur
ĠMalt a
ĠDurch bruch
Ġdies be
Ġgew isser
ĠReich en
vis or
Ġerinner te
ĠB un
Ġw eb
ĠRech ten
ĠbegrÃ¼n dete
ĠZuf all
te lle
gel te
ĠI sol
Ġc om
Ġw ild
ĠAndr Ã©
ĠWell ness
ĠC ou
ĠSy nt
198 0
Ġgeh eim
ĠH old
ĠDrit ter
Ġgeeig neten
ĠVolk es
K enn
Ġchem ischen
Â §
ĠTran sa
k h
Ġs ilber
Ġl ehrte
ĠH um
ac ion
ĠBeg riffe
G ER
unter gang
Ġeinge zogen
ers dorf
ĠSt abil
Ġjapan ische
pp ich
Ġa f
Ġfe ste
war ten
recht liche
Ġmoder ner
ĠIn fo
ĠN am
bl ig
ĠC ross
Ġre volution
Ġem p
wei he
an es
ĠRelig ions
ĠKolon ial
ĠVers ionen
ĠBl ue
ĠAn ordnung
h ier
eu ern
Ġausge strahlt
br unn
n Ã¤
ĠLandes regierung
ĠRe ktor
wirtschaft liche
ĠDigit alisierung
m anden
M ay
ĠQualif ikations
w ik
Ġsowie so
Ġ( %)
ĠAus w
G EN
ĠD ez
ĠV inc
Ġbequ em
Ġj n
ĠBe weise
ĠMan chester
Ã¶ cke
Ġwoll t
ĠCo us
ĠFlag ge
c amp
Ġkl Ã¤ren
L etzter
ĠtatsÃ¤ch lichen
az ar
âĢ¦ âĢ¦
ĠR av
ent schieden
Ġdank bar
ĠKar ne
rei hen
st het
ĠEx trem
C or
b re
Ã¼ ster
N IS
z r
ĠS ind
Ä Ł
Ġeinver standen
ĠFlÃ¼cht ling
og a
ĠendgÃ¼l tigen
Ġerst mal
Ġgez ielt
k ilometer
ĠGeschle chts
ĠGed icht
ĠWÃ¼r ttemberg
s hafen
ĠkÃ¼r z
st ationen
ĠRech er
Vertrag s
Ġauf hÃ¶ren
ĠProdu zenten
Ġ2 30
s or
mÃ¤r kten
ĠLeichtathl etik
ĠÃ¤uÃŁ ern
ĠSpan isch
ĠBest ehen
zuf rieden
ĠPort al
ĠS yd
ĠWohn haus
Ġver sen
Q U
stat us
rÃ¤n en
ĠK ast
el f
ĠSalz burger
Ġkommen de
Ġle gend
og n
age gen
Ġzusammengef asst
Sie ben
ĠCo ok
Ġunter stellt
stein er
ĠSch ein
ser ien
ĠG az
Ġunmittelbar er
ÄĤÅ º
q q
ust on
Ġprakti schen
ĠHeer es
ĠVer mut
Ġange hÃ¶r
Ġsicher gestellt
ĠSchmer zen
ie geln
ĠFest stellung
ĠWissen schafts
Ġdeb Ã¼
ul ous
ĠAuseinander setzungen
ĠBo ard
Ġengl ischer
ĠBe fest
mer s
Ġh euer
ĠK Z
x y
iels ei
ĠS ud
ĠN T
ĠVor gaben
ĠOrd nungs
Cl ick
ĠL Ã¶s
st eht
cl es
ĠPublik ationen
M ad
ĠIntelligen z
Ġ10 5
sch Ã¤den
k linik
et wa
reg ionen
ĠL aus
] ,
ĠAng riffe
Ġl ehnte
st imm
lin ks
og ar
S omit
ĠG elt
ĠMoun tain
ĠK uba
ĠUr kunde
heb ungen
ĠAusgang spunkt
Ġ189 3
ĠZusammen schluss
ze lle
198 2
inder ten
I EL
Ġein schlÃ¤g
off s
ĠK i
ĠunabhÃ¤ng igen
schen de
b on
bereich s
ĠBefrei ung
kir ch
Ġange wendet
mer kt
steh er
ger Ã¤ten
fr em
Ġviel fach
ier n
Ġbes etzten
qu oten
ĠHund ert
ĠCl ass
ĠMenschen rechts
ĠtÃ¤ glichen
Ġvergleich sweise
m ol
ĠNe ck
ĠFil ter
Mit tler
ĠP seud
ĠBehinder ten
Ġerz ielten
R ev
ĠRÃ¼ck zug
Ġsp iele
Ġbek annter
ĠSchieds richter
ĠBes eitigung
ĠRein hard
ĠPu erto
ĠkÃ¼nstler ischen
ĠPark s
ĠPrior itÃ¤t
H eil
Å Ħ
tige m
ĠPlan ungen
Ġre prÃ¤sent
ĠBau werk
Ġauf gel
ĠAd d
B O
ĠWal es
Ġt rop
athl on
Bew egung
fest ival
Ġer wiesen
Ġj tu
Ġum gehen
ĠO g
tag on
Ġbe stens
Stutt gart
ĠKons ult
Ġbe deut
Ġelektr ischen
ag on
h f
m ass
ĠAus bruch
Ġan gel
ĠS et
Ġs rc
ĠStra tegien
Ġlang jÃ¤hrige
ĠAuf zug
Ġkanad ischen
ĠTenden z
Ġverbesser te
ĠZwei g
ĠB aus
M AR
ĠAus kunft
ĠKo ffer
reib ungs
G eben
Ġm de
op fen
ĠDemokrat ischen
ir gend
quar tier
Ġunglaub lich
Ġcir ca
ĠDo ug
stag ram
ed s
ĠAls o
Ġverp asst
ok o
ĠBra ut
la ster
jÃ¤hr iges
ĠT ai
ĠSt uhl
sch mer
Ġed m
ĠG ame
' '
ĠHeim spiel
ĠS ha
Ġan zeigen
Ġko oper
riff s
ÃĦ hn
met all
ĠIn stand
ar isch
ĠE F
Ġer Ã¶ffnen
>< /
ĠKon junktur
dat um
ĠR ind
M utter
il den
Ġverstorben en
wÃ¼r fen
Gew icht
ĠZub ehÃ¶r
ĠFreiwill igen
ĠBeg leitung
ĠSter nen
ĠFl orenz
Ã¤l en
Ġrech net
B in
Ġversp richt
ES AMT
ĠS U
ĠSch wie
lÃ¤ ufe
Ġres pe
re kord
ĠGew Ã¤hrung
Ã¶ hnen
Ġlau tete
ĠPat ient
Ġlande te
ĠSmartph one
ag ten
ĠStr ess
ĠProtokoll s
Ġder art
Sow ohl
ĠAus gangs
ĠBesch eid
ĠFl o
pt on
ĠBesatz ungs
bÃ¼ hne
ord neten
Ġmor al
Ġqu asi
ĠExp edition
schein end
ĠhÃ¶ re
Jahr es
ĠZiel en
ĠStock holm
ĠAmt es
ans icht
ĠP ion
ĠL eichen
ĠKl Ã¤r
ĠN ag
Hein rich
Ġd me
Ġge treten
sk ap
besch reibung
Ã¶t z
ĠP ublic
irt schaf
E is
ĠNichtrauch er
Ġsich ere
Ġversch oben
Ġf antast
Ġaus lÃ¤ndische
ĠSen ior
sche fs
ĠF asch
Ġe p
ĠDe cken
M or
Ġblau en
ĠQ uell
ĠÃ¶ fter
Ġ euer
la sten
Ġ11 5
ĠZin sen
ĠBau ten
ĠKauf mann
Ġsin ken
Her z
ĠTu S
ĠBeschwer den
Ġschaf t
ĠÃľberein stimmung
Ġs Ã¼ÃŁ
Ġander n
ĠHoff mann
eu tet
ĠwÃ¼n scht
Schwei z
ĠKum pel
ĠAus nahmen
For mat
Akt uell
jÃ¤hr ig
ĠN SDAP
Ġausge glichen
Ġr as
sb esch
Ġun zur
on line
Ġauf ta
sti ft
E Z
si ver
Ġauf w
d isk
Cl ub
Ġim pl
Ġverw altet
ĠBeob achtung
Ġhoh es
ĠZiff er
ĠgewÃ¶hn lich
Ġstehen de
Ġstellvertreten de
Ġ18 00
ĠPh asen
ĠUnter kÃ¼nfte
ĠFre d
ĠAnge hÃ¶rige
ĠBe wertungen
ĠCo ck
P L
Ġem d
l ok
ĠB eute
Ġwie so
re uer
chengl adbach
T rump
c v
hÃ¤ fen
ĠHarmon isierung
grÃ¶ÃŁ te
ĠPast or
Ġw Ã¤hlte
L ou
Ġerrich teten
ie sen
vorsitzen den
ĠDu isburg
ĠW alt
Ġsch Ã¤d
is p
gro und
ie u
Ġ18 88
ĠBereit stellung
end em
Ġst iegen
Ġdokumen tiert
ĠC hl
ĠEr laubnis
EI L
ĠTok io
D oppel
Ġzerst Ã¶ren
ĠU K
ĠMin er
ĠLin ke
je ktiv
ĠImmobilien portal
att le
iz iner
ĠEro ber
ĠKon g
onom ie
ĠAn im
em ens
L ast
c ess
Ġw ach
Ġt p
ĠProp he
ĠBe at
Ġgew orfen
fc f
ka sten
is m
Ġn s
ĠAb wasser
ĠEnt schuld
ĠL eu
ĠAn fragen
ra uf
ap e
B M
ĠG eister
J ack
it Ã¤re
amen ten
el ine
ĠS qu
F S
Ġbede ckt
ĠHÃ¶ hle
ow itsch
ĠKre ativ
ier bar
Ġhol t
n isch
ĠgÃ¼nst iger
Ġstatt gefunden
Ġan y
ter nen
zess ion
Wir tschafts
ĠB oss
ĠB j
L udwig
H Ã¶ren
D UNG
leich ter
ĠFrÃ¼hl ing
Ġgeb Ã¼r
ĠGleich gewicht
W ol
S m
ĠInst anz
ĠVictor ia
ĠSch ichten
B ur
ein gang
aut omat
Ġver glichen
Ġsich eren
ha llen
Ġge laufen
wÃ¤l te
Ġgriech ische
ĠK ey
Ġwor auf
ĠH obby
ut ch
Ġb utton
Ġmass iv
w enn
vers icherungs
Ġab gebaut
ĠSp ring
Ġre form
ĠEW R
d on
Ġbei gesetzt
lie f
ĠZ ucht
ĠkÃ¼nstler ische
h aut
E gal
Ġeurop a
utz end
ĠAut omat
Kon zern
ĠG rei
Ġauf recht
Ã¼ cht
ĠCamping platz
ĠKonst antin
ĠIs raels
ĠBe denken
auf wand
all as
ĠVor wurf
Ġnie manden
ĠM Ã¼hlen
M obil
ĠenttÃ¤u scht
ĠLe o
ĠEUROP ÃĦISCH
ĠZ irk
ĠSer ge
Ġeinzus etzen
ĠE ric
ĠK Ã¤r
Ġsol ch
ĠD ifferenz
Ġl es
ĠWei le
Ġsch lossen
ĠJ Ã¤nner
Ġhin auf
M achen
ĠDu o
Ã¼r tel
Ġdre hte
mit gliedern
de hnung
ĠG Ã¼l
ĠfÃ¼r chte
ank a
haf ter
ĠEing angs
ik ern
ĠG ent
ĠWahr scheinlichkeit
k Ã¤mpfe
b rochen
ir ken
ĠBam berg
ĠF ur
Stat istik
ĠB ald
id t
N G
Ġfung ierte
Ġum liegenden
geord nete
Ġbefind lichen
ĠLondon er
ĠGra ben
ĠgegenwÃ¤r tigen
ĠKommun e
ei ro
ĠL td
Ġt t
ĠMed aillen
ĠSp ez
Or ts
Ã¤ e
em eister
ĠEin stieg
Ġfuhr en
ĠAns ichten
ĠKonst anz
V G
me yer
lÃ¤ chen
ĠM is
Ġg i
bin den
Vol ks
ot ti
ĠWit we
ess ort
ĠSch lieÃŁlich
Ġes d
Ġhal f
f iguren
bed Ã¼rf
Ġ \
om aten
ĠSpiel klasse
ĠT i
ĠT ol
ĠMag net
ĠGewerk schafts
U K
Ġh u
ĠSch ad
Ġtyp ische
Ġ tem
ĠF Ã¤r
Ġumf aÃŁt
ĠL ichten
ĠSch ieÃŁ
c g
ĠStaats sekretÃ¤r
ĠEn ts
mÃ¶glich keit
fuhr en
Ġschwier iger
verwalt ungs
Ġh aus
op pt
s ites
ĠGeh Ã¤
ri sten
ĠAnwesen heit
K arte
c ts
ĠVerbr eitungs
ĠH els
iv a
ĠD rag
Ã¶ff nungs
ĠGeb et
ho b
ĠClub s
ĠM ath
her rn
ĠB reiten
Ġweiter entwick
ĠE mo
Ġausge gangen
Ġkann te
Sol che
k ranken
ĠTest ament
ar es
bet reiber
Ġabsolv iert
Ġopti mal
ĠPar ameter
ĠKil ogramm
ĠSehenswÃ¼rd igkeiten
stÃ¼ck en
umb ia
Ġ189 2
h g
ĠWahr nehmung
ĠB lo
ĠHei z
ro b
ĠProf is
Ġan zut
ĠBÃ¤ cker
ĠP L
Ã¤dagog ik
ĠF PÃĸ
ber gt
Ġitalien ischer
Ġan stelle
Ġbeteil igte
it Ã¤ren
ĠA ur
M Ã¤nner
br unnen
Ġabgest immt
ĠL eb
f Ã¶rder
w ochen
ĠFrei heits
ĠDie go
ĠAbl ehnung
ĠAmar illas
Ġkontinuier lich
Ġstud iert
wen der
Ġnieder lÃ¤ndische
in ens
tag es
ĠBÃ¶r se
m p
wirtschaft lichen
ĠRo te
ĠEr zeugnissen
Ġsch ieÃŁen
Ġwh ich
The ater
ĠAn rei
ĠBÃ¼ch ern
ian ische
bra chte
ĠSie ge
S w
iz a
Ġeingesch rÃ¤nkt
ĠT an
Ġver Ã¶ffentlichen
ĠO steuropa
ĠWider spruch
19 79
f uÃŁ
ĠTipp s
ĠTrum ps
s z
Produ kte
ĠSaison ende
be werber
a er
Ġgesp eichert
ĠwÃ¼n schte
Ġsch licht
al itÃ¤ten
K opf
U hr
ĠFer tigung
Ã¶l be
Ġw Ã¼ten
ĠR inder
ĠT eils
ĠPsych ologie
ĠTrink wasser
ĠBeweg ungs
Ġbereit gestellt
n eg
Ġum so
âĢľ ),
p age
A ktion
ĠK rim
Ġabge halten
ĠDok umenten
Ġver halten
Ġge lo
k au
war f
F ans
ĠVer ordnungen
Ġre c
ĠStud ierenden
if izierung
m otoren
Ġar men
i op
Ġevangel ische
ĠKonkur renten
ĠN iger
r ut
National mannschaft
pro t
o ke
Ġide ale
L iga
Ġbevorzu gt
ĠProdu zent
beit rag
h ans
kraft treten
on na
ĠIS O
ĠArznei mittel
ĠBau stelle
ĠU d
Ġeinge gliedert
f b
Ġstark er
ĠHil f
ĠT ote
lie be
feuer wehr
ĠDav is
ick s
( )
ĠW eich
Ġentstanden en
stÃ¤nd iger
ĠK reise
Ġer arbeitet
ĠInd ones
an schluss
d ik
ĠJ ar
ĠZ ins
ĠBed rohung
Ġstimm te
Ġrum Ã¤n
st yle
Ġh y
W ald
and s
Ġtechn ischer
in del
ĠB ienen
ĠWohn sitz
ĠEigen schaft
Ġunter liegen
Ġgest altete
Ġvergleich bar
ĠEdu ard
ov anni
aktiv itÃ¤ten
ĠÃĦm ter
ol in
ĠI b
Ġer eig
ĠMat ch
Ã¼ch ern
Ġed s
ĠAr min
r ise
Ã¤ tigen
ĠElekt ronik
ĠSamm el
de p
Ġd se
ĠHand lungen
ĠVolks republik
Ġber ichteten
C C
ĠRass ismus
ĠA llen
ĠR as
ver eine
ĠAb schaffung
s uchen
af fung
ĠMus ical
ĠRecht sprechung
Ã¤tig keits
zus agen
Ġverm isst
qu er
ĠVerstÃ¤r kung
Ã¶ pft
ĠL aser
et ische
andin av
as y
ĠÃľber zeugung
ĠG Ã¤rten
ĠM omen
ĠE cht
denk mÃ¤ler
ĠVer dienste
ĠM ei
D L
ber ts
Ġsp eichern
er zeugung
ĠF aust
ĠFest setzung
red ite
Ġstud ieren
ĠSt reich
ĠEnt deckung
S M
ĠAl i
Ġin t
e er
ĠJuni or
ĠFÃ¼ ÃŁe
ĠErmitt lung
ĠSc ien
pl Ã¤ne
Ġanges iedelt
ĠN HL
Ġliefer te
K ilometer
Ġtrain iert
iet wagen
ĠGer Ã¤u
ĠVo lle
Ġaus gel
R ein
zuf inden
ĠErd Ã¶l
ĠPil oten
ĠLen gth
P E
Ġauf geben
ĠAus fÃ¼hrungen
Ġs de
ĠEinzel heiten
Ġsan iert
il it
Ġ eignet
Ġer hebt
iden t
ĠPress emit
Ġ rÃ¤
ĠMÃ¤r kten
ro und
ĠAng reifer
ĠOze an
R echt
b io
Ã¤ uÃŁer
ĠÃĦnderungs antrÃ¤ge
ĠGesch irr
sprech partner
Ġverurs achen
Ġjetz igen
198 1
ĠE cu
ĠA ra
H z
O ff
ĠFl u
ĠRen aissance
r unken
ĠSt or
ĠVir us
Ġbe werten
ĠPl atte
arb on
ĠSyn chron
ĠGEMEIN SCHAF
sch alten
P rin
Ġs l
Ġs Ã¤
ĠUm stellung
So ftware
Ġm ater
ĠH Ã¤r
ĠArbeitspl Ã¤tzen
ĠGÃ¼n ter
rist all
Ġerg riffen
ju gend
ĠE ugen
Ġantwor tete
B ran
rei fe
ĠWehr macht
Ġkeines wegs
ĠgrÃ¼n den
bet reuung
ĠS ag
Ġregion aler
ver zeichnis
Ġneg ative
el er
ĠungewÃ¶hn lich
ĠB ow
ĠPer iode
ĠWieder sehen
ĠRen ov
Ġder er
Kont akt
Ġbe graben
ĠLauf zeit
ĠTh em
Ġab gelÃ¶st
Ġi Phone
Ġ189 4
ĠKÃ¤ se
ĠBu sch
em men
ĠAn zeigen
ĠAus sehen
ĠFra cht
ĠDe cke
ĠDenn och
ĠWissen s
ĠAud io
ent hal
Ġeinheit lichen
ĠV ON
uss ion
ĠR ac
reg ister
ĠAb bildung
E CD
Ġbeein drucken
ĠVer mittlung
Ġi d
Ġj enseits
ĠGefangen en
En g
spar ent
in us
Ġheim ischen
Ġst oppen
ger ichtet
ativ es
Ġu h
bef ehl
ol is
ĠEuropÃ¤ er
Z entrum
ĠP utin
Ġbew ahren
schu he
Ġs ank
ĠSon stige
Arab ien
B u
Ġes i
ĠdebÃ¼ tierte
pack t
Ġb rechen
ill es
yd ra
UR IER
ĠKÃ¼nstler in
Ġpol nische
Ġmin im
ĠBrun o
Ã¤u ber
ĠP ant
ĠD irk
bl en
Ġgemeinsam es
ĠGut es
g alerie
Ġ18 89
ĠSp orts
at on
ĠEich en
og o
ĠW ik
Famil ie
h ls
Dan iel
ĠZ iegen
ĠZeich nungen
ĠL isten
ĠC ott
Ġgaran tieren
ĠSitz ungen
j agd
Ġteil genommen
Ġd on
re a
wind igkeits
ian s
Ġm omentan
st urm
ip edia
Ġfol gendes
Ġerinner e
ĠAust ria
r Ã¶m
rÃ¤n kte
ĠSch Ã¶
schaft liche
Ġorden tlich
ĠS echs
fer tigen
pr esse
Ġ18 85
ĠStruktur fonds
c onsult
ĠF ix
ĠAmts gericht
Ġange stre
Ġberech tigt
P M
qu id
ic i
Ġqualif izierten
ĠMa gen
test et
Ġh ob
Ġk aiser
z eits
Ġ eig
ĠEin beziehung
ĠPrinzip ien
m ien
Ver b
ĠStr Ã¶m
Res erv
Ã¤ch tige
ĠMo del
Ġaufzu bauen
ĠPrÃ¼f ungs
ĠL esen
ger echt
v y
ĠDoppel bett
ĠBo ok
Ã¤ ums
ĠAnaly sen
ĠSchlieÃŁ ung
ĠAuft rÃ¤ge
ĠN ote
ĠEt hn
o ugh
Ġd ick
Gesch ichte
ĠSt Ã¼tz
Ġpro gramm
ĠWe lle
Ġsch me
ĠL uther
Ġverein bar
ĠverstÃ¤r ken
ĠS om
ĠBereit schaft
ĠLit auen
J ust
ĠSystem en
ek ter
Ġauf gerufen
ĠGroÃŁ her
ĠFlug zeuge
Ġb ild
Mitglied staaten
ĠMus kel
ĠFir st
H T
Ġf il
eister ung
ĠBres lau
ĠWorkshop s
Ġkonzip iert
H P
ĠAgrar politik
ĠSt all
Ġzit iert
Ġfl ach
Ġpoten t
Ġaus sieht
ĠPark plÃ¤tze
ĠYor ker
beit rÃ¤ge
Ġvor geworfen
ĠR ussen
ste ck
ĠTermin e
wahr scheinlich
fol io
Jose f
S L
klei dung
bed ing
K a
ĠRo ger
ĠMy th
ĠBÃ¤ umen
Ġ20 21
ĠA z
Ġi P
ite es
Ġjewei lige
Schlag wÃ¶rter
ĠC er
Ġf und
Dan eben
im o
Ġge fÃ¼llt
ĠSte ve
trem ulous
ĠA ven
ĠA ster
ĠR ied
ĠkÃ¤mpf te
h aven
Ġneg ativen
ĠE id
Fin ale
A f
hol ungs
b em
ĠF ÃľR
ĠPer formance
geb Ã¼hr
ĠDe al
ĠD utzend
ĠBe fÃ¼r
Ges und
s un
t arif
ĠTon y
ĠErdbe ben
ĠfÃ¼nf te
Ġbeg Ã¼nst
ĠEr klÃ¤rungen
schlieÃŁ t
ĠCH F
ĠGroÃŁ vater
wal de
Ġvor zeitig
v ious
rei ÃŁen
ĠMÃ¼ he
iz ierter
Ġbed arf
st isch
ĠÃ¼ber s
Ġeh emals
de utet
N ot
ĠEin trag
ĠCh urch
ĠD ublin
Ġauf halten
FrÃ¼ her
ynast ie
ĠEx il
e de
ĠArbeits gruppe
C ont
ĠBes onders
ĠlÃ¤nger en
Ġkombin iert
Ġver wies
ist isches
ĠW id
ĠG ir
Dienst leistungen
Ġgrundlegen de
ĠPrÃ¤ senz
ĠallmÃ¤h lich
P il
st einen
ĠÃĸ k
ĠSp reng
tp ro
Ã¼ch tig
ĠR ott
Ġinnov ative
ĠTechn iken
ĠPresse konferenz
co unter
Kl icken
ĠFre quenz
Ġper man
ĠIm age
samm lungen
ĠErd gas
ĠLi ver
spe ktion
re ter
N O
ĠGo ethe
ĠL em
ĠH ahn
W alter
O per
Ġk andid
ĠS afe
ĠNational park
Ġver leihen
ĠSh op
ĠF ul
ĠC amb
ĠAnfang s
ĠBes ser
Ġh arte
Ġtyp isch
ĠHar ald
Er nst
eg g
ĠSch acht
telle kt
Ver band
na ppen
ĠKÃ¶n ige
Ġ che
ĠN ATO
Ġe wig
del ten
ra h
ster ben
ĠD ikt
ĠZwei te
ition s
wo lle
te e
ein schlieÃŁlich
Ġseiner zeit
Dar in
ĠK Ã¶nnen
ĠSp rint
fin al
all i
Ã¼ch tern
ĠProvin zen
ĠStand orten
wand lung
N acht
Ġsch aut
ĠH amilton
ĠBo sch
ĠKor rektur
ĠSa una
Ä ĥ
Ġnach t
Ġk e
ĠOrien tierung
Ġs la
ot z
et isch
ar ing
ĠHÃ¤ fen
S terne
c re
ll i
Ġfre ute
ĠOl denburg
Ġeinzel ner
ĠTschech os
ĠPort o
ĠAuf lagen
Ġen orm
ĠSch Ã¤tzungen
recht lich
ĠBl Ã¼te
Ã¤hr ungen
Ã¼ chter
leh nen
ĠL ove
Ġr an
eg r
ec ts
Ġsp ont
et i
Ġleben sl
ĠEben falls
m mer
ĠSchal ke
ĠAth leten
ĠH Ã¼r
ĠTÃ¤n zer
Ġlie ge
ĠDra ma
rÃ¤ g
ĠNor bert
ĠEigent ums
Gemein de
l it
Ġindustrie lle
ĠA D
K unden
ĠMitgliedstaat s
ĠSÃ¼d ost
Ġzu gest
45 76
ĠA le
ob ahn
Ġ[ ...]
ĠPf ad
" "
z Ã¤
ĠEin er
brÃ¼ che
Ġfj of
ĠNationalsozial isten
Ġ189 1
Ġerw ischt
T urnier
ino is
ĠMac ron
t itle
ĠCoun cil
p ra
Ã§ ois
D IE
Ã¤ isches
Ġsch ar
ĠRob oter
Ġfreund lich
ĠIn krafttreten
ĠTyp s
Ġd ienten
Ġkor rig
ĠRen te
ĠAn schlag
E isen
y an
ĠFra ktionen
be cker
Ġkonfron tiert
sp eicher
ĠHoll and
Ġumge kehrt
ĠS ack
S ee
et ischen
Ġge Ã¤uÃŁert
j d
Alex ander
ra ham
Ġm ill
ĠB ie
Ġschw anger
il o
wel che
Ġleben de
ĠCar los
T em
R om
ĠGesprÃ¤ chen
ĠNap ole
ĠCorpor ation
l ach
uer st
Welt meisterschaften
bayer ische
Ġwunder bar
ster s
Ġun gew
ĠgewÃ¤hr en
Ġre alen
ĠD rachen
ĠAn lauf
ĠGem ark
ĠH ugo
B a
ge e
ĠÃĦnderungs antrag
ĠVerl ags
Ġs uche
ĠSold at
S H
ĠD NA
ĠB alk
Ġlang jÃ¤hrigen
ĠWar schau
ĠU s
Ġanti ken
ĠStand orte
ĠZentralb ank
Ġmittelalter lichen
ĠRu der
ĠUn tern
Ġbegeg nen
ek u
mann schaften
ĠSchwarzw ald
Ġbr ut
Ġinstall ieren
ir i
ite ktur
Ġerk annte
R aum
ter min
ĠP ist
Ġirgend was
ĠLa sten
ru hen
arb eiteten
ar nt
ut ze
durch schnitt
J emand
sig Free
ĠjÃ¼nger e
ĠCarol ina
ĠZ iegel
stÃ¤nd igkeit
sigFree Id
b ri
in ki
Ġge zahlt
ĠVer dienst
Ġbundes weit
Ġgew ohnt
ĠgrÃ¶ÃŁ ter
ĠBel ast
ist ern
Ġex klus
res pon
Ã¤ ts
ĠZÃ¤ hne
Ġs m
Ġ3 60
tro ck
ald ate
stand es
on anz
Ġbesch eiden
schaft lichen
zeit schrift
ĠBronzemed aille
ĠL av
otoc ac
K R
76 4576
icc aldate
Ġnach folgenden
ĠRahmen bedingungen
ĠP os
Ġ24 0
Ant wort
el i
ol ph
merk ung
Ġserv iert
Ġsorg ten
Ġb rennen
ĠTr ier
R ef
Ġum gebracht
ĠI dentif
sk o
Ġde ze
Ġ ***
du le
ĠCha os
ĠÃ¼berw inden
g ard
van ia
ĠP ay
D s
bezogen e
v l
stre ben
ĠK ein
F a
ĠWar n
/-/-/ -/
ĠVerb Ã¤nde
ĠW Ã¼ste
ĠberÃ¼hm te
ĠStreit krÃ¤fte
hÃ¶ fen
ĠInform atik
la va
ĠdÃ¼r fe
ĠAnge stellten
aun en
al ts
ĠTem p
ine a
ĠFlÃ¼cht lingen
Ġerl itten
ĠEr fordern
Ġgest richen
Ġver teilen
p ension
f x
m ission
Ġi h
Ġhinzu gefÃ¼gt
br eitung
bet rieben
ĠV il
ĠDen ken
Ġan wesend
ĠAus wertung
Ġwirtschaft licher
ĠBeschÃ¤ftig te
ĠFraktion s
Ġp al
ĠAuf fÃ¼hrung
Ġwen det
hand lungs
Ġries igen
ĠS z
Ñ Ĥ
ĠA ct
Ã¶pf en
Ġsie bten
ĠSe elen
Immer hin
ogra fen
ĠResiden z
ĠHer e
H u
fin gen
L Ã¤ndern
Ġs ingt
ĠhÃ¤ufig sten
ĠDiet rich
y g
Ġst ring
Ġs Ã¼
Ġgr Ã¼nd
Ġregul Ã¤ren
alis ierte
ĠHimm els
v u
Ã¶st liche
Bahn hof
Ol ymp
oler anz
at ing
Ġwieder holen
ĠSie mens
Ġn ament
ĠJahrhund erte
ĠMedik amente
ud a
Ã¤r zt
Ġa si
Ġer Ã¶r
zeug te
Alb um
ĠMar in
dr om
ab a
ren te
Ġpfl anz
ĠIn stagram
Ġopti male
reu den
ĠAus wÃ¤r
eh st
d own
Ġidentif iziert
ĠB uck
An frage
ĠE w
ĠF unde
Ġauf wend
ĠAn th
ĠgelÃ¶ scht
er kennen
ĠN i
finanz ierung
ĠWer ks
ĠGed Ã¤chtnis
sper re
lie ssen
str Ã¶m
ĠWirk samkeit
Ġk ass
Ġ( -
ĠT ut
Ġangrenzen den
ĠHeil ige
ĠChar lie
Ġg Ã¤be
auf gang
ĠSt ark
bl enz
Ġl it
Ġges amt
Ġenthalten en
ĠW ater
Ã Ĺ
Ġdurchge fÃ¼hrten
Ein fach
ĠBoch um
H ann
Ġk ehrt
ĠR olf
Ġt anzen
out ube
Ġfehl te
ĠJ eder
Ste ll
Ġgros sen
ĠTelef onn
ĠFl ur
z it
ĠBl itz
Z uerst
ich ern
Ġverp asste
ĠErkrank ung
fer ence
ĠStud iums
Ġverb racht
ĠS end
ator ische
eb urg
Ġeinheit liche
Er gebnisse
AR T
Ġzug ute
bel astung
ĠDe v
Ġan rufen
Ġstet ig
Ġprom inen
ĠKonflik te
bereit schaft
Ġvorber eiten
ig ation
ĠHand werker
ort hodox
H om
z io
m ak
andel ten
ĠH umor
ger e
ĠDurch gang
K rieg
m auern
ĠL ass
ĠB auf
roh ungen
w iki
lauf enden
ro gen
ĠT rin
gend a
Ġf liehen
ĠÎ Ĵ
Qu ote
ĠAutor in
J ean
ĠH Ã¼tten
Ġz eige
ĠWÃ¤l der
Ġ( ;
Ã¼ hen
Ġent spr
ĠAward s
ĠRe zept
we et
Ġmont hs
Ġge testet
Bet rieb
zei tige
T al
gesch nitten
D ownload
Ġ186 6
ĠEr t
kreis es
ĠB ug
ste x
m os
ĠSund ay
" ><
ĠR end
ĠPl en
ĠGer Ã¤ten
Ġl n
Ġ18 74
ĠL ap
gew Ã¤sser
Dar auf
ĠInd ikatoren
m ischen
ĠK ram
lei te
ĠLe x
ĠO ran
O ft
ĠGesetz gebung
ĠGal ax
L Ã¤nge
ĠSP Ãĸ
r un
p ag
ĠBiele feld
ĠmÃ¤nn liche
kt ors
ver se
ren zung
ĠNach kommen
ĠBus se
ĠSch ock
ĠSchr Ã¶der
sp rÃ¤sidenten
ĠPh otos
hÃ¤ us
Ġunzur eich
sp ol
Ġiden tisch
ĠRad fahrer
H off
Ġwus sten
W a
ĠPro tagon
ho se
Wer den
Ġp arlament
ĠDÃ¼sseld orfer
ain s
ĠInterpret ation
ĠDis sert
Ġg Ã½s
Ġnach richten
ĠSo ft
Ġtraur ig
us ste
Ġver ank
Ver walt
ĠBesonder heit
Ġrad ik
k ru
ĠDem okraten
W E
ĠP ad
ĠStud ios
im ents
ĠWest falen
Ġabend s
OR D
ĠZ wie
Ġbe arbeitet
Ġleg ten
ĠF riday
ĠLiver pool
Ġrecht liche
ur ger
ah u
f ac
Wir tschaft
ĠW ut
Ġbef re
ĠJ am
stÃ¤d te
c uba
ĠendgÃ¼l tige
Ġregel mÃ¤ÃŁigen
ĠAnhÃ¶r ung
ĠAus arbeitung
Aut or
produ kten
ĠEinfl uÃŁ
or er
Ġb richt
S K
Ġgesellschaft liche
z g
Ġi ran
ĠC our
Ġ7 50
ĠD ram
ĠCharl otte
ĠN etto
ĠIn schrift
amarillas l
ĠW ies
ĠF I
ĠBo ck
Ġphil osoph
ĠKon zepte
ieren der
Ġt iefen
G ast
ob s
Ġlei stete
w anne
ĠT rik
Ġwo fÃ¼r
drÃ¼ck en
F ort
ĠH Ã¤ft
bra un
p sych
ĠEin sÃ¤tzen
ie ben
Ġver eint
ĠGreg or
ĠLegen de
her z
all a
ĠCast le
Ġzw angs
ĠbegrÃ¼ ÃŁ
ĠL isa
ĠÄ Į
ĠPl att
auspiel er
Ġl ove
sprogramm s
bek Ã¤mpfung
h ese
ĠSch Ã¶pf
St ation
ĠS Ã¶der
Ġhinter her
auf sicht
ĠerlÃ¤uter te
W F
et ra
Ġzur echt
ĠEt age
ach us
ĠB uen
Ġzw ingen
up e
ĠT rÃ¼
Ġd ez
ĠgrÃ¼n e
ĠDist rikt
ĠW Ã¤nde
Ġl Ã¶st
Ġbemer ken
le utnant
ĠDes halb
Ġeigen s
In vest
ĠTh ursday
Ã¶ff neten
Ġn imm
Ġf ur
Ġhistor isch
Ġgelten d
vor schlag
ĠFreitag abend
L eg
ĠEurop ap
kon g
Ġde cken
leich en
ĠClau dia
R hein
E FA
ĠFluss es
Ġbe wiesen
ĠPrÃ¤sident schaft
ĠO der
ĠFernseh er
Ġb vg
v illa
ĠS orten
gra fen
ver bo
ĠPh arma
Ein mal
Ġeinz ig
ĠBe achtung
ĠBas il
ĠB arb
ehr ung
ĠG ieÃŁen
Ġal arm
Ġinteress ieren
Ġw omÃ¶glich
v ed
de e
Ġfestge halten
eigen en
Ã¶r tlich
Zahl reiche
problem e
Ġvertra uen
Ġher zustellen
es day
ĠEta ppe
ĠReich weite
K Ã¶l
Ġge lebt
geb unden
ĠSch okol
B re
ĠLe ber
M AN
ĠWer der
W ER
hoff t
P re
ĠermÃ¶glich te
ert or
t rat
Ã© d
w unsch
ĠkrÃ¤f tig
ĠmÃ¼ de
Ġarg umen
ĠO ri
S at
Ġein gel
Ġh arten
r b
ĠReform ation
Arch iv
ĠUnter grund
gebiet es
ĠMed aille
ph ia
ti a
ĠSn ow
fil me
ĠNachbar gemeinden
ĠG od
ĠElekt riz
anz eige
Ġglob ale
ĠAc tion
Ġin mitten
ĠT ruppe
ĠLebens mitteln
ĠZw ill
ĠKan ad
C al
Ġverf asst
ĠBen utzung
? ",
Ġvorhanden e
Ġp unkt
ĠChar ts
ĠV Ã¶
ĠGlob al
Ġso for
Ġausger Ã¼stet
d rei
ĠAufsichts rat
Ġ eil
ĠW end
Ġf ir
p y
ĠNutz ungs
J es
heit lich
ĠIm per
ĠSab ine
B ot
ĠKat al
F o
schw itz
Ġgew Ã¤hlten
ikan ten
ĠL ungen
Ġ18 75
Ġleben s
ĠLei h
aut o
v ens
ĠDie bst
ĠEben so
d iv
ĠS K
ge mÃ¤
ĠAn ders
ĠG umm
we den
ĠKat hedrale
Ġbede utete
Ġent z
ĠRot ter
Ġvor legen
ĠTor hÃ¼ter
ĠSil v
spor ter
az it
ĠstÃ¤nd igen
ĠWolfs burg
ĠC B
ĠLuft fahrt
ĠAir port
ĠR TL
Mittler weile
liegen de
syl vania
Ġun zÃ¤hl
ĠE valu
r m
om etr
Ġher ein
kti sch
ĠKrie ger
au g
Ġ @
Ã¤m men
fr anzÃ¶s
ĠKol umb
ĠK ick
ĠD B
Pr ess
ĠAktiv itÃ¤t
ĠCol umbia
Ġt here
Schl af
ĠSkla ven
alen te
Ġnach voll
ĠgrÃ¼n deten
iw od
hel fen
ĠT eich
em mt
man gel
ĠOst see
b rief
i od
Bek annt
par tements
Ġaus ser
imm ungs
V ater
C arl
eg n
o id
ĠF uss
best Ã¤nde
ge laden
v m
ĠM ater
ĠDes igner
Ġmit unter
Ġgemein nÃ¼tz
ĠKomm andeur
Ġvoll stÃ¤ndigen
sch ub
ĠH eiden
Aut o
Ġzeich nete
Ġlauf ende
t ausend
ĠPersÃ¶n lichkeit
on omen
wort h
ĠÃ¼ber liefert
Ġun besch
ĠTex ten
ĠGast ronomie
ent scheidung
ĠIns zen
ĠPro v
l h
Ġk Ã¤mpft
ĠTri o
te or
rei be
ĠCo ver
ĠBo ots
ĠPfl anze
A p
AND EL
le e
v ie
ĠR eicht
ĠGÃ¶t ter
ĠSyd ney
un ft
me tern
ob i
È Ļ
Ġfinanz ieren
ĠVer schiedene
ĠGew Ã¤hr
ĠPa der
kor de
Sp anien
ĠEnt schÃ¤d
K u
M ac
t Ã¤tigkeit
Ã¤n kischen
komm un
ĠJob s
W Ã¤hlen
ĠY e
Ġerweiter te
T ran
Ġein gesetzten
ig r
Ġerled igen
D ur
Ġb rÃ¼
ĠtÃ¶ d
W in
ĠWed nesday
Ġ4 000
zu halten
ĠSing apur
ĠRicht ungen
gel der
iz z
steh end
t rÃ¤ger
ĠB rat
Ġher zlich
Ã¼ e
ĠAb fÃ¤lle
ĠUnterricht s
ĠK it
Ġbin nen
ĠEr holung
ĠÃľber gabe
Ġc omm
Dem nach
Ġeinzel n
sp rinzip
ein g
Ġhor izont
Ġre de
ĠVo gt
ĠgrÃ¶ÃŁer er
L ink
ĠKÃ¤l te
ĠT am
j k
ĠH aben
ank ungen
ĠTour en
iz abeth
ĠAb d
Ġnachhal tig
Ġ( ),
ĠPf lichten
ist ry
Ġwei ss
B aden
Ġf ing
ĠC ard
Ã³ w
onn ement
br ingt
Ã¡ s
G est
ĠG D
Ġf angen
ĠSt ory
ĠS af
ĠV eter
ĠZ oo
R ob
Ġaus b
minist ers
un ch
ĠH ed
Ver anst
such ungen
ĠVertra uens
ĠSal v
Ġbed ienen
Ġgrundlegen den
T om
ĠTay lor
au ben
n ik
ĠB enn
esen de
ĠEst land
res erv
f unden
m Ã¼n
best immung
ar ben
ĠEin stellungen
Ã¤nd ischen
Ġum gehend
Ġ ungen
gesch Ã¤fts
Ġb itter
ĠDiagn ose
chten stein
ĠzulÃ¤ss ig
ĠD Ã¼
> >
gr Ã¼ndung
ĠPf alz
ĠCon c
h ungen
ĠThe at
All gemeine
Ġun ber
uz ierung
Ġunbek annten
Ġwest liche
R el
" >
du ktion
Ġin f
ungs weise
ĠVor schlÃ¤gen
ĠZusammen halt
Ġdun klen
ĠTick et
Frank furt
steiger ung
ĠG ot
ĠSe ktion
Ġan wend
ĠÃľber trag
at us
Nieder lage
ĠLiebl ing
ĠSam uel
Ġsch ickte
min ton
ĠC ho
ĠG ie
Ġgros se
ĠVirgin ia
Ġattra ktiv
ĠB T
ro id
ĠKoalition s
Ġherunter laden
Ġ18 79
al m
ĠGrem ium
Ur sprÃ¼nglich
Ġw ettbewerb
ĠDemonstr ation
icher te
ĠMehrwert steuer
ĠTu esday
ĠFla sche
ry pt
S il
ĠBeg eisterung
ĠSÃ¼d amerika
ĠHan se
ĠB ut
gien e
ĠMinder heiten
SS R
ĠBer echn
Ġad ministrat
gemein schaften
komm and
Ġtar get
Ġs or
ĠEle ct
E E
Ġw po
rie chen
im ler
ĠR ico
n ord
ĠDokument arf
Ġbes ieg
eiter n
ĠTechnolog y
beweg ungen
ĠE L
ĠAuftrag geber
ĠWeil er
Sti mmt
Ġmark iert
ĠzukÃ¼nf tigen
ĠÃ¤r zt
Ġeinge halten
e uropa
ph il
Ġer mu
Sp iele
Ġaustral ischen
ĠK Ã¤mpfe
Ġ18 87
ĠMon day
inst all
Will iam
ĠSch er
ĠEinsch rÃ¤nkungen
Ġum zusetzen
for me
ehr e
sh ire
s Ã¼d
den z
Ander erseits
ĠfÃ¼hl te
ĠZ a
ĠJahr est
ĠZeu ge
) ".
ĠL ED
ĠS ymb
ĠN ass
r er
ĠSerb ien
it hm
ĠB ody
o ge
Entschuld igung
ĠD ifferen
ĠerwÃ¤hn ten
Ã¤ch ern
ĠH ur
ĠEntschlieÃŁ ungsantrag
Lin ie
nungs zeiten
ĠHigh way
Ġsin kt
men sch
ĠB rad
sp richt
Ġeinzigar tige
ĠP ens
Johann es
ĠÃ¼ber mittelt
Ġnach weis
ĠSympt ome
ĠM Ã¼tter
elt a
ĠJur ist
ĠSyn agoge
ĠKolle ge
z es
Ġlange m
Ġ186 8
Ġabgel eitet
Ġorganis ierten
ĠflieÃŁ en
Ġarb eiteten
onen te
Ġeffe ktiv
ĠSch affen
ei hen
M oment
ĠG ur
ĠW i
Ġ186 7
ĠD ess
ĠHalb jahr
ĠProp ert
BI L
sche e
ĠD ei
dien sten
ĠVor les
zu bringen
Ġverw andelt
Vor pommern
Ġqualif iziert
d im
komp eten
z h
mir al
r te
ven ten
k Ã¤mpfen
ĠB od
ĠMess ung
Ġgere det
Ġportugies ischen
ĠK Ã¶r
bezogen en
Ġeinge mein
ov ac
gott es
Ġkonta ktieren
ĠnÃ¤chst es
Ġunter nahm
ĠErd ogan
ĠBrauer ei
ĠT rÃ¤nen
Ġam tliche
ĠRom a
T B
ĠBrie fe
Ġ2 10
Ġ18 86
riv e
Produ ktion
ĠLast wagen
imm te
ĠOber Ã¶sterreich
ĠL an
ser klÃ¤rung
ĠSch irm
ĠJer sey
Ch ar
st age
ĠM eine
ĠÃ¼bersch ritten
Ġkon vention
ĠT enn
Ġvor gegeben
Ġjen em
tr emen
ĠP ow
Ġschwed ische
D auer
ĠN ummern
Ġth eir
view topic
Bo ot
zen zen
ĠBer ichten
Ġmit hilfe
it at
F lÃ¤che
Ġung esch
T ri
ĠLebens jahr
it Ã¤n
Ġschein bar
1 30
ĠSkulpt uren
kauf en
Ġbet re
ent z
Teil nehmer
ĠGrÃ¼n e
ĠP ia
ĠU ser
ias ieger
ein em
ĠstÃ¼r zte
ĠPerspe ktiven
Ġh ar
ĠLaur a
Ġregel mÃ¤ÃŁige
mode lle
omm y
Ġauf bauen
ĠL ock
Ġern euten
ĠKn ei
ĠRep ort
Ġex ternen
eist ungen
lei dete
% ,
I O
Ġk at
old t
ir us
ĠSch ub
ĠWeiter hin
ES CO
ĠGlei s
fel den
Ġveran l
ĠWupp ertal
Ġform uliert
ĠBenz in
ar ab
Ġbil ater
ĠDien sten
Ġarab ischen
T ro
ĠUhr en
ĠBehinder ung
ĠUmstruktur ierung
ĠGew issen
ĠerhÃ¶ hten
f otos
ĠSozial demokraten
l g
s at
ĠB uk
des ign
ĠF ound
ĠGl Ã¼cks
o wer
adel phia
B EI
Ġd rÃ¼ben
ĠUS B
Ġbe zeichneten
ic z
Ġt jdi
ut a
fÃ¼hr ende
For schung
ogen e
Ġhervor ge
ĠValle y
R ec
ĠA y
Ġnational sozial
sch einen
ron g
ĠFla schen
Ġvorher igen
Ġintegr ierten
ĠHon ig
c io
ĠWo iwod
Ġbeher bergt
c ed
Ã¤ uft
ĠNach kriegs
ĠG Ã¼te
Un s
vo gel
ĠBetrieb ssystem
Co ach
ĠZwei ter
Ġor igin
S echs
ĠEr findung
ĠZ usÃ¤tzlich
rik e
b ing
Ġan zunehmen
Ġkorre kt
am me
ari us
ĠL eut
man ischen
Ġk ro
ĠBeg leit
ĠAt tent
Ġbek Ã¤mpfen
AR D
ĠP ur
Ġstand ard
M P
Ġzunehmen de
Aus wahl
ĠAuf steiger
be wohner
ĠExper iment
V al
leiter in
ĠA mm
es heim
sp ringen
beam ten
Nach richten
Ġerhalten en
be kommen
ĠItalien s
ner in
vers uche
inst itute
Ãľ b
wir d
ĠUn glÃ¼ck
H andels
Ġ18 72
ĠElf meter
ĠMag n
ph ys
Ġung arischen
rau ben
Ġselten er
ĠLe er
b els
ten nis
Ġ18 84
tig keits
ĠFl ash
stud io
Ġtranspor tiert
sch le
Ġber Ã¼hrt
Ġges ungen
Ġman geln
ĠverstÃ¤r kte
ĠLein wand
ĠV at
Ġvor liegt
ĠSp inn
ĠVergn Ã¼gen
ĠC ass
Ġsport lichen
ograph ische
Ġwollte st
ownlo ads
ĠGeschÃ¤fts ordnung
B ox
ĠLew is
Rich ard
sch ichten
if tet
ĠnÃ¶ tigen
ĠAussch reibung
ĠF BI
Ġbe auftrag
Ġverm ieden
ĠMay er
ĠP on
trag s
ech e
ĠAir es
Ġp osition
ĠChrist ine
ĠU pdate
Ġc n
Ã¼n kt
f ie
ĠBisch Ã¶
Ġan zusehen
geord neten
ank s
ĠNieder Ã¶sterreich
TI ON
Ã¶l zer
Ġoffen er
Ġuner war
D ra
ach tete
ĠÃ¼b licherweise
ĠKommand ant
ĠVol ker
insel n
jÃ¤hr lich
Ġgesch ossen
Ġrenov iert
d an
Ġo ther
stand ards
N et
ĠI hm
le f
ĠBos nien
Ġkap utt
Ã ¯
ĠW ester
Ġer m
re z
vin z
person al
Ġl anden
lÃ¶ ser
Ġzahl t
Ġangegeben en
sch reiber
W IRTSCHAF
Ġ- -
u o
pd f
ĠEn dr
ĠPrin zen
s in
Ġlok aler
A bst
ĠOper ationen
frist ige
br Ã¼cken
ĠL ight
ow itz
ĠstÃ¤d tische
ĠPor sche
Ġhin weisen
ĠEin zugs
ru d
mus iker
Ġk op
Ġhef tig
Ġzu gewiesen
D ad
ant o
19 78
TER N
ĠT R
Ġvers orgen
ĠNational en
pr ise
M c
R eich
Ġerfre ut
ĠBeschluss es
ĠRe eder
ĠArbeit nehmern
or ger
ĠMon ster
ĠH eid
liess lich
geb ir
l etzten
Ġange meldet
ĠK ai
mag azin
ĠVo llen
Ġphys ikal
p es
ĠK Ã¼nd
ĠVor bereitungen
Ġwert volle
Ġg Ã¤n
ĠN oti
ĠzukÃ¼nf tige
orn o
Ġbe zog
Ġreich lich
ĠsorgfÃ¤l tig
Ġf urcht
press um
ĠMall orca
onst ranten
n ischer
ĠÃĸ VP
Ġentsp rach
f oto
Ã¶r er
Ġd umm
G ed
Ġwachsen de
S ing
ĠM Ã¼ndung
ent a
Web site
an forderungen
ĠEnt lassung
ĠUnter brech
ar mee
min istr
Ġstra f
Ġbesch rÃ¤nken
Gl Ã¼ck
M B
M t
ĠPhil harmon
ĠNe apel
Erst mals
ĠSp eise
ĠGegen zug
ĠSuper markt
ke ller
Ġh eutzutage
Ver zei
Ġuntersch rieb
d b
Ã¼t zlich
Ġsen ken
ĠVer stoÃŁ
beauftrag ten
ren a
IN E
n Ã¤chst
ot herapie
Ġ ).
Ġro ad
w il
ĠMo or
Ant on
ystem s
ĠN G
ĠP iet
st or
end igung
M ietwagen
instrum ent
ĠKriegs gefangen
Ġlangfrist ige
P an
ce p
Ã¤tz chen
I l
ĠAn sÃ¤tze
ĠJur a
Ġver deut
Ġind ischen
ĠMÃ¼n zen
Ent scheidung
Ġbew Ã¤hr
ĠModer ne
Ġs yn
z ielen
ĠSied lungen
B ro
Ġe c
ĠJon as
n f
Ġc le
stÃ¤d ten
Ġmar kt
Ġ18 73
2 14
D re
ĠBe sten
ĠMo tive
ur b
ĠE arl
ign al
Ste llung
Ġber eiten
ĠO hne
v Ã¶gel
ĠMinister prÃ¤sidenten
ĠPri x
ĠW is
ĠProp ag
um pe
verl etzungen
ol t
Ġ/ ></
ĠMittel bayerische
ĠGeschle chter
Ġerl angen
ĠO f
lÃ¤ uft
W i
op ing
f ile
ĠG m
ĠNord west
Ġp Ã¤dagog
A E
Ġletzten dlich
eg a
H istor
ĠDynam ik
AT T
ĠReg iment
ut ung
ĠLÃ¶ sch
alis ierten
ste urop
C lau
Ġf ind
ĠBi bliothe
pf alz
ĠmÃ¤ch tig
ĠN at
ser gebnisse
ĠVer leihung
Pr esse
v arian
ĠSt Ã¶rungen
ill igt
ĠVermarkt ung
itte e
Ġdem selben
ĠLehr stuhl
Wohn ung
ĠWohn raum
ĠEr Ã¶ffnungs
ĠTat ort
Ġ18 82
ĠCor ps
ĠEr fassung
ĠCamb ridge
ĠK atze
abhÃ¤ng ig
sk ar
ĠChe ck
Ġ18 81
v it
ĠstÃ¤rker e
Ġt fj
agn ost
Son stige
un ternehmer
F el
ĠNetz e
nach lÃ¤ss
ĠBon us
ĠAuf teilung
geben d
ch a
Ġerf unden
Ġd ritter
Ġin ten
ĠAlb ums
ĠGi pf
Ġl oc
ĠT uch
Ġir re
Lie be
ĠOx ford
ĠI ron
ol ischen
Ġgleicher maÃŁen
nehm lich
c ond
gel ernt
Famil ien
werk statt
ĠH ild
Gr Ã¼n
al p
sch ern
upp ort
M axim
Ġschritt weise
ÃŃ k
ĠMÃ¶n chengladbach
ĠU rug
ĠMo on
Ġs ynt
ĠÃ¤hn liches
g b
Ã¤r kt
Ġausgew Ã¤hlten
tain ment
ĠPrÃ¼f ungen
sp rÃ¤
ran ke
ĠD ob
Ġent hielt
B ayern
Ġg ib
ĠLy on
ĠerwÃ¤ hnen
Ġw ho
ĠEtw a
ĠGe webe
k rimin
ĠNav y
ĠHels inki
ĠO RF
ĠHoch zeits
wissenschaft lichen
en r
Î ±
u ls
Ġt her
ic er
ĠSpann ungen
Soll ten
tion al
C ity
k redit
ĠfÃ¼ gte
Ġverm ehrt
ĠM auern
ĠGed ichte
Gr Ã¶ÃŁe
New s
ĠVer sprechen
ver handlungen
f aktor
Ġsp rich
ie ge
achus etts
ĠP for
ĠEvangel ischen
T ja
ar tiger
ĠF lieger
N U
Ġher z
ĠDek or
Ġir ischen
funktion en
b recher
bau ern
Ñ ģ
ĠSekund ar
ĠMa is
ĠOrtst eile
ĠZentrum s
Ġn er
isten ten
Ġt reu
ĠProdu ktivitÃ¤t
ĠgewÃ¼n schte
ĠTor wart
Ġzeich nen
ei b
ĠF lie
ĠStraÃŁen verkehr
1 12
Ġdies el
Ġforts etzen
ob ei
ĠPoliz ist
stand ort
yr ight
Ġatt ack
Ġges unken
Ġann Ã¤h
Ġhatte st
Man ager
Ġein fluss
io den
ti us
sch ne
oll y
J ames
ĠR och
w orte
S r
H K
it us
ĠGeschw ister
ĠInfl ation
ĠAb gaben
Wor ld
ĠGrund stein
Ġschw immen
Ġf it
Ġol ymp
ĠIns besondere
PP E
rÃ¼ ÃŁ
ĠKlei d
ĠHaupt straÃŁe
W inter
igen d
ow o
ber ichten
Ġc u
Ġgenau en
2 50
schei ben
Ġw ork
glei s
c os
f se
ol s
Ġnament lich
Ġbra uchte
Ġ18 83
ig l
Ġt anz
ĠWil son
Ġh m
ĠschÃ¶n es
ĠTelek om
ĠZeit ungs
ĠSt olz
Ġer laub
ho e
T ex
ik ator
Ġand auern
ĠM essen
ĠRev ision
Ġlie st
ĠBinnenmarkt es
Ġsp ir
ĠKatastrop hen
te ch
ĠGesch ehen
ĠfÃ¼ llen
Ġein drucks
Ġung lÃ¼ck
Ġfl Ã¼ss
gen annten
Ġex p
Andre as
ĠJahr esende
ĠEr forschung
bour g
h ub
ĠPo int
ĠHaft ung
ĠG ib
ĠAn kÃ¼ndigung
ech ter
ĠAuf treten
ĠHard ware
ĠGemeinsam e
sp ektor
Ġent fallen
oph on
ĠÃ¤ gyp
ĠPfl anz
la de
Ġre det
Ġkurz zeitig
fl Ã¤ch
ĠTrend s
Ġ om
Ġhal bes
ĠP it
ib le
ĠNieder lagen
ĠQue en
ĠGott fried
ar ien
ĠTor onto
' m
pl us
Ġern eute
V iew
Ġw hat
P T
k enntnisse
Seit dem
ĠKomprom iss
zu bilden
Ġprofession ellen
ist s
Ġisrael ischen
Ã¤ mm
Ġgesch l
Statt dessen
beg riff
ĠKontin ent
ĠBed ingung
E t
Ġe fn
ĠUn fÃ¤lle
ĠMit tern
ver schmutzung
ĠBeob achter
ĠP ier
R en
if ikation
ĠVerein igtes
ĠVul kan
ĠVerb und
ump ing
ĠTur in
Ġwer e
ĠSch en
ĠIm port
Ġsex uelle
n k
Ġi c
ĠTradition en
betrieb s
ĠAl ger
ĠKatastrop he
ĠÃĸsterreich er
ĠIndust ri
ei e
ĠFall s
ad os
Ġreligi Ã¶se
c ul
ĠAus blick
ĠSt rich
oc aust
ĠAchtel finale
A uft
ĠAn bet
hm ann
ĠSch mel
beauftrag te
ma ier
wechs lungs
h ammer
Ġbed ing
Ġver ant
**** ****
usse ll
ĠUrlaub s
Ġerfolg los
Ġwert voll
Ġausger echnet
ĠLiefer anten
Ġein genommen
ĠFor schungen
Ġbeein druckt
Leben s
Ġjeg liche
Z eitung
ĠFund ament
ĠDar stellungen
schl af
Ã¤ch se
Ġthe y
ein nahmen
ĠFein de
sex trem
Ġunter ird
Ġge gliedert
ĠK ent
US S
ĠO ECD
âĢĿ ,
Ġdat iert
d c
ĠGn ade
ren e
ĠAbteil ungen
au gen
ist um
Ġinter ne
L ange
Sie ht
Ã¤s se
Deut sch
ĠGi ovanni
J edoch
ĠFerien wohnungen
ĠPrÃ¤sident schafts
J Ã¼rgen
ĠWer ft
rad or
Ġm athemat
An ge
ber ufen
An na
ĠDissert ation
ĠdÃ¤n ische
z eilen
ĠWir bel
z s
Ġaus Ã¼ben
ahl en
hel fer
ĠOff ice
ĠKon stru
Ġtra vel
Ġan schlieÃŁen
Ġsch oss
isch te
Ġverbunden e
ĠAn sprechpartner
C A
i y
ĠGenerald irektion
ah ll
ĠB og
Sp ezial
ĠBele uchtung
On line
Ġtran sparent
be wertung
beh alt
Ġord nungs
Ġum bringen
gesch lecht
ĠN ight
Ã¶s es
S and
ir urg
ĠInvest ment
ogen en
b f
ĠC av
ĠVoll zeit
bil dern
e urop
F OR
ĠJ ag
Gem Ã¤ÃŁ
ĠI G
Ġange stellt
ĠMitte le
ĠMarc us
Ġw echselt
Ġr em
ĠFre der
mÃ¤ÃŁ iger
Ġk reis
rÃ¼ck te
Ġden selben
ĠZu hÃ¶rer
na den
kraft werk
fÃ¼hl t
Ġgest Ã¼tzt
Ġanzu bieten
Ġx j
ĠErkrank ungen
ĠRechts sache
Ġintegr ierte
br uchs
gra m
Mar ie
Ġent kommen
Ġflex i
mm etr
Ġl t
hÃ¤ s
wert ungs
Ġfort geschritten
Ġvergleich en
ĠDat a
Ġruh igen
Ġ18 78
Ġzunehmen den
an aly
Ġnachhal tigen
ic y
ĠW oll
ĠDeck ung
st urz
ĠBe endigung
ELL E
ĠSchull eiter
ĠBer ger
ĠPf eil
ĠP ick
ĠSp eisen
ĠZentr ale
s ituation
Ġunterrich tete
ĠA pfel
ĠF F
l ande
ĠE S
10 4
gerichts hof
est ers
gesch ichten
fÃ¤l ischen
Ġidentif izieren
di ot
ĠAusw eitung
ĠEm s
ĠChrist opher
H abe
C E
Ġbeant wortet
ĠÃĸsterreich ischen
Ġauf weist
Ġbe gehr
Ġw ander
ĠPrakti ken
ĠÃ¼ber wie
ĠKa sten
offiz ier
ĠBon ner
ĠNachhal tigkeit
hin ter
f ries
sch Ã¤r
ĠFavor iten
ĠAir lines
berech tigt
Ġk olle
consult ants
ĠBegegn ungen
ĠB v
ĠHerzogt um
ĠTages zeitung
ĠDrei ÃŁig
Ġzwischen zeitlich
ud ad
ĠBet rÃ¤ge
ĠCom ic
ĠL j
ĠViz emeister
ĠVe get
ut es
ĠEhren amt
eb ung
lÃ¤ d
ĠKo blenz
zu kommen
ur al
ĠÃ¶rt liche
ĠWelt raum
ĠAx el
ĠEin s
Ã¤chs ische
c at
ige b
R ichtig
Ġt ha
lo h
ĠBakter ien
ĠInstrum enten
ĠS ehr
Ġ18 76
7 00
d amer
Ġ18 15
gr Ã¶ÃŁen
Ġ186 1
ĠCh allen
be e
Ġabsolv ieren
fer tig
ĠgewÃ¼n schten
Sch utz
ĠOffen sive
ĠRed uzierung
Ġl ernt
ĠC hal
ĠAr sen
B lack
D ivision
pu ertor
ĠSand stein
Ġver schaf
L Ã¶
gen s
ĠK amin
Ġger Ã¤t
mit tels
ar ticle
M n
p rinzip
ar z
puertor ico
ĠAst ron
ĠS E
Ġd rÃ¼cken
Ham burg
ĠHa ag
z ien
Ġ reiche
ĠTre ppe
Ġzu stimmen
spf licht
fried hof
ĠD est
k ins
genossen schaft
Â ¬
ĠSamstag abend
ĠD A
ĠtÃ¤ tigen
ata illon
fin ger
ĠTa uch
ĠH irn
Ġkosten losen
ĠRe bellen
Ġgesch enkt
Ġbesei tigt
Ġgemeinsam er
Ġfehl ende
io se
ĠSelbst mord
Ġbesei tigen
ĠRe den
Ġstat istische
Ġbel astet
ĠFÃ¼ ÃŁen
ĠT iefen
metho de
Ver l
ĠS tet
geben heiten
ĠSchloss es
zÃ¼g igkeit
Ġjemand em
ĠK ette
ĠP end
sk raft
ver w
) ",
ĠAus gra
ĠD afÃ¼r
ĠBesonder es
Ste fan
K olle
ĠHer kunfts
ĠEr den
ste am
n ig
Re gel
Ġer kl
ĠSoph ie
K ol
Ġvers ichert
Ġgescheiter t
Ġwid men
gesprÃ¤ ch
Ã¶ ser
1 000
il dete
ĠIngen ie
ll and
Ġn Ã¼tzlich
iam i
aun a
Ġsteigen den
eb ack
ĠWieder ein
ĠCamp us
ĠKÃ¶rp ers
rei e
ĠRotter dam
ĠF ont
Ġreserv ieren
ĠSupp ort
ĠInd ian
g Ã¼nst
Ġbet reten
ĠKr em
Ġh ind
ĠSus anne
ĠAb riss
Ġ18 40
berech tigten
z c
piel en
Ġr Ã¼ber
kl am
Ġorien tiert
spro zesse
ĠDra ht
str asse
Ġschwier ige
b Ã¶r
ĠEr lÃ¤uter
Ġbew Ã¤ltigen
ĠRÃ¤um lichkeiten
ĠCon st
Geb oren
ĠLokomoti ven
aum en
ydra ul
Ã¶ hr
ĠKl etter
2 20
ov is
ĠGew inne
ĠPassag ier
ĠrÃ¼ck te
ĠBen utz
ĠUN ESCO
emin ar
ĠSpark asse
uch ter
P ersonen
Ġwo zu
te ams
S ommer
fÃ¼ llen
ĠLebens raum
west lichen
Ġbeur teilen
Ġex akt
ĠAuf ruf
f uÃŁball
eg al
Ġgering fÃ¼g
K ategorie
ĠM eier
sp err
en ix
Ġl ohnt
ĠWie se
ĠRed akteur
stell ter
ĠkÃ¶nig lichen
Ġsign if
ĠGra bst
Ġaufgew achsen
Ġhervor ragende
ĠH C
ĠChr om
Ġma ke
ĠH ung
enn ten
ĠTschechos lowakei
ĠZeug nis
Ġr einen
ĠS ax
M at
lo cken
sch auer
tion s
ĠEur e
Ġvorgeschlagen en
ĠEinsatz krÃ¤fte
O H
ic ation
ĠDe velopment
ĠEvent s
pf te
Ġentspr ingt
Ġb aro
ĠHaus halten
t Ã¼r
Ġm inder
Ġgesetz lich
ĠAus dehnung
u schen
Ġverl etzte
ĠDo zent
ĠM inn
ĠG allen
ĠB uÃŁ
ĠEr ziehungs
i zen
ĠMe ÃŁ
Ġk W
ĠCl ark
Ġstammen de
Ġ3 80
eg ra
bl ank
ĠSatz ung
ĠBuen os
Ġa partment
ĠD j
O W
fl ucht
ĠHÃ¶ hlen
Ġglau bst
ĠE ffekte
ĠAb gabe
ĠFot ografie
Ġm ax
Ġrechte ck
ĠTirol er
ĠOber geschoss
Ġsex uellen
ĠD og
bel e
ant rieb
ĠA S
im er
Ġernst haft
Ġle be
Ã ¬
Ġk rei
er halt
ult an
kandid aten
Ġt iefe
red akteur
ĠW ork
Ġger Ã¤um
T at
Ġfrei gegeben
h Ã¤lfte
gesch icht
ĠEUROPÃĦISCH EN
Ġbin den
R eihe
ĠEnd spiel
s ub
ĠgroÃŁ artig
ĠÃ¤lter er
ĠgewÃ¼n scht
ĠB orn
Ġf ilm
Jose ph
ĠA ccess
ĠGold medaille
ĠH ack
ĠrÃ¶m ische
Ġw itz
ĠStellung nahmen
Ġdarauf folgenden
ĠAn leger
Ġk ol
stell bar
Ġs ee
Ġho tel
ĠAus zeichnungen
Sie hst
Ġn c
ĠVeg as
Ġwohn te
Ġaktiv iert
ĠRechts wissenschaften
ĠPer u
Ġgo od
G eld
Ġa e
Ã¤n ke
ĠwÃ¼n sche
Ġantw orten
ĠPort rÃ¤t
ĠBÃ¼rgermeister in
re volution
un gel
ĠG am
ĠHub schrauber
ĠLett land
Ġs d
Ġer wies
Er d
Ġfamil i
Ġangeb aut
ĠTick ets
cH FFFF
Ġver samm
Ġeingeb unden
Ġver schaffen
ĠKlimaw andel
ĠValen cia
Ġdurchschnitt lichen
Un ion
Ġfol glich
Ġ186 2
Ġ18 51
uz z
ĠR essort
ĠÃĦuÃŁer ungen
Ġ186 5
Ġk rimin
sh ut
ĠerwÃ¤hn te
ett y
Ð¾ Ð
Ġgolden en
ĠKore a
ĠZ war
Ġdeut licher
In iti
g c
19 77
ĠV II
Ġr ass
Ġab weichen
S amm
wer fer
ĠSchw Ã¤b
ĠT akt
Ġries ige
ĠOp el
Agen tur
gew innung
Ġneu em
els on
ĠJ ahn
ĠPaul us
Ã¼ber wachung
Ġhervor ragend
ĠH T
Ã¨ res
Ġd t
Welt meister
ĠB VB
in ental
ĠInnov ations
ĠBe et
opp ing
greifen de
Z ehn
abil itation
ic ip
ĠPressemit teilung
Ġf ehler
ĠGo od
ĠnÃ¤ h
ang o
ue z
auf bau
Ġbeg leitete
ĠVor gang
ĠA telier
ro ller
i hr
afr ikanischen
O s
arb rÃ¼cken
richt linie
Ġ186 9
Ġentstanden e
ÃĦ nder
ĠAn weisungen
ĠPenn sylvania
ĠAltern ativen
ĠMoh amm
Ġer rang
herap eu
ĠDia kon
=" _
Ġw eichen
Ġmit nehmen
ĠFern er
st ill
ĠMotiv ation
ĠS aturday
ĠLehr erin
ĠAb raham
Ġun beg
ĠSo f
k arriere
ĠF ox
ĠWerk zeuge
zwei ge
in iert
n est
ĠGed uld
ĠIm mer
Ġzusammen hÃ¤ngen
ĠHon or
ĠW eine
f is
ĠInterview s
ĠO P
uell es
ĠPhil adelphia
ĠEl ementen
l Ã¶sungen
ĠBundes lÃ¤ndern
ĠbemÃ¼ hen
ĠM arburg
r ar
enn i
ĠS iz
ĠC ourt
ĠZ elle
Ġk unst
zen en
Ġ3 20
p c
pro vis
ĠOl iv
Ġass ozi
Ġb rÃ¤
ĠP RO
och te
ĠWieder herstellung
ĠC alifornia
ĠPro st
Ġbet onen
Ã¼nd ungen
ĠPeter s
Ġl achen
ĠI d
q m
ĠKlima schutz
M oder
ĠAuftrag s
Ġmass iven
Ġre geln
ĠU rauf
ĠMag d
prof essor
ĠÃľberein kommens
ction s
Ġfr Ã¶h
ĠR asse
ed n
Ġerfolgreich sten
ĠAbt ei
ĠJac ques
G ro
ĠL ars
ĠBl um
ĠT ante
M ore
Ġangen ehm
ĠBro sch
ĠNah en
in gend
Ġ10 2
ĠSilber medaille
z k
g io
Ġheraus finden
Ġkrit ische
ĠgefÃ¤r bt
spolit ischen
g anz
ĠB org
Ġkommun alen
ĠSozial demokrat
ĠP ac
ĠMar ina
ĠPrem ium
- "
Ġdeut lichen
ĠAutor itÃ¤t
ĠE conom
ĠW Ã¶r
ĠEinzel nen
bu sch
Ġum gest
Ġbel ief
steil nehmer
wÃ¼r de
ĠUm lauf
K Ã¼
ĠSch olz
ha ar
ĠEm ission
Ġmonat lich
Ã¤ us
ĠWeihnachts markt
Ġangemessen e
ĠB eil
Ġkenn st
E p
ĠOr igin
fell os
ĠUm stand
Ġbegeg net
N S
schmer zen
Ġs auer
f ische
ĠFle cken
Ã© t
freund lich
ĠBr ett
ĠZent ren
ĠJ Ã¼d
Z w
Ġ186 4
f iel
Fest ival
Ġr om
Part ei
Ġtechn ologischen
ver Ã¶ffentlich
Ġumfassen d
Ġzu lassen
ĠInnen hof
ĠA quar
fÃ¼hr enden
ĠFahr en
platz es
Ġdein es
ĠP eg
ĠZ orn
ĠM T
ĠF ren
Ġsport liche
Ġgel te
Gr Ã¼ne
ĠThÃ¼r inger
ĠW ladimir
ĠPla yer
Ġw Ã¼s
Ġl ehnt
ĠÃľ bung
P lay
ĠSt aff
Ġauf bew
ĠO ver
ĠL ud
ill o
ti ago
ĠB lech
Ġsch Ã¤tz
ĠBeh aupt
Ġteil zunehmen
ende l
ĠGr en
spl Ã¤ne
ĠResult at
ĠHer d
p ielt
Ġsch ickt
tur es
ĠAt l
Ġst Ã¼tzen
Ġbet rachte
Ġser b
Ġg ross
kre bs
id ad
sb uffet
I AL
c am
ĠKenn zeichen
T un
Ġprofession elle
Ġ11 1
s zene
ĠG ert
Al ter
ok l
sk op
Kap itel
abgeord nete
Ġun best
ĠMeister titel
Ġbes uchten
u ti
Ġpopul Ã¤r
Ġhochwer tige
ĠHo he
ĠSpiel film
Ġverabschie dete
q l
ĠVer handlungs
Ġl okal
Î ¿
ĠN erv
ond a
Ġbet runken
s werte
R oll
H D
n oten
ul ationen
irur gie
Ġdetaill ierte
in ken
ver gleich
Ġlei det
rin a
Ġkrit ischen
Ġsch Ã¤tzt
ĠPaar e
ĠS Ã¼nden
ĠHil de
ĠR ast
sk irche
ic us
ĠZigar etten
lig ist
ĠLegisl atur
Ġgegen einander
ĠK ommen
el ia
Ġlock er
p oten
Ġentfern ten
ĠT rei
Ġh Ã¤r
R ud
tisch es
ĠS Ã¤tze
Ġbein halten
H y
b ier
ĠMaschinen bau
med ien
L iefer
F Ã¼hr
ĠAbend s
leb ten
ĠÃ¼berw acht
ĠH Er
AA AA
Ġun nÃ¶
ahl es
ris iko
ĠM usch
Re prÃ¤sentantenhaus
gr em
Ġerforder liche
ĠBesch rÃ¤nkungen
Ġnutz ten
Ġge gessen
ungs zeit
ĠK asse
ĠAnn Ã¤her
ĠBad minton
H MEN
ĠL ack
Ġeingemein det
zug ang
o fern
S ogar
bew ahrung
ber eitet
Ġunmittel baren
Ħ ¢
de ll
ĠDar steller
acht al
ĠKom Ã¶die
ĠW ille
ĠÃľber wachungs
Ġverd anken
lowak ischen
ĠGehÃ¤ use
ĠS hang
ĠVerf asser
Ġ18 77
ĠGeb Ã¼hr
ĠVer leger
f ers
ĠN ebel
st rei
enn etz
ĠCol or
ĠVerwand ten
ed r
ĠTe ppich
ĠSubst anz
Ġm ak
ĠM ie
Ġqu adrat
o zial
ĠK essel
ĠEnt spannung
ans ion
ĠPre vious
F ehler
ĠDef izit
I Z
ĠD amm
Ex perten
k W
ut ure
ĠF i
EI ST
ĠStuden t
on ische
ĠPro zeÃŁ
Ġhinter en
J ac
ĠStra hlen
st h
ir land
ĠRe vier
ĠRussland s
Ã Ī
iver se
Ġher stellen
ĠC li
Ã¼m ern
ĠPet ra
Ġv ielsei
Ġintens ive
ĠErn Ã¤hrungs
n ick
ĠN atÃ¼rlich
Ġmus lim
n em
ĠHand werks
wie der
ĠMÃ¤n gel
ĠZug angs
F otos
ĠBauern hof
maÃŁ nahme
Ġaufge fÃ¼hrten
Bis lang
p riv
p ng
g reif
ĠBade wanne
Ġun auf
ho de
I f
ĠDres dner
Ġkennen gelernt
Or iginal
eier mark
ĠFr isch
ISCH E
er i
schull ehrer
ĠS ho
M ass
ĠL enk
ĠausfÃ¼hr lich
Ġi hc
vor schlÃ¤ge
invest itionen
19 45
ĠQualif ikationen
ie e
ef o
k reu
ĠBe werb
ĠSchei ben
Ġetabl iert
B on
OL IT
Ġt reibt
ĠMo se
ĠBest re
ĠBur k
s iedlung
Ġe uren
ĠE sch
ĠBeg leiter
Ġ18 49
' .
Ġf s
Ġ( =
ĠJahr gang
ĠGl anz
ĠSch Ã¤d
ĠLand wirt
Ġverpflich ten
ĠE ZB
ĠForm ular
ĠZeit alter
al on
Ġde kor
such ten
K K
v iert
ĠFerr ari
ĠW eit
Ġ18 30
ĠMill er
Ġta ucht
ĠPil ger
ĠInnen raum
Ġd eutet
ĠSto ffen
Ġg Ã¤ng
Ġver tik
koh le
ĠL Ã¼n
ik te
rÃ¼st ungen
sch reibung
ĠC lin
ĠG Ã¤n
Ġs ome
wie se
Ġun weit
Ġafr ikanischen
Ġdefin itiv
ĠberÃ¼hm t
Ġverste cken
ĠEr leichter
Bundes staat
ĠProf ession
L S
stre ck
I X
Ġd ringen
ĠLie ben
Ott o
ĠFl Ã¼sse
d ann
Ġunver zÃ¼glich
ĠA genda
ĠBatter ie
isemit ismus
ĠF A
Ġkonsequ ent
ah a
ĠWo hnen
Ent schlieÃŁung
sl etter
er be
Ġdies jÃ¤hrigen
ĠG rÃ¼
Ġgesch w
an uel
ĠF eu
merk ungen
ĠFach werk
ĠK ate
unter kunft
ĠTechn ische
ĠDiÃ¶z ese
Ġspann end
ing o
ĠgÃ¼l tig
ĠstÃ¤nd ige
amm ung
ĠSchwimm bad
Ã¼nd igen
Ġrad io
Ġverbrei tete
ĠBÃ¶ den
n de
ĠBerat ungen
ĠT reib
f lich
etz ungs
Ġbei behalten
lau bst
ĠStad ium
K in
ĠCh i
ĠB Ã¤ren
P olit
Ġver wiesen
ste cken
Ġerf assen
ĠS yl
Ã¶ ster
zut ragen
s v
Ġkompl etten
ĠFran ces
N ik
ĠMusik ern
ĠAk adem
ĠAl ice
Ġverteid igt
st rich
Ġwar nte
ĠFound ation
Ġz Ã¤hlten
Ġh asse
ĠO fen
Z en
Ġqualif izieren
Ġein setz
j w
on el
ĠEl be
u w
br ett
EN T
K einer
ĠJubil Ã¤ums
Ġab l
ĠSte phen
ĠOrganis ations
ĠItalien er
st s
Ġfrem den
ĠS omit
ivers itÃ¤t
ĠgefÃ¤hr licher
ĠSpan ier
ĠBefug nisse
ĠK uh
ĠBo y
bo o
Ġf eind
ĠInvest or
Ver brauch
setz ungs
at lan
u gt
Ġbeh eben
Mann schaft
ĠMo unt
ĠD Ã¤m
ĠN ev
ĠUl m
v re
ĠJ edoch
ĠSamm ler
k enn
Ġ10 4
S uche
ĠAb kÃ¼rzung
Ġf Ã¤ngt
ĠPublik ums
ĠInnov ationen
ĠRÃ¼ck seite
ĠDipl omat
ĠZu wachs
Ġkn ow
Ã¤ pst
Ġg Ã¶tt
Ġl ook
ĠBro ad
ĠS ende
sp ezial
ĠFrei staat
Ġhin unter
Abt eilung
ĠHar z
h ir
ĠMar athon
ĠWer ten
ĠgÃ¤n zlich
ĠHei rat
bour ne
Inter view
ĠK ru
ent sprechend
K arten
Ġunter hÃ¤lt
ĠEpis oden
Ġp ersonen
Ġver schlossen
19 75
d ringen
qu enzen
ĠAus flÃ¼ge
11 4
Des ign
Ġund er
ĠInner e
Ġb ack
Ã¶ ver
Ġgew usst
12 5
Ġ# .
Ġfehl enden
ĠKonzentr ations
FrÃ¼ h
aus gleich
Ġte sten
Ġberu hen
ĠN AS
str Ã¶
Techn ologie
aus wahl
ĠW y
ĠN Ã¤hr
ĠCoun try
im b
ĠGen uss
sprÃ¼ chen
ĠÃ¼ber region
Ġgew iss
Ġst ammten
ĠHeil ig
s achen
bl Ã¼
Sicher heits
ipp er
Ã¼ber tragung
c ent
ĠFre undes
ĠDÃ¶r fern
sen dungen
Ġge lei
ĠZin ss
ĠDeb ian
ĠS ib
Ġaus wÃ¤hlen
ministr ation
ĠG B
S zene
Ġbel eid
Ġwid met
Ġerweiter ten
ĠBundes ver
Ġbl ickt
Ġsch Ã¤tze
ĠSe es
W ow
Ġkomplex en
Ġmul ti
ĠG ord
ĠR ick
K URIER
gef allen
ĠTri ck
Ġrestaur iert
ĠUr teils
Ġc ar
ĠSchÃ¼ler innen
ĠA ri
auf gabe
ĠNord korea
ĠE cken
ument s
ĠAmts blatt
material ien
fre quenz
Lin ks
Ent wick
oh an
ĠH l
Ġst Ã¶ÃŁt
Wolf gang
ĠSonn abend
M ess
ĠDem o
sst aaten
b Ã¤ume
Ġ19 0
de cker
ĠÃ¼ ben
fir men
zug reifen
K i
mittel te
Ġbes iedelt
! [
Ġbefest igt
f aden
ĠP unk
EG KS
ĠP fe
ĠFlug haf
Ġange hÃ¶ren
Ġf o
ab is
W r
ĠD IN
Ġer fordern
Ġk oll
besch Ã¤ftigung
un rein
ĠPar ken
ĠE mer
ne a
P N
bei de
Ma schinen
ĠAff Ã¤re
ĠEin nahme
krit erien
ri ption
Ã¤r zte
Ã¼ chten
er ium
ĠRe b
Ġpriv ater
Zwei tens
ĠPf le
Ġl et
ĠEr reichen
ĠPrÃ¤ fekt
Reg istr
ĠC os
Ġerschienen en
ir kt
sport ler
gar de
ĠE D
ĠFort una
mit arbeiter
ĠEing liederung
ĠS Ã£o
Ġvor nehmen
ĠSubst anzen
ĠSt ro
ĠKrist all
Vor aus
ĠTisch tennis
Ġdro hen
ĠwÃ¼ten d
gen det
ĠR ache
ungs los
ĠHier bei
Ġh aupt
Ġab lehnen
Q L
ĠV Ã¶l
Ġin neh
gÃ¤ng ig
Ġa hn
ĠHol ocaust
Ġgesetz liche
it als
ĠJohann a
Don ald
Ġso g
ĠSp ace
D isk
fl ikt
CD ATA
Ġkomplex e
s uche
ĠZeit plan
Ġstrate gischen
Ġunbek annte
ĠKond itionen
Ã¶st licher
ĠKlassen erhalt
spro jekte
bew usstsein
figur ation
bei hilfen
ĠGemark ung
ĠQu oten
ĠbenÃ¶ tigten
anz lei
ier st
ind liche
n ing
ĠKamer as
C an
ĠM ent
Ġte urer
TI G
pre uÃŁen
ĠWie so
ĠgehÃ¶r enden
ĠNÃ¼rn berger
Ġdes ign
B enz
ĠR T
Ġzeit lich
ĠMem or
m asse
Ġreag ierte
ĠProphe ten
st ark
Ġ% ).
sb ank
ĠProdu ktionen
ĠHold ing
h em
ĠSt einen
mÃ¤ÃŁ igkeit
Ġherr schte
ĠZ eilen
m f
Ġf Ã¤h
ger ung
O ut
er w
ĠAuf stand
Ġv iert
ĠOrch estra
eb all
P rÃ¼
ch sen
ĠSt irn
ĠMaj est
ĠD ennis
gendet was
pr es
S ong
a ver
str and
ĠTr omp
Ġf liegt
f ul
ĠErschein ungs
Ġgew artet
ĠC N
Ġbesch uld
ĠMit begr
Ġkommerzie llen
Ġre fle
ĠVolks wagen
Ġ< ![
ĠGru ben
ĠW Ã¶l
ĠSte ffen
ĠVort rÃ¤ge
tau scht
mÃ¶ gliche
ĠWei den
ĠErzÃ¤hl ung
ĠA chtung
ĠAuf schwung
ĠReg ime
Ġe ein
Ġresul tieren
p reisen
ss itzung
ĠIndones ien
ĠÃ¼b te
Ã¡ r
Ġo blig
ent liche
ĠkÃ¶nnte st
ĠR B
Ġe a
Ġschrift liche
ĠTelefonn ummer
Blei b
sh all
ĠE qu
Ġwissenschaft lich
ĠScien ces
ĠEin leitung
V an
aus strahlung
Ġn u
CH F
Staat s
19 76
ĠMittag essen
sch Ã¶nen
ĠLuft fe
aus bau
Ge orge
ĠB ann
okrat ie
L aur
ĠNe uf
ĠB BC
ĠGeschÃ¤f ten
ĠE tik
Ġober e
G ruppen
ĠKons ul
Ġdan kte
ĠV amp
ig ers
ĠHo heits
Ã± a
ĠJord an
Ġf Ãĥ
ĠHindern isse
Ġihr erseits
oy er
ĠMinder heit
po wer
EG EL
ĠfranzÃ¶s isch
Ein satz
v d
ĠApp laus
Inter ess
iss a
Med ien
oper ation
rÃ¤um t
ĠWÃ¼r de
Ġverm uten
Bel gien
ob a
ard i
ĠH ad
Ġon ly
ĠMittern acht
Chin a
ĠD own
ĠA hm
lei ster
Ġins ofern
Ġausge drÃ¼ckt
zwe cken
Ġsamm elte
ĠPropert ies
W EI
ĠJ ess
Ġbeh ielt
L A
ĠFal ken
sch Ã¼tzer
iz ed
s Ã¤nger
ĠWoiwod schaft
ĠEin heim
sp Ã¤t
ĠBaur eihe
ĠK ali
ĠAn zeichen
B ald
Dat eien
ac a
ce an
ĠEt agen
ĠLi ppen
ĠÃľber reste
Ġgrund sÃ¤tz
Ġstrate gische
ĠZoll tarif
ĠUn der
Ġvoll em
Fran ce
Ġwor aufhin
ĠL is
bl au
ri ct
Ã¤n k
B n
ĠR hythmus
ub el
ĠR uÃŁ
Ġan gesetzt
ĠMer z
L ondon
ĠK em
ĠH SV
Ġ186 3
ans as
Ġun ein
bar ung
Ġvorge tragen
Ġn irgend
ĠLu is
ĠTe en
ĠErmitt lungs
us p
ĠD EN
ĠPro teste
Ġfr ischen
kandid at
â ĨĴ
an j
ĠGe fÃ¤
ĠOst ern
ĠbenÃ¶ tigte
Ġalt es
Ġfor me
Ġp lÃ¤d
ais e
B all
ra uchen
I hm
mo der
Ġch ar
Ġpassen de
ĠFrÃ¼hstÃ¼ck sbuffet
w c
ĠParad ies
ĠHart mann
ĠAl m
ĠT ru
Ġfrei lich
ungs bereich
ĠK ut
Ġf f
el tern
g ge
ĠSer ies
Ġw eich
zut reten
d le
ĠSch mal
ĠEntwick ler
ĠZu gehÃ¶rigkeit
ĠHof mann
dr Ã¼cke
Ġre p
Ġs Ã¤chsischen
Ġman cher
ĠSchul jahr
Ġjur istischen
ĠV ia
ar in
ĠV ielleicht
ĠSach schaden
ĠFinanz minister
Ġle uchten
ĠToil ette
H alle
ĠSpanien s
ĠHu ber
HÃ¶ he
ĠGl etscher
Ġjahrel ang
und s
ĠGel der
ĠEr zeugnis
ĠLand gemeinde
ĠN it
ĠR E
ĠVert riebs
riechen land
Ġab stra
m iss
Ġverkauf ten
ĠtÃ¶ dlich
blei b
Z er
ĠSieg fried
ĠUnter scheidung
Ġgl att
Ġ10 6
ĠKop ie
ĠFranzÃ¶s ischen
ei ll
ĠMitglied s
Ġbekomm e
ĠBrief wechsel
erto ire
ĠJ h
ĠDan ce
Ġverw andt
M Ã¼
ĠE llen
ĠW eser
mal t
rib ution
Ġl en
ĠSal on
bef ug
ĠVer k
Ġleist et
Ġentschuld igen
ĠAn fÃ¼hrer
ĠS ac
Ġ10 8
ĠT il
Ġbean spr
ĠFÃ¼hrer schein
ĠSchÃ¶n e
B ud
ĠJ en
Ġbelie bten
Ġstrate g
Ġh is
Tra ck
ĠB ech
r ess
oth ar
ier ra
na e
b auf
o hr
ĠL yn
ĠJ ava
ĠzurÃ¼ckge zogen
Zum indest
ĠgefÃ¤hr liche
ĠSozial partner
gi ft
ĠMo os
kl ub
ĠAn wender
et it
stat ic
ĠPader born
Ġb ulgar
ĠgefÃ¤hr lichen
ĠSektor s
V O
Ġgen ossen
Ġab zul
ĠBesonder heiten
Ġschmer z
Ġt l
ĠHaupt ort
omen kl
ĠBar geld
o or
Ġe chter
Ġp ur
sch on
ĠÃ¼ber nahmen
ag nen
Ġvorgesehen e
ĠArti llerie
ĠIn halts
Ġn omin
lÃ¤ ÃŁ
ĠE B
ĠErober ung
Ġsp reche
Her mann
Ġnorweg ischen
Ġo jdiu
Ġzusammen arbeiten
ĠNeu jahr
ĠSym ph
Ġk Ã¼hl
ĠFlÃ¼ ge
ĠD y
ges s
ĠT hal
sp osition
Kl ass
re ll
ant eile
pro v
Ġb a
ĠGel b
Ġtechn ologische
ĠTelekommun ikations
ĠbegrÃ¼ÃŁ te
S aturday
Ġet h
Ġlau ten
F al
ĠS ara
ĠW ann
ĠS einen
Ġfr ische
P reise
ei f
Ġruss ischer
u u
Ġrecht lich
b ol
ĠArg umente
Ġlie fen
wur fs
kur renz
ĠZu kunfts
t f
ĠMass achusetts
ow ina
ene zu
ar ischer
ĠlÃ¶ schen
Ġum setzen
id sch
Ġdurch gesetzt
ĠHaushalt splan
end ienst
if o
B Ã¼r
IN D
Ġtrain ieren
kont rollen
d ition
S ek
Ġe ft
Ġkon ver
or ph
Co unt
ĠProjekt es
ĠVerbraucher schutz
ĠB uchen
ĠfÃ¼r chten
ĠSamm lungen
! âĢľ
end o
ci h
E vent
Ġd ifferenz
ĠNar ren
ĠSchÃ¤ del
ĠWohl stand
arr t
ĠHe ad
x n
I de
Ġlebend ig
in frastruktur
Ġge forder
B urg
ĠSt u
ĠA sche
Ġdefin ieren
ĠKonver genz
u ge
ĠSe el
ĠLandes liga
Ġ ug
ĠfÃ¼ gt
W ein
spezif ische
Ġf un
hr ingen
k urz
ĠN adel
H Ã¶rt
ĠKab ar
st al
Beg riffs
ab wehr
tra um
stra fen
Ġun end
ĠExpl osion
ĠErl angen
Ġw eiger
ĠbeeintrÃ¤ch tigt
ĠLuft waffe
D agegen
K Ã¼nstler
ĠDem onstranten
ĠBuch es
r k
Ġgu tem
ĠZw Ã¶lf
ĠRÃ¼ck sicht
Ġgew alt
ĠAndre w
ĠArm y
ĠUr kunden
sp oten
Ġhab ilit
or der
R egen
Ġdir ekter
M uss
ĠWirtschaft spolitik
he ad
ĠOh io
ĠKÃ¼nst lers
ĠSch aum
Ġer baute
Ġerfolgreich er
ĠF reuden
ĠMit wirkung
ĠKar ib
ĠBÃ¼rger krieg
unde ten
fel dern
ill ing
Ġverk Ã¼ndet
Ġinten siver
anc y
ĠLÃ¤ ufer
acion al
ĠAuÃŁ ens
R eise
spor ts
ĠMen Ã¼
utt le
Kl aus
verb Ã¤nden
sl ation
ĠCl aus
D ec
ĠB ER
ĠA er
ĠT U
ĠDoug las
l iteratur
???? ????
stad ion
Ġverblieben en
sprozess es
Ġverst oÃŁen
ĠTÃ¼r ken
ĠAusfuhr en
ĠRep orter
ĠLauf en
g d
bo y
ĠPolitik en
ĠChin as
sam mel
Gemein schaft
Ġaus wirken
W Ã¤re
Ġsch eiden
Ġweit aus
ĠWasser stoff
Ġn l
res p
ĠU EFA
Ġi bu
Ġbewir kt
Ġdunk le
old aten
sch in
ĠDa imler
Ġrelev anten
f acht
Ġst erne
ĠUrs ula
ĠMomen te
m ans
ĠHert ha
f aser
an schlag
hÃ¤ltnis mÃ¤ÃŁig
kn own
o on
H op
ĠHaupt mann
Ġk u
Ġgeist igen
mer e
ĠBar s
z ettel
ĠUrug uay
Re al
ĠvergrÃ¶ÃŁ ert
ĠSozial politik
ĠÃĸ konom
schied ung
Ġver rÃ¤t
ĠEin zige
m d
ĠAb bruch
ĠVolle yball
ĠPak istan
Ġin haf
E hr
Ġent nehmen
Ġer schlossen
min Ã¼
Ġbehei ma
ehls haber
ĠReg isse
Ġapp ell
ĠP oll
bl ing
ĠHalte stelle
Ġsynt het
ĠC A
ĠLe v
Ġarch itekt
ĠFlug hÃ¤fen
h ire
ĠSt Ã¶rung
ges prochen
Ġange fÃ¼hrt
ĠHong kong
ĠVinc ent
ĠSie b
ir en
ĠÃ¼ber lebt
enn ingen
reu ungs
ÃĦ r
St adion
ĠBedÃ¼rf nissen
ĠsÃ¼d liche
ĠMein ungen
Ã¼t tern
ĠFernseh serie
ĠCl emens
T SV
kra ut
Ġprakti z
S ec
ges etzte
ĠKrÃ¤ ften
t Ã¼mer
ĠAll tags
ock t
amar illa
verlÃ¤ss igkeit
Sch iff
ĠWill i
st et
od ien
ĠAb zug
Ġbean tragen
ĠCre w
ĠWart ung
Ġverlie h
kl aus
ĠAr schl
ĠAt hl
auf lage
in chen
g ow
ĠBefra gten
ĠWinter spielen
R oy
Ġanzu passen
ĠT Ã¶t
Ġr ufe
Ġ10 3
stud ie
l ime
ĠHo sen
H olz
Ġste uern
T ube
ĠM AR
ĠW elten
ĠZ ag
wind igkeiten
ĠFeuerwehr en
ĠUm wandlung
ed i
Ġdiesel ben
ild ing
Ã¶nt gen
ĠP age
Ġab s
ĠTermin al
spiel erin
Ġ10 9
ier endes
os aur
Ġbevor zug
ĠKÃ¼r ze
ĠEr ik
ĠLa ien
hil f
flug zeug
ĠKomposition en
Ġinform ierte
ĠLib anon
ĠRe alisierung
Ġsicher stellen
Techn ik
ex kl
Ġgen ieÃŁt
Ġt re
gu ia
F Ã¼hrung
h eid
Ġer lern
Ġzu hause
Ġer gaben
a ktive
ĠWur zel
ich tiger
al us
ĠW ahnsinn
Ġbeein druck
Ġ00 1
ĠKanz lei
. &#
ograf ischen
T M
Ġver sprach
ĠTo wer
p ur
om on
son st
ĠAtlan tik
ĠUnter zeichnung
] .
A e
Ġex terne
ĠRos a
wirtschaft ung
sprodu kt
ĠH us
ĠNational e
ĠVor runde
bo ok
w ol
ĠFr es
ĠR ic
ĠP arl
Ġerhalten e
Ġmit gebracht
ĠAus wÃ¤rts
S ub
ĠPil z
r f
ĠL Ã¤ng
ĠRe flex
ĠC arr
ĠEd in
ĠSpiel zeiten
ĠErw Ã¤
H AL
ĠComm ittee
ĠT reiber
F U
sch iffen
ĠS aat
ĠUn gleich
ĠGer d
Ġlangfrist igen
Ġblau e
it Ã©
ĠVolk spartei
sb eg
Hier bei
betrieb nahme
Ġein gebracht
ĠUn gar
in tens
Ġbeg ab
Ġst Ã¼tzt
Ġsen si
artet t
Ġ12 3
Gr and
am an
Ġver knÃ¼pft
sei tigen
ĠUd SSR
Ġmod if
gelegen en
j ust
Ġein geschlossen
ĠSchwer punkte
ĠZuf l
Ġnach weisen
Ġbest ritten
ĠCob urg
ĠJohn ny
Ġbas ieren
ĠSw iss
Ġvier mal
Ġbef ried
ĠEin bau
ĠGed anke
Ġschot tischen
Ġ use
Sch warz
iet z
lei he
ĠWein bau
82 20
ĠChar ter
dar steller
ĠDisziplin en
ĠApp l
ĠE sk
ĠVer stand
Ġab wechslungs
ĠVollen dung
ĠBerufs ausbildung
ĠWÃ¤hrungs union
Ġengag ieren
ĠC her
Ġk os
Ġgelie bt
L og
n ne
ĠRaum fahrt
Ġo h
ev anz
r enn
ze k
Weiter hin
Ġb lo
Ġto llen
ĠJ immy
wÃ¤l der
us el
rom an
Gi pfel
Ġstimm ten
Ġf ik
ĠD ein
ĠStadt werke
sei tige
Ġl acht
Ġhe bt
ĠV ent
Begriffs klÃ¤rung
ĠNacht eil
sproblem e
com e
Ġt g
O O
Ġzeit gleich
T Ã¼r
V illa
Ġbef asste
ĠKohlen stoff
Ġv en
Sch Ã¼ler
ym n
ĠN Ã¶rd
klag te
kti sche
Ġwar nen
A W
ĠZ ier
sthe orie
ĠDr ing
Ġfest gesetzt
V en
ĠPhilipp inen
ĠR ut
Ġh our
ran t
wÃ¤ lt
ĠNational spieler
F ragen
R h
C a
Ã¤m ter
ĠWir d
sch nell
fahr erin
ir ma
all t
ĠLe vel
ĠR ue
ti um
b rid
ĠAn sehen
ĠFahr ten
ol et
ĠMin im
Ġc ommun
mil ch
Ġsp ringen
v ik
alen a
Ġaut hen
ĠL orenz
KÃ¶n nte
ĠBesch leun
ĠprÃ¼ ft
ĠgÃ¼l tigen
Ġzusammen gestellt
ĠAbst ammung
Ġab schlieÃŁ
Ġgesch Ã¤tz
ĠPol ar
ps is
arn ing
ĠFl ut
Ġver nachlÃ¤ss
spro zeÃŁ
g ungen
ĠStraft aten
ĠSpons oren
k etten
Ġgew arnt
ĠAnti ke
ĠEr hebungen
Ġdem nÃ¤chst
ĠEuropameister schaft
ĠMa ier
ĠSti fts
Ġverz Ã¶ger
ers atz
sk omm
zum achen
zei tigen
Ġm g
Ġver Ã¤nderte
ĠKlass iker
S R
er es
k ter
ĠE if
achte ten
Ã¼n ft
ĠVor rang
ov ice
ĠLie chtenstein
sch uk
Ġ( '
h onduras
Ġ( ).
ĠAr k
ĠLand schaften
Ġpf legen
10 5
An alyse
Ġanerk annten
Ab b
ĠGrundstÃ¼ck s
pf leger
ĠD C
ĠSch ar
ĠvorlÃ¤uf igen
olit h
Ġ3 88
Ġg rau
ĠTai wan
agra mm
gesprÃ¤ che
ĠUntern ehm
ĠHaust iere
( "
last et
or ges
ĠEl izabeth
fel de
ĠH end
ĠAnd roid
os op
fÃ¼hr ers
ĠZwe cken
ĠAb wesen
ĠK reisen
ĠC R
Ġr ut
K och
b Ã¤ren
Ġqualit ativ
ĠSk igeb
Ġab seits
our i
ĠLatein amerika
N ummer
ĠAnge stellte
ĠSpazier gang
v et
h att
ĠG Ã¤rtner
Ġst Ã¶ren
vor steher
ĠEle f
Ġo e
ĠSan ierungs
l ist
Nor mal
ĠCar lo
hers age
de lt
stell igen
ch ar
Ġs eg
Ġlau ter
Ġmit teilen
ra ÃŁe
lauf ende
Ġein nehmen
ĠKar in
qu et
uden ten
ĠMerk mal
ungs ort
Ġherange zogen
orden s
schaft lich
Ġausge liefert
Ġi w
ĠSeit dem
ĠEngine ering
ĠIll inois
Ġeinz ul
ĠDeb atten
% ),
d d
satz es
kont roll
Ġre alisieren
t ief
it uten
ĠTri umph
ss icherheit
hal tige
ĠL uf
Ġvorrang ig
ĠAnt isemitismus
ĠI diot
ĠQu ote
ĠUr ban
Ġbeschrieben en
Ġ" ,
V e
En dlich
ĠHa ken
ĠEber hard
Ġun ent
ĠKol onie
ĠAus scheiden
19 73
ĠFolge zeit
ĠP ech
ĠEnt lastung
ĠFra g
Ġakt ualis
beam te
f eln
kap azitÃ¤t
ĠfrÃ¼h zeitig
Ġinform ation
ĠC rist
ro u
Ġnied rige
umb oldt
Ġstation iert
A cc
l Ã¶s
ke e
ĠFuÃŁball er
Ġmar sch
ĠEinzel handel
ĠEntschuld igung
Ġeinzel staatlichen
ĠAus zubilden
k och
ĠtÃ¤ gliche
e ffiz
ĠVer gewal
ĠEin bruch
aut omaten
Reg iment
Ġges onder
h essen
k amen
Ġbesch lieÃŁt
r w
haft ung
Î ¹
ak on
ĠVolks schule
Lux emburg
Ã¶ gern
Ġange tan
ĠLeistungs fÃ¤higkeit
dep enden
be ziehen
Ġmobil e
se k
Ġkonk urr
Ġabsol uten
Ġent nommen
ĠE c
ĠLad ung
n och
es ischen
Ġgrund le
Ġlin k
Ġa chte
ĠSpiel zeug
Ġkommen d
teil ungs
K raft
Ġs ho
Ġzu genommen
10 2
ĠSp ecial
VerÃ¶ffentlich t
t chen
Ġre dest
ĠBay reuth
ĠRes onanz
Ġt ags
her d
ĠGerichtshof es
Ġei D
krit ik
ĠerklÃ¤r ten
Ġverwirk licht
ĠDrei eck
ĠIm pl
zy klus
sch ir
ĠUl tra
h ib
ikan ern
ĠPl at
ab o
ĠMar mor
amer a
Ġstra hl
r ent
ĠMet ro
GeschÃ¤fts fÃ¼hrer
! )
Ġj ugend
ĠWei ss
N euer
om etrie
ĠRe zeption
G itar
ĠZ Ã¤hl
Ã¤ng lichen
T ur
er zeugnisse
ĠO kt
ĠPriv ileg
r v
Ġ16 00
sei lle
sp erson
ĠVers uchs
ĠRum pf
sch atz
ĠH ip
ĠPrÃ¤ vention
ĠS enkung
Er inner
ĠK itz
ĠTre ue
ĠBe zahlung
p ing
h ielten
ab in
org nis
Ġbetreffen de
Ġjur istische
J unge
ĠZ Ã¶lle
Z oll
ĠMon ika
â Ħ¢
ĠTerror ismus
ĠTun esien
Che ck
ĠtatsÃ¤ch liche
ll o
ĠH asen
ĠGri mm
Ġg t
ĠFrei e
Ġ28 0
ĠJ og
f utter
ier ef
greifen den
ĠVor mittag
Ã Ĥ
ĠR og
cHFFFF FF
ir gt
ĠF lei
ĠNieder schlÃ¤ge
S tim
ĠGesch enke
he e
ĠPan ik
. âĢĿ
ĠT ot
bie tet
Ġar gentin
ĠGeschÃ¤fts jahr
S O
Ġ18 56
ĠgenÃ¼ gt
sp uren
CH EN
S ex
ei fe
Ġbe acht
ĠInd ianer
Ġverm ark
ungs maÃŁnahmen
zu cker
kÃ¤ ufe
Ġie D
y c
ĠH Ã¤u
Ã¼chte te
ĠDoppel zimmer
Ġs aison
ĠHosp ital
iz er
zul Ã¤ss
ĠK ot
Ġmass ive
ĠUnter haltungs
ap ital
Ver g
ĠprÃ¤z ise
z antin
ĠKlein stadt
ik alien
ĠC all
g re
ĠMa ast
entr ale
ge stÃ¼t
Ġunter e
... ?
ĠGitar ren
Ġe ffizien
oe fs
Comp uter
G n
M ER
ĠLandrat samt
ĠT ed
z immern
Ġ18 06
den burger
sb ahn
Entschuld igen
ĠE y
ĠZimmer mann
D Ã¼sseld
Ġfr ucht
ĠRoh stoff
Richt ung
Ġvor deren
E i
ĠGra ph
Ġ ï¿½
Ġun angen
ĠK iew
Ġt b
ĠGrem ien
m h
Ġentsp annen
Ġerk ran
Ġb u
ĠN ep
es c
V ic
ĠBor is
Ġget rieben
Ġilleg alen
geb Ã¤udes
ĠDienstag abend
schul dung
o be
ei mer
ĠKreativ itÃ¤t
k Ã¼nstler
Aus gabe
for schungs
Ġ18 59
ĠPhil ip
ĠDreiÃŁig jÃ¤hrigen
ĠGar age
Ġregion al
ĠmÃ¼s st
Ġwar men
Ġmon tiert
und ern
ĠAm pel
B ill
Ġ% ),
c ard
ĠZ wick
Qu alif
Ġung er
G ab
st if
ig ration
ĠLi br
ĠTelekommun ikation
ĠTur ner
ĠA P
8 222
Ġkonzentr ierte
ĠMun ition
Ġb ran
Ġdenk bar
ĠC e
end s
vereinbar ung
ĠS id
op ter
ĠKraft werk
f arb
ĠAn schluÃŁ
ĠAsp ekten
Stud io
Ġ17 5
S ar
sch Ã¼tze
ĠNeck ar
Ġun schuld
Ġn et
ĠBe zeichnungen
=" "
Ġwo uld
ĠTerritor ium
ĠPion ier
ĠUn recht
ant it
N ER
ĠHen ri
ĠNord irland
ĠEnter tainment
ĠnÃ¶rd liche
ĠvielfÃ¤l tigen
Ma ÃŁnahmen
ĠNet work
t hal
Ġaus fallen
Ġman gel
Geb iet
E bene
Ġh ole
ĠCon ne
ĠannÃ¤h ernd
amm ent
ĠN L
An lage
ĠK ay
Ġgesp annt
ĠBegriff s
ger ichte
B aum
ĠKos ovo
un o
in ische
ĠC loud
ok uss
klÃ¤r ungs
ĠMan tel
ĠM iete
Ã¶s ser
an bieter
ien z
ĠKo h
rat er
ye ong
Ġh af
iz ite
orien tierte
ist iken
Ein s
ĠÃ¤ h
V R
ĠA UF
Ġfest zulegen
weiter ung
Ġmehr heitlich
p rech
ĠA h
ĠSt roh
Ġc ih
âĢ ²
hÃ¶ hen
Ġbek leidete
Zug leich
ĠLog o
Bei spiel
.) :
ĠGeschÃ¤fts fÃ¼hrung
ĠF j
Ġschl ag
ĠRel eg
ist ers
ĠBerichter stattung
ta ucht
Ġa ir
Ġt raum
14 0
ĠExper te
sch war
ĠDer by
Ġeinzigar tigen
ĠView s
ĠGeh Ã¶r
ĠKurfÃ¼r st
F ac
Ġar rang
ĠWider stands
Ġderzei tige
ĠTur b
L etzt
ĠEr ben
Par is
Ġwenig sten
je ktive
Ġverk Ã¼r
Ġt ri
pf e
K reuz
ĠS Ã¼nde
Bund est
ĠIntens iv
D etail
or bene
om o
Ġr unden
ĠMar ion
Th ema
Ġw illen
S or
um fang
ĠeinschlÃ¤g igen
ĠSp eed
tier ungs
ĠEreig nissen
ĠSch ilder
Ġe j
unternehmen s
Ġtschech ischen
Ġabgesch afft
ĠverlieÃŁ en
wÃ¤lt in
ab kommens
ĠA gn
Ġgemeinschaft liche
ĠO S
ap o
ĠM iami
ĠÃľ bungen
Z ie
Ġbra uch
Ġlieb sten
Ġakadem ischen
ĠPazif ik
Ġvorher r
ĠDreh arbeiten
Ġfin nischen
Ã¤ tigt
ĠMontag abend
Sch war
ĠKolumb ien
ĠP utz
ĠSp ende
ĠR eut
ĠAus fall
mittel ten
se c
sthe ater
ĠFÃ¶der ation
ĠBri an
ag ung
ĠFab ian
k assen
ĠLehr ern
ĠC row
ĠR Ã©
ĠAngeb ots
ĠGroÃŁ mutter
Ġk lingen
Ġu as
Ġproblem los
Ġd ella
ĠG itter
r z
ff el
ĠAlb anien
ĠVerwaltungs rat
ĠL Ã¼cke
Ġ lich
ĠHex en
Ġi De
tem pel
Un ited
ĠSe gen
Ġver lei
ĠBe werbung
sper iode
ĠVerkÃ¤ ufer
ĠVerab schiedung
ĠWirk ungs
ĠBaum wolle
P ierre
ĠSt Ã¶r
Ġbr ing
hr a
ĠSa arbrÃ¼cken
Ġsp iegelt
I mm
ĠAn leitung
ĠBab ys
ĠFu E
f ochten
R os
! ",
Ã¼t tert
ĠBo ule
ĠNatur park
ĠMittwoch abend
ĠS ah
ĠWÃ¤l dern
iter ran
Ġlandwirtschaft licher
net te
Ġindir ekt
Ġunter liegt
ĠBe wohnern
Ġempf ing
ĠRub rik
em onie
ograph ischen
ĠRuss ischen
ĠÃ¼ber gab
film ung
ild ren
Ġder jenigen
ĠToil etten
fas ern
ĠJahrhund erten
B esser
Ġe Di
tel ang
R G
ĠI sa
ĠKreis stadt
Ġbesieg te
ĠF ehlen
ĠSti lle
ĠTour nee
ĠLÃ¤nder spiel
ĠMa as
ĠLux em
: "
Ġa sl
Ġzu einander
ĠBruder s
ĠLog ik
rech nungen
emat ik
Ġs uch
Ġamer ikanischer
Ġstammen den
Ġth em
Ġfahr e
ager ten
Ġr ang
ĠElekt rom
ĠE AG
Ä Ļ
Ġabge laufen
ĠKolleg innen
ĠCas ino
wie weit
sk ont
Ġverb reiten
ĠDunkel heit
Ġvorzu legen
ĠBern ard
ĠR up
ĠGrundstÃ¼ck e
Ġausge tauscht
ĠSch ra
ĠKon zeption
Ġher gestellten
Ġtyp e
b p
ĠH ob
Ġw ell
ĠAr te
International e
ĠZirk us
Ġg lieder
ĠSen ats
ĠGebir gs
urs ache
ĠT rÃ¤ume
ĠErfahr ungs
Ġwelt weite
Ã¤ en
Ġv al
F an
Ġl sa
ĠGesundheits schutz
18 0
ĠChancen gleichheit
ĠBundestags wahl
Ã¤ uren
ĠGrie ch
dr ing
ĠFol ter
eu g
ĠRed ner
ĠWeiÃŁ e
sch all
op hil
Kl eine
ĠTit an
Ġzu geschrieben
H abt
ĠKlub s
ĠBemerk ungen
Ġs eh
ĠU ran
ĠLu cas
W C
aus enden
ement s
ĠV illen
ĠOl af
Ġforder ten
ĠL ehen
ĠWirk ungen
ĠKap azitÃ¤ten
ĠPlan et
Ġvergangen e
ĠBeruf e
ĠZusch Ã¼sse
E A
j ap
ĠPlatz ierung
ĠAven ue
at ischer
Ġ26 0
Ġgehei ratet
Ġpolit isches
ĠApost el
ed o
ĠLie dern
di u
ĠMess ungen
ĠKonflik ten
A bend
Ġdemokrat ische
Ã¤st inens
ĠM Ã©
ĠO m
Ġmel det
M ama
ĠG ard
Ġchrist liche
ĠbÃ¼rger lichen
ĠHaupts itz
sch ers
ĠBill y
Ġab schloss
pp chen
Stud ien
m aus
ĠN ACH
ĠFest land
S alz
l uÃŁ
Unter stÃ¼tzung
histor iker
T ier
mit z
ive aus
ĠS D
od ation
B aby
Ġv e
ĠN ett
ie fs
Ã¤ umen
In fo
ag ern
ĠUN O
ĠDach au
Ġwesent licher
Ġzentr aler
def ault
d w
Ġus a
rach tens
produ ktionen
B ack
bereit ungs
arti cles
Ġun regel
ĠOb last
Ġd igital
Ġintegr ieren
W ohin
Ġd rohte
gen ehmigung
ĠT Ã¤tigkeits
ĠHol ger
fe ste
ĠR inge
ĠMar g
Ã¼n n
Ġn ad
ĠT w
ĠSch Ã¼tz
ĠAuf forderung
G riechenland
omenkl atur
ĠÃ¼ber aus
Ġâĸ ł
ire kte
M aterial
bo e
ĠW ES
k eine
ĠkÃ¼r zer
mess ung
ĠSec urity
Â ĥ
ĠGrÃ¤ ber
ĠAn halt
Ġbewir ken
Ġsex y
ĠdÃ¼n n
ĠMeld ung
ĠSchwer in
ĠRein igungs
uten ant
ab gabe
ĠAn bindung
Ã¤nd lern
ĠDonnerstag abend
ĠBundes land
Ġer we
Ġverein barten
ĠModer ator
f rank
mittel alter
unter schied
us sten
ĠC OM
ge walt
ĠPrÃ¤ z
v h
H it
H of
ma jor
ĠM uss
ĠErleichter ung
ĠSemin are
an kte
B lau
Ġim m
In formation
Ġkompl iziert
ĠT SG
W ochen
ĠC ow
ĠImpu lse
ĠEnt tÃ¤u
Ġ6 50
ĠS eh
arr er
c ing
Ġhin zufÃ¼gen
ĠVor sicht
Ġsch ade
T radition
Ġd ominiert
W al
Ġinteress ierte
Ã¼ f
Ġro om
Ġbeabs ichtigt
ĠansÃ¤ss igen
st ich
Mon at
ĠForst wirtschaft
ĠK Ã¤mpfer
av w
Ġirgend welche
EUR OP
ĠVor fahren
ĠÃ¼berw achen
Ġvor lÃ¤ufig
ĠpersÃ¶n licher
Ġf lÃ¤chen
lag nahm
or ch
ir s
S ON
achst ums
Ġober sten
Ġge deckt
Ġzu kommen
Durch schnitt
ÃŃ o
ĠMaÃŁ stab
ab bau
Ġheil ige
T sch
ĠS ingen
ĠSt Ã¤mme
P osition
ĠTh ese
Ġkn Ã¼
ge ts
ch ang
Ġstark es
ĠÃ ģ
ĠBlumen stra
Ã¤r mt
i ot
Ġbra un
ÃĦhn lich
ĠInszen ierung
ĠPro te
ĠRÃ¤ tsel
H EI
sf ers
ĠR un
ĠÃ¶k ologischen
Ġbreit es
P op
ĠSin fon
T rans
g p
Ġgegensei tige
Ġan passen
B il
ĠF L
Ġden jenigen
ĠKla ppe
ĠAnnÃ¤her ung
stand ard
ĠGe gebenheiten
T im
ĠMor al
Ġst oÃŁen
Ġentsprechen der
ĠM ust
part nern
ĠBrÃ¼ dern
ĠOrganis atoren
ĠOs lo
m assen
Ġ25 00
d ingen
ĠMitbegr Ã¼nder
sch uh
ĠAn ten
iol ab
ĠÃĦ ra
mal erei
ĠGran de
ĠK alten
tra ck
ĠzeitgenÃ¶ss ischen
ĠVer nicht
Ġhilf reich
ĠT ausend
riz ona
Ġbe antrag
11 5
ĠH op
ĠIn vas
Ġbei des
Ġilleg al
ĠPop ular
Ġbedeuten der
ĠGesell schafter
Ġb al
sÃ¤ ure
ĠAn dy
ĠSen ator
Ste llen
ĠUr sprÃ¼nglich
neu es
Ġkom isch
Ġant rat
Ġman ip
j as
ĠD L
O B
v ic
schl us
T s
es k
bez irke
ĠKrie ge
t c
ĠItalien isch
den berg
ĠZu vor
u sten
Ġein laden
ĠTitel verteidiger
schl Ã¼ssen
lo yd
ĠSchaf e
ĠV Ã¤ter
ĠZ eile
Sch ne
ĠEinfl Ã¼sse
ĠE rachtens
ichtig keit
bez irks
kt op
ĠStaatsange hÃ¶r
Ġa p
Ġ ****
be arbeitung
Ġbeg eistern
ĠVer spÃ¤t
ĠVersicher ungen
ĠReicht um
Ġn Ã¼tz
ĠProblem s
AN G
R aus
zu geben
ĠAlger ien
ĠStat ue
ĠRoh stoffe
Ġan scheinend
sch alter
ĠB ridge
frist igen
ĠRen Ã©
ti le
leb nisse
ĠSchw ach
Ã¤l ern
Ġhind urch
Ġinterpret iert
Ġge lingen
ĠC in
Ġ12 8
techn ische
t agen
ĠKon ferenzen
ierte m
besser ung
reg iolab
Er z
ĠGlo cke
Ġ5 50
Ġbew uÃŁt
ĠBom be
Ġa ch
Ġk inder
ĠkÃ¼nd igt
Ġvorzu bereiten
us ik
Ġfl og
ict ure
Juni oren
ou x
ĠKlÃ¤ger in
hei de
ĠVor arl
aller ie
ai i
Ã¶hn t
ĠVerwalt ungen
met ik
ĠVerpack ung
ĠDomin ik
ĠAbwesen heit
ĠKathol iken
ĠNord ost
ĠEF TA
Ġschwei zer
Ġruh iger
nah e
ĠSchl us
Ġverwirk lichen
ĠEint rÃ¤ge
kathol ischen
Ġverh andelt
ĠGer uch
ĠPri mÃ¤r
Ġmer kt
rach ter
chn ik
ĠL ow
Ġeffiz ient
ĠRegierung schefs
Ġgewal ts
sel be
ĠCom eback
sp ap
L eute
fe ed
Ġverz ichtete
K re
ĠEl ite
ĠherkÃ¶mm lichen
on c
Ġbayer ische
W ur
9 00
uf fer
Ġunters agt
ĠwÃ¤r st
Ġvor nehmlich
ĠK Ã¤mpfen
ĠBestand teile
pf Ã¤l
ĠSchl ange
Ġ18 03
uth or
S Ã¤nger
ĠGÃ¼ter verkehr
Ã¶ sten
âĢĶâĢĶ âĢĶâĢĶ
ĠzurÃ¼ckge kehrt
B ig
Ġbre akfast
ĠAusgleich s
ĠDurchfÃ¼hrungs bestimmungen
ĠMus lime
Ġvorge legten
ien n
19 72
B ade
fl otte
ĠWohnungs bau
Ġverab schieden
beg riffen
Ġfest er
ĠMi ÃŁ
ĠkÃ¶rper liche
T here
lin de
ĠEpis ode
ste uropÃ¤ischen
Ġn eutr
ĠBel agerung
halte stelle
ĠLiber alisierung
Ġgerade zu
P age
ul o
kehr te
Ġs ua
ĠB ande
ĠLÃ¶s ungs
C op
Ġvoll zogen
[...]
